unsigned char ___Model_cnn_model_quantized2_half_tflite[] = {
  0x20, 0x00, 0x00, 0x00, 0x54, 0x46, 0x4c, 0x33, 0x00, 0x00, 0x00, 0x00,
  0x00, 0x00, 0x12, 0x00, 0x1c, 0x00, 0x04, 0x00, 0x08, 0x00, 0x0c, 0x00,
  0x10, 0x00, 0x14, 0x00, 0x00, 0x00, 0x18, 0x00, 0x12, 0x00, 0x00, 0x00,
  0x03, 0x00, 0x00, 0x00, 0xfc, 0x40, 0x00, 0x00, 0x80, 0x37, 0x00, 0x00,
  0x68, 0x37, 0x00, 0x00, 0x3c, 0x00, 0x00, 0x00, 0x04, 0x00, 0x00, 0x00,
  0x01, 0x00, 0x00, 0x00, 0x0c, 0x00, 0x00, 0x00, 0x08, 0x00, 0x0c, 0x00,
  0x04, 0x00, 0x08, 0x00, 0x08, 0x00, 0x00, 0x00, 0x08, 0x00, 0x00, 0x00,
  0x13, 0x00, 0x00, 0x00, 0x13, 0x00, 0x00, 0x00, 0x6d, 0x69, 0x6e, 0x5f,
  0x72, 0x75, 0x6e, 0x74, 0x69, 0x6d, 0x65, 0x5f, 0x76, 0x65, 0x72, 0x73,
  0x69, 0x6f, 0x6e, 0x00, 0x14, 0x00, 0x00, 0x00, 0x18, 0x37, 0x00, 0x00,
  0x04, 0x37, 0x00, 0x00, 0xc8, 0x36, 0x00, 0x00, 0x74, 0x36, 0x00, 0x00,
  0x20, 0x36, 0x00, 0x00, 0xfc, 0x35, 0x00, 0x00, 0xd8, 0x35, 0x00, 0x00,
  0xc4, 0x0b, 0x00, 0x00, 0x70, 0x0a, 0x00, 0x00, 0xdc, 0x08, 0x00, 0x00,
  0xc8, 0x00, 0x00, 0x00, 0xbc, 0x00, 0x00, 0x00, 0xa8, 0x00, 0x00, 0x00,
  0x94, 0x00, 0x00, 0x00, 0x80, 0x00, 0x00, 0x00, 0x6c, 0x00, 0x00, 0x00,
  0x58, 0x00, 0x00, 0x00, 0x44, 0x00, 0x00, 0x00, 0x30, 0x00, 0x00, 0x00,
  0x04, 0x00, 0x00, 0x00, 0x9e, 0xc8, 0xff, 0xff, 0x04, 0x00, 0x00, 0x00,
  0x10, 0x00, 0x00, 0x00, 0x31, 0x2e, 0x35, 0x2e, 0x30, 0x00, 0x00, 0x00,
  0x00, 0x00, 0x00, 0x00, 0x00, 0x00, 0x00, 0x00, 0x00, 0x00, 0x00, 0x00,
  0x00, 0x00, 0x00, 0x00, 0x00, 0x00, 0x00, 0x00, 0xf8, 0xbf, 0xff, 0xff,
  0x00, 0x00, 0x00, 0x00, 0x00, 0x00, 0x00, 0x00, 0x00, 0x00, 0x00, 0x00,
  0x08, 0xc0, 0xff, 0xff, 0x00, 0x00, 0x00, 0x00, 0x00, 0x00, 0x00, 0x00,
  0x00, 0x00, 0x00, 0x00, 0x18, 0xc0, 0xff, 0xff, 0x00, 0x00, 0x00, 0x00,
  0x00, 0x00, 0x00, 0x00, 0x00, 0x00, 0x00, 0x00, 0x28, 0xc0, 0xff, 0xff,
  0x00, 0x00, 0x00, 0x00, 0x00, 0x00, 0x00, 0x00, 0x00, 0x00, 0x00, 0x00,
  0x38, 0xc0, 0xff, 0xff, 0x00, 0x00, 0x00, 0x00, 0x00, 0x00, 0x00, 0x00,
  0x00, 0x00, 0x00, 0x00, 0x48, 0xc0, 0xff, 0xff, 0x00, 0x00, 0x00, 0x00,
  0x00, 0x00, 0x00, 0x00, 0x00, 0x00, 0x00, 0x00, 0x58, 0xc0, 0xff, 0xff,
  0x00, 0x00, 0x00, 0x00, 0x00, 0x00, 0x00, 0x00, 0x00, 0x00, 0x00, 0x00,
  0x68, 0xc0, 0xff, 0xff, 0x00, 0x00, 0x00, 0x00, 0x3e, 0xc9, 0xff, 0xff,
  0x04, 0x00, 0x00, 0x00, 0x00, 0x08, 0x00, 0x00, 0x45, 0xbc, 0x89, 0x3c,
  0x88, 0x3f, 0x90, 0xbc, 0x44, 0xb2, 0xfd, 0xbd, 0xf2, 0x65, 0x71, 0xbe,
  0x16, 0x0b, 0x6c, 0x3d, 0x18, 0x2e, 0xb6, 0xbc, 0xc5, 0xdf, 0x73, 0x3e,
  0x2e, 0x75, 0x17, 0xbe, 0x63, 0xa1, 0x34, 0x3e, 0x79, 0xef, 0x8f, 0x3d,
  0x40, 0x65, 0x12, 0x3e, 0x72, 0x22, 0x36, 0xbe, 0x80, 0xe9, 0x47, 0x3e,
  0xe0, 0x09, 0x41, 0x3e, 0x7b, 0xde, 0xfd, 0xbd, 0x0d, 0xfa, 0x05, 0x3e,
  0xb3, 0xd1, 0xa2, 0xbd, 0xa5, 0x24, 0x2a, 0x3e, 0xac, 0xa8, 0x78, 0x3d,
  0xb6, 0xc7, 0x7c, 0xbe, 0xa1, 0x57, 0x6c, 0x3d, 0xee, 0x2d, 0x8a, 0xbd,
  0xd0, 0xa5, 0x72, 0x3e, 0x40, 0x24, 0xa7, 0x3d, 0x04, 0x99, 0x22, 0x3e,
  0x1a, 0xae, 0x15, 0xbe, 0xda, 0x60, 0x36, 0xbe, 0x50, 0xd3, 0x11, 0xbe,
  0x35, 0xa0, 0x99, 0xbd, 0x44, 0xdc, 0x0c, 0xbe, 0xdf, 0x6f, 0x16, 0xbd,
  0x29, 0x48, 0x29, 0x3e, 0x8e, 0xe3, 0x30, 0x3e, 0x6d, 0x2f, 0x7c, 0xbe,
  0x02, 0x3d, 0xff, 0x3c, 0xfa, 0x12, 0xec, 0x3a, 0x98, 0x54, 0xa0, 0xbe,
  0xfb, 0xc9, 0x81, 0x3e, 0x8c, 0xb2, 0x58, 0x3e, 0x58, 0x50, 0x64, 0xbe,
  0xa9, 0xcf, 0x5a, 0xbd, 0x5a, 0xa3, 0x84, 0xbe, 0xec, 0x33, 0x12, 0x3a,
  0x4e, 0xe4, 0x31, 0xbe, 0x32, 0x6a, 0x8e, 0xbe, 0x78, 0x1e, 0xfb, 0xbd,
  0x7b, 0x04, 0x4a, 0x3e, 0x38, 0x9e, 0xa7, 0xbb, 0x78, 0x2d, 0x04, 0xbd,
  0xdc, 0xff, 0xd6, 0x3b, 0xd0, 0x07, 0xd0, 0xbd, 0xad, 0x88, 0xb5, 0xbd,
  0x6a, 0x6a, 0xb4, 0xbd, 0xac, 0x55, 0xb1, 0x3e, 0x2d, 0x33, 0x09, 0xbe,
  0x28, 0x2c, 0x20, 0x3e, 0x0e, 0x94, 0xe3, 0xbd, 0xb9, 0x11, 0x92, 0xbd,
  0x68, 0x3d, 0x0b, 0x3e, 0x67, 0x9e, 0x2c, 0xbe, 0x34, 0xd7, 0x89, 0x3c,
  0xae, 0x7f, 0x7a, 0xbd, 0xe4, 0xf0, 0x12, 0x3e, 0x70, 0xa5, 0x67, 0x3d,
  0xa5, 0xb1, 0x0a, 0x3e, 0x4a, 0x1f, 0x4b, 0xbe, 0x14, 0xb6, 0xe4, 0x3c,
  0xa7, 0x0b, 0xe8, 0xbd, 0xad, 0x35, 0x84, 0x3e, 0x8b, 0xac, 0xbb, 0xbc,
  0x02, 0xaf, 0x6f, 0x3e, 0x64, 0xad, 0xfe, 0x3d, 0x82, 0x2f, 0x8f, 0x3d,
  0x9f, 0xd3, 0xb6, 0xbe, 0x1c, 0x6d, 0xb3, 0x3d, 0x80, 0x49, 0xe8, 0xbd,
  0x10, 0x95, 0x5c, 0xbd, 0x44, 0x0f, 0x7d, 0xbd, 0x3f, 0x8d, 0x78, 0x3e,
  0xd0, 0xfc, 0x05, 0x3e, 0x4f, 0x9d, 0x36, 0x3d, 0xf8, 0x25, 0x91, 0xbe,
  0xbd, 0x1a, 0x68, 0xbe, 0xc7, 0x8f, 0x19, 0xbe, 0x9c, 0x67, 0x73, 0xbe,
  0x24, 0x1b, 0x37, 0xbe, 0x77, 0x8e, 0xd5, 0x3d, 0x50, 0xe9, 0x73, 0xbe,
  0x41, 0xb5, 0x6a, 0xbc, 0xcf, 0xcb, 0xc9, 0x3d, 0xdd, 0xc5, 0xe7, 0x3a,
  0xfa, 0x86, 0x68, 0xbe, 0x90, 0xb5, 0x23, 0xbe, 0xab, 0xe5, 0xec, 0xbd,
  0xc8, 0x23, 0x65, 0xbe, 0x40, 0xee, 0xee, 0x3d, 0x1c, 0x90, 0x7a, 0x3e,
  0x11, 0xbd, 0xa7, 0x3d, 0xf6, 0xd0, 0x39, 0xbe, 0x35, 0x10, 0x5f, 0xbe,
  0xbf, 0x5b, 0xc1, 0xbd, 0x43, 0x2f, 0x6f, 0x3e, 0xb4, 0x78, 0x82, 0x3e,
  0xa1, 0xb1, 0x2b, 0xbe, 0xea, 0x89, 0x93, 0xbd, 0xfc, 0xa7, 0xd9, 0xbc,
  0x3b, 0x24, 0x72, 0xbe, 0x71, 0x9c, 0x35, 0xbd, 0xd0, 0xd9, 0x4d, 0xbe,
  0xc3, 0x3c, 0xcf, 0x3e, 0x73, 0x2e, 0x72, 0x3e, 0x94, 0x9a, 0x45, 0x3e,
  0x0c, 0x61, 0xca, 0xbd, 0xda, 0x54, 0x8d, 0xba, 0x32, 0x23, 0x3b, 0xbe,
  0x0f, 0xfb, 0x96, 0x3b, 0x1f, 0xda, 0x0d, 0xbd, 0xf8, 0x88, 0xc5, 0xbc,
  0x46, 0x93, 0x4c, 0xbe, 0x46, 0x92, 0xd5, 0xbd, 0xe8, 0x05, 0x76, 0x3e,
  0x69, 0xb7, 0x1d, 0xbe, 0x4e, 0x46, 0xad, 0x3d, 0xfe, 0xae, 0x5a, 0xbe,
  0x9a, 0xf4, 0x1e, 0xbd, 0x7a, 0xb5, 0x52, 0x3d, 0xb8, 0xec, 0x04, 0x3d,
  0x6c, 0x7c, 0x15, 0xbd, 0x8d, 0xd7, 0xfd, 0x3d, 0x42, 0x4f, 0xba, 0xbe,
  0x43, 0xc1, 0x17, 0x3e, 0x88, 0x53, 0x9b, 0xbd, 0xbe, 0x67, 0x44, 0xbd,
  0xcd, 0x5c, 0xaf, 0xbd, 0x32, 0x9c, 0xb6, 0x3d, 0x9c, 0x0b, 0xf8, 0xbd,
  0xd6, 0x93, 0xbc, 0xbd, 0x4c, 0xb8, 0xca, 0xbe, 0xaa, 0x25, 0x03, 0x3e,
  0x66, 0xeb, 0xf2, 0x3d, 0xa0, 0x8b, 0x62, 0x3e, 0x68, 0xa2, 0x0d, 0xbe,
  0x9d, 0x8a, 0xa7, 0xbd, 0x6e, 0x53, 0x5b, 0xbe, 0x09, 0x91, 0x49, 0xbd,
  0xfd, 0xec, 0xce, 0xbe, 0x2d, 0xb1, 0x90, 0x3e, 0x0d, 0x65, 0xc9, 0xbd,
  0x13, 0x35, 0xee, 0x3d, 0x3d, 0x1e, 0x14, 0xbe, 0x84, 0x2f, 0x17, 0x3e,
  0xb8, 0x8d, 0x47, 0xbe, 0x6b, 0xb1, 0x59, 0x3e, 0xd4, 0xea, 0xe5, 0xbe,
  0x9f, 0x13, 0x9a, 0x3e, 0x60, 0x68, 0xd9, 0xbb, 0xb3, 0x87, 0x35, 0x3e,
  0x25, 0xe9, 0xa9, 0xbd, 0xf3, 0xe9, 0x71, 0x3e, 0x7f, 0x83, 0xe3, 0x3d,
  0xd2, 0x04, 0x18, 0xbe, 0xf2, 0xdc, 0x2d, 0xbe, 0xbb, 0xca, 0x88, 0xbd,
  0x41, 0x4e, 0x9e, 0x3e, 0xad, 0x07, 0xea, 0x3d, 0xd6, 0xba, 0x50, 0xbc,
  0xaa, 0x7b, 0xfb, 0xbd, 0xa2, 0x0e, 0x38, 0xbe, 0xf0, 0xab, 0x87, 0xbe,
  0x58, 0x18, 0x3e, 0xbe, 0x03, 0x5a, 0x05, 0xbe, 0x6a, 0xd0, 0x94, 0x3e,
  0xd4, 0x8d, 0x58, 0x3e, 0x2c, 0xe2, 0x0f, 0x3e, 0xd1, 0xe8, 0x69, 0xbe,
  0xb9, 0x88, 0x5b, 0xbe, 0x22, 0x2c, 0x5e, 0xbe, 0x18, 0xd1, 0xbc, 0xbd,
  0x78, 0xa3, 0x23, 0xbd, 0x70, 0x97, 0x88, 0x3e, 0x75, 0x93, 0x13, 0x3b,
  0x2b, 0x4c, 0x35, 0xbc, 0xf3, 0xfe, 0x84, 0xbe, 0xd8, 0x45, 0x74, 0x3d,
  0x53, 0xb0, 0x87, 0xbe, 0x54, 0xa1, 0x23, 0xbe, 0x0f, 0x03, 0x69, 0x3c,
  0x39, 0x29, 0xb9, 0xbd, 0x3f, 0x43, 0xad, 0x3d, 0xfe, 0xbd, 0xb1, 0xbd,
  0xf2, 0x6c, 0x88, 0xbe, 0x8a, 0x95, 0xd5, 0xbd, 0xe6, 0x97, 0xc6, 0xbd,
  0xc6, 0xc6, 0xf0, 0x3d, 0x3d, 0xad, 0x8c, 0x3c, 0x8d, 0xef, 0xbb, 0xbe,
  0xd8, 0xb0, 0x68, 0x3e, 0xa2, 0xfa, 0x05, 0xbe, 0x19, 0x8c, 0x8b, 0x3d,
  0x3f, 0x06, 0x4b, 0xbe, 0x9f, 0x85, 0x0d, 0xbe, 0x8a, 0xe7, 0x25, 0xbd,
  0x56, 0xb8, 0xcc, 0x3c, 0xbe, 0x30, 0x34, 0xbe, 0xf1, 0x75, 0xbd, 0x3e,
  0x5f, 0x82, 0xfd, 0xbd, 0x01, 0x0b, 0x07, 0xbe, 0x47, 0x33, 0x83, 0xbd,
  0xd6, 0x64, 0xa6, 0xbb, 0x88, 0xd9, 0x05, 0x3e, 0x43, 0x19, 0xa0, 0xbd,
  0x0f, 0x08, 0xc2, 0xbe, 0xca, 0xbb, 0x5c, 0x3e, 0x27, 0x61, 0x43, 0xbd,
  0x5c, 0xae, 0xbb, 0xbd, 0xda, 0xc5, 0x89, 0x3d, 0xf1, 0x64, 0xca, 0x3d,
  0xa9, 0xba, 0x82, 0xbc, 0xaf, 0xf0, 0x0d, 0x3d, 0x05, 0x80, 0x81, 0xbd,
  0x78, 0x1e, 0xae, 0x3e, 0x49, 0xb6, 0x36, 0xbe, 0xc1, 0xae, 0xd1, 0xbc,
  0x48, 0xb2, 0x2f, 0xbe, 0x76, 0xdd, 0xa2, 0xbe, 0x61, 0x7f, 0xa0, 0x3d,
  0x01, 0xb8, 0x09, 0xbe, 0xb0, 0x21, 0x5a, 0x3e, 0xe5, 0x05, 0x19, 0xbe,
  0x36, 0x7b, 0xbe, 0xbd, 0xe1, 0xb3, 0x3f, 0xbd, 0xac, 0x90, 0x7d, 0x3d,
  0x6d, 0x8c, 0xaa, 0xbe, 0x27, 0x69, 0x71, 0x3b, 0x41, 0x8c, 0x2f, 0xbd,
  0x4d, 0x1f, 0x75, 0x3e, 0xdd, 0xa2, 0x22, 0xbe, 0x7d, 0x6d, 0xc8, 0xbd,
  0xd4, 0xf4, 0xa4, 0xbd, 0x5e, 0xfd, 0xd1, 0x3d, 0xdc, 0x81, 0xaa, 0xbe,
  0x40, 0x5f, 0x93, 0xbd, 0x33, 0x6d, 0x83, 0xbd, 0x0c, 0xd5, 0x49, 0x3e,
  0x51, 0x7a, 0x84, 0xbe, 0x71, 0x75, 0x5e, 0x3e, 0x8b, 0x57, 0x38, 0xbe,
  0x73, 0x5c, 0x25, 0xbe, 0x0d, 0x3a, 0xd7, 0xbd, 0x16, 0xea, 0x5a, 0x3d,
  0xf4, 0x10, 0xba, 0x3d, 0x03, 0x4a, 0xb5, 0xbc, 0x92, 0xf5, 0x79, 0xbd,
  0x11, 0xfd, 0xa2, 0x3d, 0xa9, 0x8f, 0x6f, 0xbe, 0xbf, 0xa3, 0x91, 0x3e,
  0x58, 0x5d, 0x1b, 0xbd, 0x23, 0xe6, 0x0f, 0x3e, 0x66, 0x40, 0x28, 0xbe,
  0x29, 0x07, 0x8f, 0xbd, 0x77, 0x41, 0x8a, 0xbe, 0x6c, 0x2d, 0x8c, 0x3e,
  0x17, 0xf7, 0x45, 0xbe, 0x33, 0x73, 0x19, 0x3e, 0x07, 0x31, 0x0b, 0x3e,
  0x13, 0xca, 0xa9, 0xbc, 0xc5, 0x9d, 0x38, 0xbe, 0xaa, 0x80, 0xfd, 0x3d,
  0xd7, 0x2b, 0x8c, 0xbd, 0xe3, 0x89, 0x4e, 0x3e, 0xcd, 0xb0, 0x16, 0xbe,
  0x7e, 0x4e, 0x9f, 0x3d, 0xf4, 0xdd, 0x85, 0xbe, 0xe7, 0x01, 0xb6, 0xbc,
  0x75, 0x94, 0xe3, 0xbd, 0x1b, 0x37, 0x38, 0x3d, 0x73, 0x39, 0x1b, 0xbe,
  0xda, 0x5d, 0x5f, 0x3e, 0xe0, 0x57, 0x3c, 0xbe, 0x16, 0x7e, 0xe3, 0x3d,
  0xbd, 0xdd, 0x06, 0xbe, 0xe2, 0x48, 0x9c, 0xbc, 0x90, 0xd3, 0x32, 0xbe,
  0xa5, 0x13, 0x29, 0x3e, 0x99, 0xbb, 0x5d, 0xbe, 0x36, 0xe8, 0xfc, 0x3d,
  0x1d, 0xb5, 0x0c, 0x3d, 0x86, 0x94, 0x0e, 0x3e, 0xe2, 0x47, 0x7c, 0xbe,
  0xee, 0xaa, 0xa2, 0xbd, 0x6f, 0x1b, 0x4d, 0xba, 0xde, 0xa0, 0x12, 0x3e,
  0x2c, 0x34, 0x37, 0xbe, 0xed, 0x66, 0x0b, 0x3e, 0x6d, 0xc6, 0x86, 0xbd,
  0x1d, 0xf6, 0xd7, 0xbe, 0xf2, 0xc0, 0xe8, 0x3d, 0x42, 0xfa, 0x6b, 0xbd,
  0x7d, 0x74, 0x8a, 0xbe, 0x34, 0xc7, 0x4c, 0x3e, 0xa9, 0x1d, 0xc9, 0x3d,
  0xf2, 0x3a, 0x37, 0x3e, 0x0e, 0x1c, 0x93, 0xbd, 0x87, 0xe7, 0xb7, 0xbe,
  0x09, 0x6a, 0xe5, 0xbd, 0x35, 0xff, 0x1d, 0x3e, 0x50, 0xbd, 0x6c, 0xbe,
  0x77, 0xc6, 0x39, 0x3e, 0x00, 0x1d, 0x21, 0xbe, 0xa5, 0x9d, 0x94, 0x3c,
  0xcf, 0xaf, 0x2f, 0xbd, 0xb1, 0xc1, 0x6e, 0xbe, 0x20, 0x23, 0x71, 0x3d,
  0x90, 0x85, 0x64, 0xbe, 0x05, 0xc7, 0x64, 0xbe, 0xaa, 0x00, 0x8f, 0xbd,
  0x8e, 0x65, 0xee, 0x3c, 0xbd, 0x21, 0xc2, 0xbc, 0x21, 0xc5, 0x17, 0x3e,
  0x97, 0x08, 0xb3, 0xbe, 0x15, 0x80, 0xbb, 0xbd, 0x08, 0xde, 0x3e, 0xbe,
  0xcc, 0x00, 0x6c, 0x3e, 0x32, 0xf8, 0x29, 0x3d, 0x19, 0xc6, 0x32, 0xbd,
  0x81, 0x6f, 0x9b, 0x3b, 0x70, 0x86, 0x4e, 0xbe, 0x55, 0x7c, 0x24, 0xbe,
  0x17, 0x58, 0xc9, 0xbd, 0x08, 0x4a, 0x68, 0xbe, 0xb1, 0xba, 0xba, 0x3d,
  0xc6, 0xa4, 0xe5, 0x3d, 0x62, 0x69, 0x04, 0x3e, 0x39, 0x63, 0x63, 0x3e,
  0xd4, 0x8d, 0xf0, 0x3c, 0xe0, 0x06, 0x89, 0xbe, 0xf6, 0xe5, 0x59, 0xbe,
  0x96, 0xad, 0xd4, 0xbc, 0x59, 0x9a, 0x9c, 0x3e, 0x6c, 0xae, 0xe2, 0x3c,
  0x09, 0x7e, 0x57, 0x3e, 0x78, 0x7d, 0x10, 0xbd, 0xdc, 0x9d, 0x2b, 0x3e,
  0x8f, 0xea, 0x79, 0xbe, 0x00, 0x06, 0x80, 0xbe, 0x2f, 0x88, 0x64, 0x3d,
  0xaa, 0x6f, 0xd9, 0xbd, 0x64, 0x3c, 0x9a, 0xbd, 0xf8, 0xd8, 0xb5, 0xbd,
  0x5a, 0x27, 0x03, 0x3e, 0xa0, 0xa3, 0xe8, 0x3d, 0x6f, 0xe5, 0x7b, 0xbe,
  0x3f, 0x32, 0x08, 0xbe, 0x90, 0x64, 0x32, 0xbe, 0xec, 0x73, 0x27, 0x3d,
  0xbb, 0x3a, 0x8f, 0xbc, 0x33, 0xac, 0x55, 0xbe, 0xee, 0xbb, 0x1d, 0xbe,
  0xe9, 0xe8, 0x62, 0xbe, 0x78, 0x86, 0x92, 0x3d, 0x87, 0xfd, 0x16, 0xbc,
  0xbb, 0x79, 0x8d, 0xbe, 0xa3, 0xad, 0x0d, 0x3e, 0x7b, 0x62, 0xa1, 0xbd,
  0x79, 0xd1, 0x01, 0xbe, 0x6e, 0x7f, 0x15, 0x3d, 0xb9, 0x8a, 0x5a, 0xbe,
  0x83, 0x0e, 0xc9, 0x3d, 0x92, 0x6c, 0x06, 0xbd, 0x80, 0x31, 0x9f, 0xbe,
  0x80, 0x0b, 0x1d, 0x3e, 0xae, 0x61, 0xf6, 0xbd, 0xc7, 0xca, 0xec, 0xbd,
  0xac, 0xfa, 0x21, 0x3e, 0x0d, 0x96, 0x94, 0xbd, 0xbf, 0x96, 0x4a, 0x3e,
  0x6d, 0xbe, 0xc7, 0x3d, 0x0a, 0x27, 0x8f, 0xbe, 0x80, 0xcf, 0xb0, 0xbd,
  0x6a, 0x8e, 0x92, 0x3e, 0x66, 0x7e, 0x11, 0x3d, 0x4f, 0x35, 0x6f, 0x3e,
  0x27, 0x92, 0x19, 0x3d, 0xfd, 0x89, 0x1f, 0x3d, 0x23, 0xa4, 0xa2, 0x3e,
  0xe9, 0xeb, 0x7c, 0xbe, 0x6f, 0x18, 0x3e, 0x3e, 0x1a, 0x10, 0x70, 0x3b,
  0x2f, 0x9c, 0xbc, 0xbd, 0xec, 0x59, 0x01, 0x3e, 0x9b, 0x13, 0x37, 0x3e,
  0x9e, 0xb0, 0x06, 0x3e, 0x9a, 0xf1, 0x9e, 0x3d, 0xfe, 0x48, 0x7f, 0xbc,
  0x6d, 0xba, 0x9e, 0x3e, 0x72, 0x40, 0x15, 0xbd, 0x1d, 0x12, 0x21, 0x3e,
  0x17, 0xe1, 0xa8, 0x3e, 0x43, 0x3b, 0x2e, 0xbe, 0x85, 0xbd, 0x44, 0xbe,
  0x02, 0x25, 0x24, 0xbe, 0x25, 0xd2, 0x73, 0xbe, 0xde, 0x7e, 0x94, 0xbc,
  0x4f, 0xda, 0xc4, 0x3c, 0x4b, 0x1c, 0x8b, 0xbe, 0x54, 0x6d, 0xde, 0xbd,
  0x05, 0xe8, 0x9f, 0x3d, 0x0d, 0x93, 0xc4, 0xbd, 0xc7, 0x35, 0xf7, 0xbd,
  0x9b, 0xa1, 0x79, 0xbe, 0xe0, 0xd4, 0x7c, 0xbd, 0x0d, 0xdd, 0x43, 0xbe,
  0x81, 0x2a, 0x85, 0xbe, 0xcd, 0xf1, 0x04, 0xbe, 0xc7, 0x83, 0xdd, 0xbd,
  0x7e, 0x57, 0x84, 0xbe, 0x7f, 0x23, 0x89, 0x3d, 0x77, 0xeb, 0x8f, 0xbd,
  0xc7, 0x3d, 0x01, 0xbd, 0xdf, 0xc5, 0x8c, 0xbe, 0xdd, 0x98, 0x42, 0xbe,
  0x3c, 0xf2, 0x21, 0xbe, 0x01, 0x4e, 0x10, 0x3e, 0x83, 0x6f, 0x95, 0xbb,
  0x5b, 0x61, 0x8f, 0xbe, 0xee, 0xf6, 0x39, 0x3e, 0x24, 0x9f, 0xc5, 0x3d,
  0x0a, 0x5d, 0x77, 0xbd, 0x24, 0xfb, 0x1c, 0xbe, 0xb8, 0x4d, 0xa9, 0x3d,
  0x09, 0x1e, 0x66, 0xbe, 0x43, 0x6f, 0x4b, 0x3e, 0x27, 0xa8, 0x8c, 0xbe,
  0x74, 0xec, 0x93, 0xbd, 0x71, 0x1f, 0x28, 0x3e, 0x42, 0x74, 0x62, 0xbe,
  0xac, 0xe2, 0x22, 0xbe, 0xbe, 0xef, 0x54, 0xbd, 0x8e, 0xa7, 0x83, 0xbe,
  0x52, 0x2f, 0x3e, 0x3e, 0x3a, 0x22, 0xa9, 0x3d, 0xf1, 0xb9, 0x04, 0x3e,
  0xbf, 0x80, 0x12, 0x3e, 0x35, 0xb9, 0x67, 0xbe, 0x93, 0x2b, 0x64, 0xbe,
  0xd1, 0x8d, 0xbf, 0xbb, 0xaa, 0x79, 0x0a, 0xbe, 0x66, 0x22, 0x80, 0xbd,
  0x08, 0x52, 0xed, 0xbc, 0x92, 0x91, 0x08, 0x3e, 0xb3, 0x8c, 0x08, 0x3e,
  0xe1, 0xdc, 0x68, 0xbe, 0x3b, 0x26, 0xc7, 0x3c, 0xe4, 0x92, 0x22, 0xbd,
  0x6f, 0x77, 0x4d, 0x3e, 0x26, 0xc2, 0xf6, 0x3b, 0x2d, 0xc6, 0xe6, 0xbc,
  0x89, 0xdd, 0xb4, 0x3d, 0xe4, 0x18, 0x3f, 0x3d, 0x2f, 0x8e, 0x96, 0xbe,
  0x29, 0x38, 0x92, 0xbe, 0x9e, 0xaa, 0xf6, 0xbd, 0x45, 0x67, 0x44, 0xbe,
  0x97, 0x84, 0x55, 0x3e, 0xda, 0xe0, 0x48, 0x3c, 0xc4, 0x2f, 0xcb, 0xbd,
  0xa0, 0x96, 0x0d, 0x3e, 0xa5, 0x80, 0xb4, 0xbe, 0xf5, 0x1e, 0x58, 0xbe,
  0xf9, 0x78, 0x02, 0x3d, 0xd0, 0x39, 0xf0, 0x3d, 0xe7, 0x12, 0xec, 0x3d,
  0x33, 0x0c, 0x54, 0xbd, 0xee, 0x04, 0x60, 0x3d, 0x53, 0x82, 0x47, 0xbd,
  0x6f, 0xb0, 0x97, 0xbe, 0x29, 0x4e, 0xc3, 0xbd, 0xab, 0x54, 0xea, 0xbb,
  0xa8, 0x33, 0x01, 0xbd, 0x0a, 0x89, 0x98, 0xbd, 0x28, 0xbb, 0x60, 0xbc,
  0xbd, 0x11, 0x17, 0x3e, 0x14, 0xc4, 0xef, 0xbd, 0xc2, 0x5b, 0xe5, 0x3d,
  0x83, 0xb0, 0x7e, 0x3d, 0xaf, 0x6a, 0x17, 0xbe, 0x90, 0x22, 0xf3, 0x3c,
  0x37, 0x5b, 0xf8, 0xbd, 0x80, 0xdf, 0xb3, 0x3d, 0x37, 0x32, 0x5b, 0x3d,
  0x97, 0xa9, 0xc7, 0x3d, 0x64, 0xdc, 0x56, 0x3e, 0x39, 0xd9, 0x21, 0xbe,
  0xbb, 0x3d, 0xed, 0xbd, 0x84, 0x84, 0xbd, 0x3c, 0x58, 0xa3, 0x86, 0x3d,
  0x07, 0xd2, 0x4e, 0x3e, 0xb6, 0x68, 0xff, 0xbd, 0x2e, 0x57, 0x66, 0x3d,
  0x45, 0x76, 0x03, 0xbd, 0x17, 0xbb, 0x9c, 0xbe, 0xf9, 0x0c, 0xbc, 0xbd,
  0xe4, 0x5b, 0x65, 0x3e, 0x09, 0x7f, 0x8a, 0xbd, 0xe8, 0x59, 0xef, 0x3d,
  0xe8, 0xcb, 0xc6, 0x3d, 0x5e, 0x4e, 0x04, 0x3e, 0x58, 0x4d, 0x7e, 0x3d,
  0xc9, 0xc8, 0xa1, 0xbe, 0xbb, 0xd4, 0xdc, 0xbc, 0x8a, 0xe2, 0x66, 0x39,
  0xd3, 0xb2, 0x42, 0xbe, 0x00, 0x00, 0x00, 0x00, 0x4e, 0xd1, 0xff, 0xff,
  0x04, 0x00, 0x00, 0x00, 0x80, 0x01, 0x00, 0x00, 0x0a, 0x64, 0x68, 0x3c,
  0xe9, 0x79, 0x30, 0xbd, 0x98, 0xc5, 0x01, 0x3e, 0xf0, 0x11, 0x3e, 0xbe,
  0x37, 0x72, 0x69, 0x3d, 0x8f, 0xb5, 0xf0, 0x3d, 0xcd, 0x64, 0x25, 0x3e,
  0x08, 0xe3, 0x13, 0xbe, 0x55, 0x54, 0x7b, 0xbd, 0xe1, 0x04, 0x1b, 0xbe,
  0x0d, 0x4f, 0x3e, 0x3e, 0x13, 0xc7, 0x74, 0x3e, 0x94, 0xe8, 0x31, 0xbe,
  0x35, 0x7b, 0x37, 0xbd, 0xf2, 0x17, 0x40, 0x3d, 0xc0, 0x39, 0xe8, 0xbd,
  0x6d, 0xd9, 0x33, 0xbd, 0x52, 0xe5, 0x83, 0x3d, 0x04, 0x80, 0x97, 0xbd,
  0xa3, 0x95, 0xd7, 0xbd, 0x18, 0x71, 0xc5, 0x3d, 0x28, 0xee, 0x31, 0xbe,
  0xa6, 0x7f, 0xe5, 0x3d, 0x80, 0x40, 0x29, 0xbe, 0xa9, 0xbf, 0x72, 0xbc,
  0x12, 0x48, 0x11, 0xbe, 0x18, 0xee, 0x48, 0x3d, 0x69, 0x69, 0x81, 0x3d,
  0x37, 0x27, 0x48, 0xbe, 0x41, 0x65, 0x15, 0xbe, 0x6e, 0x57, 0xbe, 0x3d,
  0xed, 0x06, 0xfc, 0xbb, 0x3f, 0xe8, 0x48, 0xbd, 0xd3, 0x34, 0x84, 0x3e,
  0xd4, 0xb2, 0xfe, 0xbd, 0x2e, 0xd7, 0x96, 0xbd, 0x5f, 0x22, 0x22, 0x3d,
  0x86, 0x68, 0x46, 0xbe, 0xcc, 0xbc, 0x8b, 0xbc, 0x28, 0x9b, 0x33, 0x3e,
  0xc7, 0x01, 0xea, 0xbd, 0xf3, 0x08, 0xd5, 0x3d, 0x08, 0xc6, 0xc9, 0x3e,
  0x8b, 0x80, 0x74, 0xbd, 0x2e, 0x76, 0x61, 0x3e, 0x29, 0x29, 0xc4, 0x3d,
  0x8e, 0xe9, 0x0e, 0xbe, 0x2f, 0xc6, 0x4a, 0x3e, 0x58, 0xd4, 0x2f, 0x3d,
  0x94, 0xfb, 0x5d, 0x3e, 0x4e, 0x93, 0xc4, 0xbd, 0x71, 0xef, 0x9f, 0x3d,
  0x05, 0xef, 0xb7, 0x3d, 0x4b, 0x9a, 0x0f, 0xbe, 0x25, 0x1c, 0xce, 0x3c,
  0x36, 0x3f, 0xd6, 0x3b, 0xd4, 0x17, 0x85, 0xbe, 0x3c, 0xd3, 0xbe, 0x3b,
  0x9e, 0x1c, 0xe3, 0x3d, 0x0c, 0xeb, 0xca, 0xbd, 0x65, 0xa5, 0xbb, 0x3e,
  0xd1, 0x3c, 0x59, 0x3d, 0x5b, 0x9a, 0xb5, 0x3d, 0x25, 0x0a, 0x5d, 0x3e,
  0x93, 0x23, 0x5e, 0x3c, 0x96, 0x4d, 0x0b, 0xbd, 0x9f, 0xeb, 0x85, 0x3e,
  0xa6, 0xe4, 0xba, 0xbd, 0x28, 0xd8, 0x9f, 0xbd, 0x80, 0xec, 0x55, 0x3d,
  0xb7, 0xbf, 0x18, 0x3d, 0x06, 0x3f, 0x6e, 0xbd, 0x93, 0x5d, 0x05, 0xbd,
  0xca, 0x86, 0xe7, 0x3d, 0x19, 0xde, 0x5f, 0x3e, 0x86, 0x12, 0x38, 0xbe,
  0xe9, 0x1d, 0x2c, 0x3e, 0x70, 0xec, 0x78, 0x3e, 0x95, 0x23, 0xaa, 0xbd,
  0xfb, 0xcf, 0x9e, 0xbd, 0x8b, 0x92, 0x96, 0xbd, 0xc4, 0x2a, 0x23, 0x3e,
  0x5e, 0xa0, 0xec, 0xbd, 0xe4, 0x8c, 0xff, 0x3b, 0x48, 0x3f, 0x27, 0xbe,
  0x71, 0x62, 0x31, 0xbe, 0xd8, 0xd9, 0x53, 0x3e, 0xf2, 0x56, 0x15, 0xbe,
  0x71, 0x04, 0x34, 0x3d, 0x8f, 0x2b, 0x2b, 0xbc, 0xe7, 0xe9, 0x27, 0x3e,
  0x8b, 0xc1, 0xc3, 0x3d, 0x27, 0x11, 0x90, 0x3d, 0xba, 0x87, 0x20, 0x3c,
  0xc5, 0x68, 0x82, 0xbe, 0x6f, 0x21, 0x3a, 0x3e, 0x00, 0x00, 0x00, 0x00,
  0xde, 0xd2, 0xff, 0xff, 0x04, 0x00, 0x00, 0x00, 0x40, 0x01, 0x00, 0x00,
  0xfa, 0xb3, 0x20, 0x3f, 0x38, 0x60, 0x01, 0xbf, 0x38, 0x33, 0x1b, 0xbf,
  0x52, 0xba, 0xd7, 0xbb, 0x1f, 0x0e, 0x58, 0x3d, 0x21, 0x21, 0xbc, 0x3e,
  0x0e, 0xee, 0x13, 0xbf, 0xa8, 0x89, 0x0a, 0x3f, 0x80, 0x6b, 0x33, 0x3d,
  0xcb, 0x16, 0xee, 0xbe, 0x40, 0x6d, 0xf3, 0xbe, 0x4e, 0xc2, 0x53, 0xbe,
  0x8e, 0xd4, 0xdf, 0x3d, 0x3b, 0x96, 0x13, 0x3f, 0x3d, 0x26, 0xb9, 0x3e,
  0x79, 0xbe, 0x04, 0x3d, 0x48, 0x0e, 0xa7, 0xbe, 0x59, 0x0a, 0x14, 0xbe,
  0xb2, 0xb2, 0xa6, 0xbe, 0xa3, 0x0e, 0x81, 0xbe, 0x5f, 0xdd, 0x8f, 0x3e,
  0x43, 0x87, 0xc2, 0x3e, 0x88, 0x62, 0x42, 0xbf, 0x90, 0xd6, 0xa1, 0xbe,
  0xac, 0x5d, 0xa6, 0x3d, 0x8e, 0x28, 0xac, 0x3d, 0x78, 0x94, 0x3f, 0xbe,
  0xe8, 0xf4, 0xfb, 0x3e, 0x88, 0x48, 0xb1, 0x3e, 0xe8, 0x0f, 0x36, 0xbe,
  0x9a, 0xd3, 0x1f, 0xbe, 0x20, 0xc9, 0x34, 0xbc, 0xe6, 0x78, 0x5e, 0x3e,
  0x84, 0xe2, 0xf6, 0x3e, 0xad, 0xfc, 0x4e, 0x3e, 0x23, 0x8e, 0x00, 0xbf,
  0xc3, 0xd4, 0xf0, 0xbe, 0x70, 0x2b, 0xb1, 0x3e, 0x6d, 0x1b, 0x54, 0xbe,
  0x5e, 0x18, 0xe5, 0x3c, 0x67, 0x24, 0x9b, 0xbe, 0x18, 0xb4, 0x09, 0x3f,
  0xdf, 0x49, 0x62, 0x3e, 0xcd, 0x24, 0xaa, 0x3e, 0x09, 0xa5, 0x03, 0xbd,
  0xed, 0xc7, 0xba, 0xbe, 0x4a, 0x58, 0xe8, 0xbe, 0x02, 0x99, 0x04, 0x3e,
  0x7a, 0x86, 0x6f, 0xbe, 0x16, 0x78, 0x01, 0xbf, 0xbb, 0x65, 0x35, 0xbe,
  0xc0, 0x6f, 0xd9, 0x3d, 0x5d, 0xf4, 0xc7, 0x3e, 0x4a, 0x95, 0xab, 0xbe,
  0x4d, 0xd4, 0x51, 0x3d, 0xf7, 0x2b, 0xcf, 0xbd, 0x6c, 0xa5, 0xc3, 0xbe,
  0xf1, 0xb5, 0x60, 0xbe, 0xf9, 0x51, 0xa0, 0xbe, 0x5e, 0x40, 0xdb, 0x3d,
  0x04, 0xe2, 0xed, 0xbe, 0xff, 0x97, 0xb4, 0xbe, 0x96, 0x5c, 0x6c, 0xbd,
  0x33, 0xa3, 0xe2, 0x3e, 0x55, 0x04, 0xc0, 0x3d, 0xde, 0xd2, 0x09, 0xbf,
  0x1a, 0x3e, 0xe3, 0xbe, 0x31, 0x49, 0xbd, 0x3e, 0x48, 0x28, 0x40, 0xbe,
  0x95, 0xe0, 0x8d, 0xbe, 0x76, 0x67, 0x5c, 0xbe, 0x30, 0x7d, 0xcd, 0xbe,
  0x2c, 0x28, 0xdb, 0xbe, 0xcf, 0x2c, 0x6a, 0xbe, 0x76, 0x0b, 0xd1, 0x3e,
  0xae, 0x65, 0x92, 0x3e, 0xa3, 0x92, 0xa4, 0x3e, 0x3c, 0xb3, 0x52, 0xbd,
  0x59, 0xbe, 0xab, 0x3e, 0x45, 0x4d, 0xd6, 0xbb, 0x00, 0x00, 0x00, 0x00,
  0x2e, 0xd4, 0xff, 0xff, 0x04, 0x00, 0x00, 0x00, 0x00, 0x2a, 0x00, 0x00,
  0x17, 0x02, 0x0e, 0xf2, 0x12, 0xf7, 0x09, 0x12, 0xfd, 0xf8, 0x0d, 0xfe,
  0xf0, 0xfa, 0x11, 0x04, 0x08, 0x0f, 0x14, 0x0d, 0x1c, 0xee, 0x0c, 0x0d,
  0x19, 0x10, 0x05, 0xff, 0x02, 0x08, 0x1a, 0x11, 0x12, 0xff, 0x11, 0x10,
  0x18, 0xf5, 0x18, 0x15, 0x02, 0x06, 0xf9, 0xfb, 0x08, 0xe6, 0xf7, 0x06,
  0x13, 0xf5, 0xfa, 0xf6, 0x09, 0x02, 0x02, 0xf6, 0x06, 0x08, 0xff, 0x09,
  0x08, 0xe7, 0x05, 0xfb, 0xfd, 0xfc, 0xef, 0x03, 0x16, 0x07, 0xfe, 0xf3,
  0x09, 0x03, 0x10, 0x1a, 0x0a, 0x04, 0xea, 0x0b, 0x18, 0xf9, 0xfa, 0xee,
  0x09, 0xe4, 0xed, 0xe7, 0x22, 0x01, 0x0e, 0x3c, 0xe2, 0xe2, 0xed, 0x0d,
  0x00, 0x19, 0x0b, 0xfe, 0x11, 0xce, 0xfe, 0xe7, 0x28, 0x0e, 0xed, 0x10,
  0xf3, 0xf3, 0xef, 0xf3, 0x0f, 0x17, 0xfd, 0x10, 0x0d, 0xea, 0xf5, 0xfb,
  0x14, 0xf5, 0xe4, 0xf4, 0x06, 0x04, 0x02, 0xfe, 0x06, 0x07, 0xfd, 0x0c,
  0xec, 0xd1, 0x09, 0xfe, 0x0f, 0xf7, 0xef, 0xef, 0xf5, 0xe8, 0xfb, 0xf0,
  0x04, 0x14, 0xf8, 0xf0, 0xf7, 0xbc, 0xea, 0x11, 0x0e, 0xfe, 0xff, 0x08,
  0x08, 0xdc, 0xff, 0xff, 0xf6, 0x08, 0x03, 0x1a, 0xed, 0xb9, 0xfc, 0x13,
  0x05, 0xeb, 0xfb, 0x0d, 0xfd, 0xf3, 0x06, 0xf0, 0x03, 0x32, 0xfc, 0x19,
  0xef, 0xdf, 0x1d, 0x0f, 0x14, 0xef, 0xf6, 0xe4, 0x1c, 0x16, 0xfe, 0xd3,
  0x08, 0x0c, 0x2a, 0x28, 0xea, 0xdb, 0xf0, 0x11, 0x12, 0x02, 0x14, 0xfa,
  0xfb, 0x13, 0xe0, 0xf2, 0x0a, 0x2f, 0x19, 0x41, 0xe3, 0xe7, 0x13, 0xf1,
  0x0d, 0xf8, 0xfb, 0xe3, 0x0f, 0xfc, 0xe0, 0xdf, 0xf7, 0x21, 0x0a, 0x26,
  0xe3, 0xf9, 0x0c, 0x0e, 0x13, 0xfa, 0xec, 0x01, 0xef, 0xd5, 0xee, 0xe7,
  0x09, 0x2d, 0xec, 0x0c, 0xe2, 0xea, 0x10, 0x1e, 0x1e, 0x01, 0x09, 0xfd,
  0xef, 0xde, 0xf4, 0xe8, 0x00, 0x25, 0xee, 0x18, 0xea, 0xfc, 0xf0, 0x23,
  0x09, 0x01, 0x0c, 0x06, 0x0a, 0xd4, 0xd7, 0xeb, 0xf2, 0x15, 0x05, 0x1c,
  0xef, 0xfe, 0xff, 0x1f, 0x28, 0xf9, 0x01, 0x21, 0x19, 0xe5, 0xee, 0xe1,
  0xdf, 0x12, 0xeb, 0x03, 0xf4, 0x15, 0x0c, 0xfa, 0x19, 0x03, 0x06, 0x04,
  0xf6, 0xdd, 0xe6, 0x03, 0xf8, 0x14, 0xe3, 0x02, 0xf1, 0x19, 0xfd, 0x0d,
  0x13, 0xda, 0xe6, 0xe9, 0x0e, 0xf7, 0x04, 0x02, 0xf2, 0x02, 0x0c, 0x0f,
  0xec, 0x0c, 0x09, 0x10, 0x18, 0xf4, 0xf9, 0x12, 0xfe, 0xf2, 0xf7, 0x0e,
  0xfb, 0x10, 0x0a, 0x23, 0xd6, 0x12, 0xfb, 0x12, 0x17, 0x0c, 0xfd, 0x1a,
  0x02, 0xfa, 0xd7, 0xeb, 0xeb, 0x03, 0xc3, 0xf9, 0xea, 0x09, 0x07, 0x0f,
  0x1b, 0x05, 0xee, 0x05, 0xf2, 0x16, 0xe7, 0x0c, 0x04, 0x04, 0x1c, 0x10,
  0xcf, 0x15, 0x25, 0xfc, 0x0c, 0xef, 0xf0, 0x27, 0x09, 0xfd, 0x13, 0xec,
  0x00, 0x16, 0x02, 0x0c, 0xdc, 0x08, 0x22, 0x05, 0x0a, 0xe7, 0xed, 0x32,
  0xf5, 0xf0, 0xe3, 0x0c, 0xe6, 0x1a, 0x05, 0x0e, 0xcc, 0x16, 0x25, 0x08,
  0x0c, 0x0d, 0x1a, 0x0d, 0x1d, 0x01, 0x05, 0x0a, 0xed, 0xff, 0xe1, 0x05,
  0xd8, 0x0a, 0x0c, 0x07, 0x19, 0xfd, 0x07, 0x0a, 0x00, 0xeb, 0xe3, 0xf3,
  0xe9, 0x0b, 0xd6, 0xe6, 0xce, 0x17, 0x35, 0x0d, 0x11, 0x0a, 0xeb, 0xf8,
  0x1b, 0xf7, 0x0c, 0xf2, 0x00, 0xfd, 0x01, 0x0f, 0xcf, 0x01, 0x25, 0x03,
  0xf5, 0x03, 0xee, 0x05, 0x29, 0x10, 0xf3, 0x12, 0xff, 0xf7, 0xf6, 0xfe,
  0xe8, 0x05, 0x16, 0x09, 0xfa, 0x08, 0xea, 0xfe, 0xfd, 0xef, 0x0b, 0xfa,
  0xec, 0xdf, 0xf6, 0xec, 0xb8, 0x1c, 0x2b, 0xfd, 0xf4, 0xea, 0x02, 0xff,
  0x06, 0x13, 0xf5, 0x03, 0xec, 0xf9, 0xff, 0xf3, 0xcf, 0x1b, 0x08, 0x0f,
  0xee, 0x05, 0xe7, 0xff, 0x0a, 0xe4, 0xdd, 0x02, 0xf7, 0xf1, 0xdc, 0xdf,
  0xdd, 0x16, 0x27, 0xe4, 0xf0, 0x0e, 0xdc, 0x02, 0xe0, 0x05, 0xd8, 0x06,
  0x01, 0xf4, 0xf5, 0xe5, 0x10, 0x13, 0x0e, 0x0f, 0xf2, 0x00, 0xd4, 0xf3,
  0x05, 0xec, 0xf7, 0xed, 0xd7, 0xe1, 0xeb, 0xde, 0xff, 0x18, 0x08, 0xf2,
  0xd7, 0xf2, 0xd2, 0x04, 0xec, 0xe2, 0xf4, 0xf6, 0xd7, 0xdb, 0xe7, 0xe0,
  0xe2, 0x12, 0xfa, 0x08, 0xd7, 0xfd, 0xde, 0x0e, 0xe3, 0xe8, 0xee, 0xf7,
  0xf7, 0xc3, 0xdf, 0xdf, 0xc6, 0x0c, 0x0e, 0x00, 0xde, 0x0f, 0xed, 0xee,
  0xf3, 0xec, 0xdf, 0x0a, 0xf4, 0xe9, 0xe4, 0xe8, 0xf5, 0x0f, 0xec, 0xef,
  0xde, 0x1c, 0xde, 0x00, 0xf0, 0xd9, 0xf8, 0xf4, 0xf5, 0xe1, 0xfb, 0xee,
  0xf6, 0x01, 0xf0, 0x00, 0xf7, 0x01, 0xd4, 0x00, 0xcb, 0xee, 0xd0, 0xf7,
  0xeb, 0xd7, 0xdb, 0xcb, 0xd3, 0x05, 0x00, 0x17, 0xdf, 0xe5, 0xd8, 0xf4,
  0xf2, 0xf3, 0xe0, 0xde, 0xea, 0xdb, 0xf9, 0xdf, 0xdb, 0xf6, 0xfc, 0x0e,
  0xfd, 0xfa, 0xd8, 0x18, 0xed, 0xec, 0xdb, 0xf1, 0xcd, 0xd4, 0xeb, 0xc9,
  0xf8, 0x0c, 0x10, 0x03, 0xcd, 0xe9, 0xd8, 0xf3, 0xca, 0xda, 0xf0, 0xfd,
  0x47, 0x2d, 0xf6, 0xf2, 0xfd, 0x21, 0x31, 0x47, 0x20, 0xe3, 0x18, 0x10,
  0x0e, 0x0d, 0xfd, 0x0e, 0x22, 0xf9, 0xee, 0x02, 0x15, 0x14, 0x3b, 0x60,
  0x42, 0xd7, 0x01, 0x22, 0x36, 0xff, 0x02, 0x27, 0x2a, 0xca, 0x19, 0x18,
  0xf2, 0xdc, 0x26, 0x30, 0x34, 0xf4, 0x06, 0x12, 0xf5, 0xf2, 0x05, 0x07,
  0x18, 0x18, 0x1a, 0xf1, 0x07, 0x0b, 0xe6, 0x4d, 0x29, 0xf9, 0x0c, 0xe8,
  0xea, 0x16, 0x01, 0x1d, 0x13, 0xf1, 0x2c, 0x1b, 0xf1, 0xea, 0xe8, 0x38,
  0xfe, 0x05, 0x11, 0x07, 0x18, 0xf7, 0xf1, 0x30, 0x02, 0xff, 0x18, 0x16,
  0xfa, 0xeb, 0x11, 0x1f, 0x17, 0xf2, 0x03, 0xdc, 0x20, 0xe6, 0xfa, 0x12,
  0x37, 0xfd, 0x04, 0x08, 0x01, 0xe8, 0xd1, 0x17, 0x05, 0xf5, 0x19, 0xe8,
  0xe9, 0x01, 0xe4, 0x16, 0x32, 0x00, 0x00, 0x0b, 0x07, 0xcf, 0xed, 0xf6,
  0xff, 0xf4, 0x19, 0xfb, 0x14, 0xff, 0xfd, 0x12, 0x0d, 0xec, 0x0f, 0x1c,
  0xf2, 0xc2, 0x08, 0xf3, 0x11, 0xf2, 0xf4, 0x09, 0xcf, 0xec, 0x07, 0x1c,
  0x2f, 0x1e, 0x03, 0x18, 0xe7, 0xee, 0xec, 0x06, 0xff, 0xed, 0x11, 0xc6,
  0xef, 0xe2, 0xe9, 0x02, 0x16, 0x0a, 0xf3, 0x24, 0x00, 0xb5, 0xf6, 0x01,
  0xf5, 0xf0, 0x22, 0xbe, 0x24, 0xf2, 0xf9, 0x02, 0x0a, 0x26, 0x2d, 0x13,
  0x0e, 0xd4, 0xdf, 0x09, 0xfc, 0x08, 0x10, 0xea, 0xe7, 0xe1, 0x09, 0x14,
  0xf5, 0xec, 0x09, 0x10, 0xfd, 0xc0, 0xf9, 0x18, 0xf2, 0x1d, 0xe0, 0xf1,
  0xd4, 0xc2, 0xfc, 0x02, 0xf6, 0xd5, 0x03, 0xfa, 0xea, 0xaf, 0xda, 0x18,
  0xe6, 0x05, 0xf2, 0xc6, 0xfc, 0xeb, 0xf3, 0x04, 0x06, 0x02, 0x16, 0x0e,
  0xf4, 0xb7, 0xcd, 0x07, 0xe8, 0x01, 0xea, 0xd1, 0xbf, 0xd4, 0xf9, 0x08,
  0xee, 0x00, 0x07, 0x0c, 0xe8, 0xa4, 0xf4, 0x13, 0xdd, 0x0d, 0xf0, 0xc9,
  0x03, 0xd1, 0xe2, 0xf7, 0xfa, 0xeb, 0x15, 0x19, 0xff, 0xb7, 0xe6, 0xf8,
  0xdb, 0x1e, 0x06, 0xf2, 0x04, 0xcc, 0x00, 0x11, 0xf8, 0xfc, 0x16, 0xf3,
  0xff, 0xa2, 0x0d, 0x00, 0xde, 0xfe, 0x12, 0xe4, 0x11, 0xcc, 0xfc, 0x06,
  0xf0, 0xec, 0xfc, 0x10, 0x00, 0xaf, 0xde, 0xfd, 0xd0, 0xe7, 0x00, 0xe7,
  0xf4, 0xe9, 0xff, 0xed, 0x05, 0x04, 0x01, 0x07, 0xf2, 0xc2, 0x0c, 0xeb,
  0xe4, 0xe9, 0xe3, 0xf4, 0x26, 0xe7, 0xf7, 0x04, 0xfe, 0xfa, 0x27, 0x02,
  0x00, 0xa0, 0xe5, 0xf5, 0xcc, 0xe7, 0x09, 0xc9, 0x1e, 0xea, 0xe3, 0x05,
  0xf5, 0xf3, 0x0e, 0xfe, 0xf1, 0xa9, 0xf6, 0xfd, 0xce, 0xeb, 0xe2, 0xcd,
  0xe9, 0xf9, 0xf6, 0x0e, 0xd8, 0xcd, 0x06, 0xfd, 0xf7, 0x9d, 0x03, 0x0c,
  0xd0, 0x17, 0xfd, 0xcf, 0xf7, 0xf5, 0xf8, 0x18, 0xee, 0xd4, 0x10, 0x10,
  0xec, 0xa2, 0x0b, 0xf6, 0xe5, 0xfd, 0xf2, 0xda, 0xed, 0xf1, 0xfa, 0x0a,
  0x06, 0xf5, 0x1a, 0xf5, 0xe9, 0xce, 0x10, 0xf0, 0xd1, 0x07, 0x15, 0xe3,
  0xe8, 0xec, 0xfb, 0xec, 0x01, 0xed, 0xf6, 0x2d, 0xdd, 0xba, 0xee, 0xf4,
  0xdd, 0x19, 0x0d, 0xde, 0xef, 0xf0, 0xf7, 0xec, 0x03, 0xf4, 0xf4, 0x13,
  0x02, 0xc6, 0xe2, 0xfb, 0xc4, 0x0f, 0xf1, 0xbe, 0xe7, 0x05, 0xfa, 0x0d,
  0xfb, 0xf3, 0xea, 0x12, 0x02, 0xb1, 0xe3, 0xf9, 0xe4, 0xe8, 0x03, 0xcb,
  0xdd, 0xf1, 0x0b, 0xf2, 0x02, 0xff, 0xe4, 0x11, 0xe9, 0xd8, 0x06, 0xe4,
  0xec, 0xe9, 0xef, 0xda, 0x07, 0x0a, 0xe7, 0x00, 0x1f, 0x02, 0xed, 0x2e,
  0xe0, 0xcc, 0xf7, 0x0e, 0xf1, 0xe6, 0xfd, 0xc9, 0xea, 0x02, 0xf8, 0xf1,
  0x0f, 0x1c, 0x16, 0x1d, 0xe0, 0xab, 0xe5, 0xe9, 0x02, 0xd0, 0xe2, 0xe9,
  0xfc, 0xd5, 0xf0, 0x03, 0xf3, 0x1e, 0xf7, 0x13, 0xec, 0x81, 0x0b, 0xff,
  0xf7, 0xc1, 0xe5, 0xd5, 0x0d, 0xe7, 0xfd, 0x17, 0xf3, 0xe7, 0x0f, 0x28,
  0xd9, 0xa6, 0xe9, 0x00, 0xf6, 0xec, 0xfc, 0xf6, 0x18, 0xed, 0xed, 0x07,
  0xf3, 0xf5, 0x05, 0x44, 0xe8, 0xb3, 0xeb, 0xe0, 0xe2, 0xf2, 0xf8, 0xcc,
  0xd4, 0xdc, 0xf4, 0x0a, 0x0b, 0xf7, 0x06, 0x1b, 0xec, 0xb7, 0xe2, 0xed,
  0xd4, 0xe5, 0xfa, 0xbd, 0xe2, 0xeb, 0xf8, 0x12, 0x04, 0x00, 0xec, 0x23,
  0xdd, 0xb3, 0xdc, 0x04, 0xdc, 0xce, 0xcd, 0xbe, 0xf1, 0xeb, 0x00, 0x20,
  0x12, 0xdd, 0xfe, 0x0c, 0x0b, 0x91, 0xeb, 0xea, 0xdb, 0xe2, 0xea, 0xbf,
  0xd9, 0xd4, 0xed, 0x04, 0xfe, 0xef, 0xf0, 0xed, 0x10, 0xc2, 0x00, 0xf6,
  0xd5, 0xd9, 0xe3, 0xa3, 0xf5, 0xdc, 0xe5, 0x05, 0x0d, 0xee, 0xf2, 0x33,
  0xf6, 0xc8, 0x09, 0x04, 0xd9, 0x0b, 0xfb, 0xda, 0xc5, 0xd0, 0xf0, 0xf7,
  0xfb, 0x05, 0xeb, 0x1a, 0xee, 0xd8, 0x09, 0x06, 0xf3, 0xef, 0xc7, 0xc6,
  0xc8, 0xd6, 0xf8, 0x09, 0xe7, 0xf2, 0xfb, 0x14, 0xe7, 0xb9, 0xf7, 0x00,
  0xdd, 0xe9, 0x05, 0xc1, 0xf3, 0xe2, 0xde, 0x0a, 0x01, 0xf1, 0xea, 0x1a,
  0x03, 0xc6, 0x0c, 0x05, 0xf4, 0xc9, 0xf3, 0xc8, 0x0c, 0xc2, 0xf9, 0xff,
  0x35, 0x0e, 0xf3, 0x2a, 0xe8, 0xff, 0x2a, 0x4a, 0x29, 0xef, 0x1f, 0x12,
  0x0a, 0xfe, 0xf8, 0x12, 0x21, 0xf5, 0x40, 0x1a, 0xe8, 0x06, 0x2f, 0x6c,
  0x23, 0xf9, 0xfc, 0x15, 0xfa, 0x06, 0x15, 0x26, 0x01, 0x02, 0xfd, 0xf7,
  0xfe, 0x2c, 0x2d, 0x5f, 0x3c, 0xea, 0xfd, 0x07, 0x00, 0x12, 0x06, 0x26,
  0xf8, 0xdc, 0x2e, 0x22, 0xfd, 0x13, 0x05, 0x4b, 0x13, 0x06, 0xfe, 0x0e,
  0x08, 0x1a, 0xfd, 0x0d, 0xf6, 0xea, 0x17, 0x0d, 0xfb, 0xf7, 0x0a, 0x6b,
  0x48, 0xff, 0xf8, 0x0b, 0x09, 0x13, 0xf0, 0x26, 0xe2, 0xf6, 0x1c, 0xfb,
  0xf3, 0xfb, 0xef, 0x58, 0x23, 0x00, 0x03, 0xf0, 0xe5, 0x07, 0xf6, 0x11,
  0xfa, 0xe6, 0x38, 0x1f, 0xf7, 0xeb, 0xc1, 0x25, 0xfe, 0xe2, 0x05, 0xe6,
  0xf8, 0x04, 0xef, 0x16, 0x02, 0x03, 0xfb, 0x11, 0xdd, 0xf2, 0xca, 0x07,
  0xde, 0xe8, 0xf1, 0xe5, 0xd1, 0x0d, 0xfb, 0xfd, 0xf0, 0x12, 0x0c, 0x13,
  0xde, 0xe9, 0xf8, 0xdd, 0xd5, 0xdd, 0x00, 0xe6, 0xfc, 0x07, 0xea, 0x17,
  0x03, 0xff, 0x23, 0x06, 0xe5, 0xf4, 0xd1, 0xe2, 0xe8, 0xfb, 0xe0, 0xdf,
  0xef, 0x1f, 0x0e, 0x20, 0xfa, 0xf8, 0x0e, 0x16, 0xd7, 0xcf, 0xe8, 0x01,
  0xeb, 0x01, 0xf6, 0xe7, 0x1a, 0x06, 0x12, 0x26, 0xf0, 0x05, 0x03, 0x08,
  0xfd, 0xea, 0xd9, 0xf5, 0xef, 0xea, 0xe5, 0xf2, 0xe6, 0x20, 0x11, 0xed,
  0xe4, 0xe8, 0xf7, 0xf3, 0xe2, 0xdc, 0xe8, 0xf7, 0xf3, 0x07, 0xef, 0xf5,
  0xfa, 0x04, 0x02, 0x08, 0xec, 0x05, 0x1b, 0x07, 0xd2, 0xce, 0xe6, 0xf2,
  0xf3, 0xe5, 0xda, 0xee, 0x13, 0x0a, 0xf7, 0xff, 0xe9, 0xef, 0x1b, 0x12,
  0xef, 0xc8, 0xe6, 0x12, 0xee, 0xe6, 0xc7, 0xec, 0x2c, 0xfd, 0xf9, 0xf4,
  0xef, 0xf6, 0x26, 0xea, 0xd0, 0xdf, 0xf4, 0xf0, 0x05, 0x05, 0xd8, 0xe1,
  0x00, 0x01, 0xe0, 0x08, 0xdc, 0xe0, 0x0f, 0x17, 0xf5, 0xb6, 0xfc, 0xf5,
  0xea, 0xda, 0xd9, 0x09, 0x01, 0xf9, 0x16, 0x11, 0xf4, 0x03, 0x0c, 0xff,
  0xfe, 0xc5, 0xda, 0x2b, 0xfa, 0x02, 0xda, 0xe9, 0x03, 0xfd, 0xf9, 0x02,
  0xf8, 0xed, 0xfe, 0xfa, 0xf0, 0xd6, 0xf4, 0xe0, 0xf0, 0xe2, 0xdd, 0xf0,
  0xef, 0x07, 0x00, 0xfe, 0xee, 0x01, 0x53, 0x0a, 0xd6, 0xce, 0xdb, 0xd7,
  0xdd, 0xd4, 0xe5, 0xc9, 0x44, 0xf5, 0xf7, 0xf8, 0xf0, 0xd3, 0xf2, 0xef,
  0xf0, 0xc2, 0xd7, 0xdd, 0xc6, 0xfc, 0xd3, 0x98, 0xff, 0xee, 0x12, 0xf7,
  0xdb, 0xe6, 0xef, 0xf8, 0xff, 0xb8, 0xd3, 0xdd, 0xce, 0xd2, 0xf5, 0xbc,
  0x03, 0x1b, 0xfc, 0x0a, 0x01, 0xf3, 0x35, 0x01, 0xd7, 0xe0, 0xea, 0xd2,
  0xbf, 0xf1, 0x04, 0xaf, 0x25, 0x14, 0x19, 0x0a, 0xfc, 0xe6, 0xe7, 0xfa,
  0xdc, 0xe9, 0xbc, 0xfd, 0xc3, 0xfb, 0xd5, 0xf0, 0x0b, 0x03, 0xf4, 0x13,
  0xef, 0xd8, 0xfb, 0xfd, 0x00, 0xe6, 0xe1, 0xff, 0xd3, 0xed, 0x00, 0xda,
  0x04, 0x1f, 0x0a, 0xfa, 0x01, 0xef, 0xfd, 0xeb, 0xec, 0xbe, 0xe8, 0xdd,
  0xc4, 0x00, 0xe6, 0xc1, 0xfa, 0x10, 0x0e, 0xfb, 0xda, 0xc3, 0x32, 0xde,
  0xe4, 0xfa, 0xc9, 0xe7, 0xe4, 0xfc, 0x0b, 0xf0, 0x01, 0x06, 0x13, 0x0e,
  0xcc, 0xeb, 0x20, 0x01, 0xe5, 0xf6, 0xcf, 0x04, 0xd9, 0xd4, 0x03, 0xf5,
  0x00, 0x17, 0xe3, 0x22, 0xd0, 0xeb, 0x08, 0x03, 0xf2, 0xc8, 0xa2, 0x20,
  0xeb, 0xe2, 0xcb, 0xb9, 0x0a, 0xfa, 0x08, 0x2b, 0xe9, 0xcb, 0xe8, 0x0c,
  0x0f, 0xdf, 0xc8, 0x11, 0xf1, 0xf4, 0xf1, 0x14, 0x0d, 0xf6, 0xed, 0x0e,
  0xc9, 0xe3, 0xf0, 0x24, 0xdb, 0xe2, 0xcc, 0x21, 0x09, 0x01, 0xe4, 0xfc,
  0x0e, 0x0a, 0xfb, 0x29, 0xe7, 0xe5, 0xe7, 0x10, 0xeb, 0xe0, 0xd8, 0x25,
  0xf9, 0xff, 0xf8, 0xe5, 0x16, 0xf6, 0x10, 0x16, 0xc2, 0xc8, 0x21, 0xff,
  0xe4, 0xe6, 0xaa, 0x15, 0x05, 0xf4, 0xdf, 0xde, 0x2a, 0x03, 0x10, 0x28,
  0xd5, 0xe8, 0xe7, 0x1c, 0xf2, 0xe4, 0xb8, 0xda, 0xe5, 0xf0, 0x09, 0xfa,
  0x0a, 0x11, 0x06, 0x0b, 0xc9, 0xf3, 0x0a, 0xf2, 0xd0, 0xcf, 0xb3, 0xf0,
  0x02, 0xf6, 0xfb, 0xe3, 0x18, 0x0a, 0xf3, 0x00, 0xcc, 0xf5, 0x08, 0x1a,
  0xe9, 0xce, 0xc9, 0x02, 0xfb, 0xf1, 0xd4, 0xee, 0x3c, 0x05, 0xfa, 0x17,
  0xd5, 0xf8, 0xff, 0x19, 0xe9, 0xbd, 0xca, 0xef, 0xe4, 0x0c, 0xee, 0xd9,
  0x11, 0x2a, 0x02, 0x15, 0x0b, 0xfe, 0xf6, 0xf0, 0xed, 0xd7, 0xed, 0xdf,
  0xe1, 0x01, 0x02, 0xdb, 0x11, 0x20, 0xf9, 0x12, 0xf2, 0xf2, 0xd9, 0x08,
  0xf4, 0xd9, 0x04, 0xfb, 0xef, 0xdd, 0xf1, 0xdd, 0xef, 0x12, 0x07, 0x21,
  0xf0, 0x00, 0x16, 0xf7, 0xee, 0xe4, 0xd2, 0xef, 0x05, 0x02, 0xee, 0xf1,
  0x30, 0x14, 0xff, 0x13, 0xf3, 0xe3, 0xd7, 0x15, 0xfb, 0xe8, 0xd9, 0xff,
  0xd8, 0xe7, 0xfb, 0xdd, 0xef, 0xe8, 0x05, 0x0d, 0xde, 0xf6, 0xd6, 0x2a,
  0xf1, 0xd9, 0xcb, 0xe2, 0xeb, 0xc2, 0x06, 0xf9, 0xfd, 0xee, 0x0e, 0x13,
  0xec, 0x0f, 0x14, 0xf0, 0xef, 0xad, 0xe0, 0xd3, 0xc9, 0xfd, 0xf0, 0xe3,
  0x05, 0xf8, 0xfe, 0xe0, 0x0d, 0xf7, 0x0f, 0xf0, 0xde, 0xb3, 0xdd, 0xd9,
  0xed, 0xdf, 0xe8, 0xcd, 0x08, 0xec, 0x04, 0xf0, 0xf3, 0xf5, 0x03, 0xfd,
  0xfb, 0xb6, 0xe6, 0xcf, 0xce, 0xf6, 0x00, 0xe7, 0xf4, 0xf1, 0xf0, 0xf4,
  0x04, 0xf4, 0xef, 0xee, 0x04, 0xb4, 0xde, 0xdc, 0xd5, 0xd2, 0xf3, 0xee,
  0xfb, 0x14, 0x07, 0xec, 0x1e, 0x02, 0xf6, 0x07, 0x01, 0xe7, 0xf5, 0xe9,
  0xd2, 0xd5, 0xf2, 0xf8, 0xf4, 0x14, 0x12, 0xfb, 0x09, 0xff, 0xfc, 0xf1,
  0x0a, 0x10, 0xfe, 0xfd, 0xe3, 0xe6, 0x02, 0xed, 0x10, 0x09, 0x11, 0x12,
  0x07, 0x0a, 0xf7, 0x06, 0xdd, 0x20, 0x0c, 0x16, 0x0b, 0xd4, 0x21, 0xfb,
  0x26, 0xf0, 0xf9, 0x07, 0x01, 0x05, 0x2d, 0x26, 0xfb, 0x40, 0x11, 0xff,
  0xef, 0xee, 0x16, 0xe8, 0x53, 0xe2, 0xfe, 0xfd, 0xfd, 0x0d, 0xee, 0x00,
  0xf4, 0x3d, 0x11, 0xfb, 0x02, 0x16, 0x0f, 0xeb, 0xfa, 0xe9, 0xf8, 0x0c,
  0xff, 0xe9, 0x01, 0x0b, 0xee, 0x48, 0x0a, 0xe3, 0xfa, 0x27, 0x09, 0xe6,
  0x11, 0xe3, 0x05, 0xe5, 0xfb, 0xe5, 0xf5, 0x04, 0xce, 0x39, 0x04, 0xe1,
  0xfd, 0x49, 0x28, 0xed, 0x14, 0xce, 0xdf, 0xec, 0xf0, 0xf5, 0xcd, 0x14,
  0xec, 0x36, 0xff, 0xdf, 0xf8, 0x42, 0x13, 0xe9, 0xfd, 0xdd, 0xd7, 0xe8,
  0x03, 0xdc, 0xd0, 0xf2, 0xdf, 0x1c, 0x18, 0xdd, 0x06, 0x4c, 0xfd, 0xe5,
  0xed, 0x00, 0x00, 0x04, 0x29, 0xda, 0xe2, 0xf6, 0xe1, 0x32, 0x03, 0xe2,
  0xfa, 0x3f, 0x06, 0xfd, 0xc2, 0x17, 0x22, 0x09, 0x0a, 0xfd, 0xeb, 0xf3,
  0xd4, 0x34, 0x0e, 0x0d, 0xfe, 0x2d, 0x14, 0x17, 0xe9, 0x10, 0x17, 0x15,
  0xfd, 0x04, 0xf9, 0xe2, 0xe5, 0x2c, 0xfe, 0x14, 0x0b, 0x23, 0xef, 0x08,
  0x08, 0xfd, 0x10, 0x07, 0x0f, 0x0c, 0x01, 0x04, 0xf2, 0x1f, 0x02, 0x10,
  0xf6, 0x12, 0xe0, 0x03, 0xfb, 0x02, 0x1c, 0x0a, 0xfb, 0xe1, 0xf6, 0xf8,
  0xf5, 0x2d, 0xe4, 0x04, 0x05, 0x14, 0xf5, 0x03, 0x0c, 0x13, 0x02, 0x0b,
  0xdc, 0xf0, 0x0d, 0xfa, 0xde, 0x20, 0xe5, 0x09, 0x05, 0x0c, 0x0e, 0x14,
  0xfc, 0x01, 0xfd, 0x05, 0xe9, 0xec, 0xca, 0xf4, 0xe3, 0x21, 0xf1, 0x0d,
  0xf9, 0x23, 0xf6, 0x03, 0xe9, 0xf9, 0x01, 0x05, 0xf2, 0xdc, 0xf3, 0xf0,
  0xe7, 0x30, 0xf5, 0x19, 0x07, 0x21, 0x0c, 0x05, 0xfb, 0x02, 0xf7, 0xfc,
  0xfa, 0xd6, 0xea, 0xde, 0xf3, 0x1d, 0xff, 0x0b, 0xfd, 0x12, 0x01, 0x05,
  0xd3, 0xf8, 0xf3, 0xf1, 0xfb, 0xe0, 0xe1, 0xe5, 0xd6, 0x20, 0xfc, 0x16,
  0x0e, 0x13, 0xe7, 0xf6, 0x09, 0x02, 0xf3, 0xf9, 0x18, 0xe5, 0xea, 0xe2,
  0xdb, 0x2a, 0x02, 0x10, 0x03, 0x1a, 0xf6, 0x09, 0x15, 0xf6, 0xf4, 0xeb,
  0xfe, 0xf7, 0xea, 0xee, 0xd3, 0x0c, 0x15, 0xfb, 0x20, 0x2d, 0xf9, 0x05,
  0xea, 0xd8, 0xe8, 0xf1, 0x03, 0xfc, 0xeb, 0x08, 0xd9, 0x04, 0x20, 0xfc,
  0x07, 0x14, 0x13, 0x19, 0x13, 0xda, 0xd4, 0xe1, 0xfe, 0x13, 0xf8, 0x1c,
  0xe1, 0x02, 0xf8, 0x09, 0x06, 0x00, 0x09, 0xf6, 0x25, 0xea, 0x00, 0xe7,
  0x0c, 0xf3, 0xeb, 0xf7, 0xe6, 0xfe, 0x04, 0xfc, 0xf0, 0x12, 0x08, 0xdc,
  0xfd, 0xf5, 0xf0, 0xf3, 0x06, 0xed, 0xff, 0xfd, 0xfa, 0xff, 0x16, 0xe9,
  0xfe, 0x0a, 0xf0, 0x1d, 0xf9, 0xfa, 0xfc, 0xf6, 0x08, 0xee, 0xf0, 0xf6,
  0xf1, 0xf7, 0xfe, 0xf2, 0x0f, 0xeb, 0xf5, 0x23, 0xdf, 0xe4, 0xfb, 0xf0,
  0xef, 0x03, 0xd9, 0x13, 0xd6, 0x01, 0x0b, 0x02, 0x0c, 0xf1, 0xd6, 0x29,
  0x15, 0xee, 0xf8, 0xfc, 0xfd, 0xf5, 0xfe, 0xf7, 0xfb, 0x1c, 0xf1, 0x14,
  0x15, 0x00, 0xee, 0x0c, 0x25, 0xe8, 0xfb, 0x08, 0x03, 0x02, 0x00, 0xef,
  0x00, 0x12, 0x05, 0x03, 0x0d, 0xf3, 0xf5, 0x03, 0x08, 0xf3, 0xf3, 0x12,
  0x07, 0xfb, 0x0d, 0xfb, 0xfb, 0x0f, 0xfd, 0x0b, 0x02, 0xf8, 0x0c, 0xfc,
  0xf3, 0x04, 0x08, 0x0c, 0x00, 0xe1, 0x28, 0xee, 0xe7, 0x01, 0xfa, 0x0e,
  0x00, 0xec, 0x06, 0x1f, 0xf6, 0x14, 0x1c, 0x0f, 0x16, 0x0d, 0x17, 0x1d,
  0xf3, 0x13, 0xfd, 0x03, 0x13, 0xf7, 0x05, 0x2c, 0xf2, 0x15, 0x07, 0x14,
  0x0a, 0x06, 0x24, 0x08, 0xda, 0x17, 0xec, 0x16, 0x20, 0x00, 0xf4, 0x20,
  0x0d, 0x14, 0x06, 0x11, 0x0e, 0x24, 0x0c, 0x1e, 0xdd, 0x24, 0xf9, 0x28,
  0x14, 0x02, 0xfc, 0x07, 0x2b, 0x03, 0x0b, 0x28, 0xef, 0x11, 0x24, 0x16,
  0xf3, 0x17, 0xe0, 0x1a, 0x1e, 0x06, 0x24, 0x1b, 0x10, 0x0b, 0x12, 0x14,
  0x06, 0x0d, 0x10, 0x13, 0xf1, 0x01, 0xeb, 0x10, 0x1d, 0x28, 0x08, 0x03,
  0x0b, 0x10, 0x11, 0x04, 0x12, 0x1a, 0xff, 0x1f, 0xe0, 0xfc, 0xe8, 0xff,
  0x07, 0x15, 0x19, 0xf6, 0x34, 0x0e, 0x1c, 0xf5, 0x10, 0x04, 0x0f, 0x11,
  0x04, 0xf8, 0x03, 0xf3, 0x20, 0x0f, 0x11, 0x07, 0x18, 0xfd, 0x17, 0xf6,
  0xd7, 0xea, 0xfa, 0xfb, 0xe9, 0x15, 0xdb, 0xc9, 0xe4, 0xf1, 0x14, 0xe5,
  0xe3, 0xe3, 0xf3, 0x0c, 0xdf, 0xf7, 0xd9, 0xf9, 0xe8, 0x2c, 0xd6, 0xf7,
  0xfd, 0x12, 0x13, 0xe2, 0x13, 0xe2, 0xdf, 0x11, 0xe8, 0xfa, 0xf0, 0x16,
  0xe9, 0x46, 0xdd, 0xe3, 0xe4, 0xf5, 0x11, 0xf2, 0x22, 0xd6, 0xde, 0x04,
  0xe3, 0xed, 0xd7, 0xf0, 0xf0, 0x19, 0xd9, 0xd4, 0xe5, 0x16, 0xf1, 0xd2,
  0x16, 0xf2, 0xff, 0xed, 0xf4, 0xfe, 0xec, 0xf8, 0xf6, 0x14, 0xea, 0xc1,
  0xe4, 0x14, 0x02, 0xd9, 0xfd, 0xda, 0xe3, 0xe1, 0xe6, 0x0a, 0xfc, 0xf9,
  0xf4, 0x27, 0xfb, 0xdc, 0xe5, 0x0d, 0xfc, 0xe7, 0x14, 0xef, 0xf9, 0xde,
  0xf9, 0xee, 0xfb, 0xdc, 0x09, 0xfc, 0xf6, 0xcb, 0xf4, 0xef, 0xe8, 0xfb,
  0xf9, 0xe7, 0xe7, 0xfa, 0xef, 0xfd, 0xdf, 0xdc, 0xfe, 0xe6, 0xd9, 0xb6,
  0xe1, 0x0a, 0xfb, 0x01, 0x1e, 0xe4, 0xfa, 0xec, 0xd9, 0xd4, 0xfd, 0xd5,
  0x0d, 0xfb, 0x04, 0xc0, 0xdf, 0xd9, 0xd6, 0x08, 0xf5, 0xfb, 0xf8, 0x00,
  0xf9, 0xee, 0x0e, 0xb6, 0x01, 0xdd, 0xf7, 0xd0, 0xe9, 0xe3, 0xeb, 0x04,
  0x07, 0xfb, 0xe5, 0x00, 0x03, 0xe2, 0x03, 0xb1, 0x02, 0x06, 0x0b, 0xfd,
  0xf7, 0xe9, 0xce, 0x25, 0x17, 0xe9, 0x06, 0xf1, 0xf7, 0xfc, 0x1d, 0xbb,
  0xfc, 0x11, 0x26, 0xeb, 0xf2, 0xc7, 0xcd, 0x48, 0x1e, 0xfd, 0x06, 0x0a,
  0x00, 0xf9, 0xd0, 0xc9, 0x16, 0x0c, 0x18, 0xf3, 0xf9, 0xdb, 0xe8, 0x36,
  0x0a, 0xe3, 0x02, 0xf3, 0xe9, 0xfb, 0xe4, 0xf8, 0x1e, 0x08, 0x00, 0x05,
  0x17, 0xd3, 0x01, 0x2a, 0x3c, 0xee, 0xe9, 0x12, 0xd9, 0x2c, 0x05, 0x1d,
  0x11, 0xe1, 0xf0, 0xdd, 0x15, 0xcf, 0xf9, 0x17, 0x40, 0x02, 0xed, 0x0a,
  0x0b, 0x0f, 0xf4, 0x16, 0x0e, 0xd4, 0xe8, 0x1c, 0x0c, 0xd0, 0x09, 0x03,
  0x3e, 0x1d, 0x05, 0xfb, 0x0d, 0x0c, 0x0a, 0x2f, 0x05, 0xd3, 0xf3, 0x1f,
  0x21, 0xe4, 0x1e, 0x07, 0x37, 0x15, 0x06, 0xfa, 0x03, 0x03, 0x0d, 0x2f,
  0x18, 0xca, 0xdd, 0x12, 0x2b, 0xcc, 0xf1, 0x1e, 0x45, 0xf4, 0xf7, 0x0b,
  0x02, 0xf6, 0x0e, 0x0a, 0x19, 0xd6, 0xea, 0x34, 0x12, 0xe1, 0xfc, 0x2f,
  0x1b, 0xf7, 0xf4, 0xf1, 0xf6, 0x10, 0x1b, 0x18, 0x0f, 0xca, 0x09, 0x16,
  0x13, 0xc3, 0x07, 0xff, 0x30, 0xe1, 0xeb, 0xf5, 0xf8, 0x17, 0x15, 0xf8,
  0x12, 0xea, 0xf7, 0xf7, 0xf0, 0xda, 0x05, 0xfa, 0xfe, 0x03, 0xe2, 0xf6,
  0x02, 0x02, 0x10, 0xf5, 0x02, 0x0f, 0x17, 0xf7, 0xfa, 0xd5, 0xed, 0xf2,
  0x0c, 0xf3, 0xfc, 0x08, 0xfa, 0xf9, 0x2a, 0xeb, 0x1e, 0xe7, 0x11, 0x1e,
  0x0e, 0xc0, 0xed, 0x13, 0x23, 0x08, 0x08, 0xfc, 0xf9, 0xec, 0x0b, 0xf6,
  0x3a, 0xf0, 0xfd, 0xff, 0xf1, 0xc9, 0x0a, 0x04, 0xf3, 0xfc, 0x12, 0x11,
  0xfe, 0xe9, 0x2d, 0xfa, 0x1a, 0xef, 0xf1, 0xfd, 0x00, 0xd4, 0xf4, 0xff,
  0x1e, 0x08, 0x08, 0x13, 0x0b, 0xf5, 0x31, 0xec, 0x23, 0xda, 0x02, 0xf5,
  0xf1, 0xd5, 0x12, 0xe7, 0x14, 0x29, 0x3a, 0x13, 0xf7, 0xfb, 0x18, 0xe5,
  0x04, 0xf6, 0xff, 0x08, 0x04, 0x04, 0xfb, 0x08, 0x10, 0x12, 0x3e, 0x04,
  0x00, 0xff, 0x07, 0xfb, 0x03, 0xf6, 0x02, 0x20, 0x0c, 0xf2, 0xef, 0x07,
  0x11, 0x0a, 0x24, 0x03, 0xfe, 0x10, 0x15, 0xfb, 0x1e, 0xfe, 0x0c, 0xf6,
  0xf5, 0x04, 0x15, 0x00, 0x35, 0xf3, 0x07, 0x16, 0xd4, 0xf4, 0x12, 0xdf,
  0x0b, 0x08, 0x06, 0x07, 0xf1, 0xfb, 0x08, 0x05, 0x20, 0xff, 0xeb, 0x1c,
  0xfd, 0xef, 0x25, 0xd1, 0x1b, 0xf8, 0xf8, 0x09, 0xfd, 0xf0, 0xfc, 0x05,
  0x47, 0xd8, 0xee, 0x0b, 0xd4, 0xf9, 0x17, 0xcd, 0x14, 0x0d, 0xf2, 0x19,
  0x0d, 0x14, 0x13, 0x19, 0x03, 0xda, 0xd6, 0xeb, 0xda, 0xf3, 0x10, 0xcc,
  0x1d, 0x09, 0xfc, 0xf4, 0x06, 0x03, 0x0b, 0x1e, 0xf0, 0xff, 0xde, 0xe5,
  0xfe, 0x10, 0x0e, 0xf2, 0x26, 0xf5, 0x00, 0xf8, 0xfe, 0xf2, 0x08, 0x1a,
  0x22, 0x14, 0xf2, 0xfc, 0x15, 0x0b, 0x11, 0xd5, 0x06, 0xf9, 0x0a, 0xf0,
  0x0d, 0xdf, 0x12, 0xef, 0x2d, 0x23, 0x0e, 0xf8, 0x01, 0xfa, 0x22, 0xf5,
  0x09, 0xf5, 0x20, 0x08, 0xf1, 0x06, 0x0d, 0x09, 0x17, 0x27, 0x1e, 0x0b,
  0x36, 0xfa, 0x0c, 0x09, 0x2c, 0xe5, 0x0e, 0xe1, 0xe9, 0xe4, 0x0e, 0x14,
  0x12, 0x29, 0x1f, 0xf9, 0x1f, 0x0b, 0x39, 0x18, 0x13, 0xf2, 0x0b, 0xef,
  0xfa, 0xf1, 0x19, 0x05, 0x50, 0x26, 0x24, 0x05, 0x14, 0x24, 0x27, 0xff,
  0x12, 0xfa, 0x04, 0x0a, 0xfc, 0xe8, 0xfc, 0x04, 0x4c, 0x1b, 0x17, 0xfb,
  0x01, 0x20, 0xfb, 0xfc, 0x01, 0x07, 0x14, 0x04, 0xfe, 0xdb, 0xfd, 0xe7,
  0x20, 0x1a, 0x0b, 0x0f, 0x1e, 0x19, 0x0d, 0x20, 0x13, 0x06, 0x0c, 0x17,
  0xfb, 0xe1, 0xf5, 0x1d, 0x17, 0x17, 0x1d, 0xfb, 0x08, 0x0c, 0xf1, 0x11,
  0x14, 0xf4, 0x01, 0x18, 0x0f, 0xfb, 0xfb, 0x23, 0x09, 0x1b, 0x15, 0x03,
  0x20, 0x0b, 0x09, 0xf1, 0x0b, 0xf8, 0x0c, 0x37, 0xf1, 0xea, 0xeb, 0xff,
  0x0c, 0x25, 0xf8, 0x07, 0x07, 0xe6, 0x24, 0xf1, 0xe7, 0x1a, 0x09, 0x2d,
  0xfe, 0xdd, 0xdf, 0xfe, 0x06, 0x01, 0x07, 0x1b, 0xfd, 0xdb, 0x20, 0xcc,
  0xf1, 0xf3, 0xe3, 0x1d, 0xf6, 0xff, 0xe4, 0xf0, 0x35, 0x1f, 0x17, 0x2e,
  0xfb, 0xf0, 0x1c, 0xe9, 0x05, 0xf3, 0xf8, 0x31, 0xf9, 0x00, 0xf4, 0x01,
  0x28, 0xfe, 0xec, 0x26, 0x0c, 0xe7, 0xf3, 0xf0, 0xfc, 0xd0, 0xeb, 0x18,
  0x09, 0xfd, 0xe6, 0xde, 0x06, 0x0c, 0xfb, 0x1d, 0xfd, 0xf4, 0x26, 0x04,
  0xfc, 0xca, 0xf4, 0x08, 0xec, 0xea, 0xc2, 0xf4, 0xd6, 0xff, 0xfb, 0x1c,
  0x1b, 0x04, 0x12, 0xe4, 0x08, 0xcc, 0xfb, 0x0a, 0xfa, 0xe2, 0xbd, 0x03,
  0xeb, 0xfb, 0xf5, 0x0a, 0x13, 0xd9, 0xfb, 0xf1, 0x0c, 0xe4, 0xfd, 0xfc,
  0xe1, 0xf8, 0xd7, 0x00, 0xcd, 0x0c, 0xff, 0x0d, 0x12, 0x12, 0x1d, 0xda,
  0x10, 0xf2, 0x14, 0x05, 0xf8, 0xeb, 0xe4, 0xeb, 0xeb, 0x06, 0xfb, 0xf0,
  0x07, 0x02, 0x1c, 0xf6, 0xfb, 0xe5, 0xfe, 0xe4, 0xf6, 0xd8, 0xdc, 0x0e,
  0x0d, 0xec, 0xed, 0x07, 0x11, 0xff, 0x1e, 0xe5, 0xfa, 0xe9, 0xdb, 0x14,
  0xf8, 0xf0, 0xf4, 0xfe, 0xef, 0x11, 0xf5, 0x03, 0x1e, 0x02, 0x0e, 0xcc,
  0x00, 0xd4, 0xe4, 0x01, 0xfe, 0xf5, 0xf3, 0xd5, 0x0c, 0xee, 0x16, 0xf4,
  0x0c, 0xf8, 0x05, 0xce, 0x01, 0xd3, 0x0e, 0x0b, 0xec, 0x02, 0xcf, 0xde,
  0xf8, 0x03, 0xe3, 0xf6, 0x0b, 0xf5, 0xef, 0xd8, 0x15, 0xf2, 0xea, 0xf6,
  0xd9, 0x0b, 0xe7, 0x07, 0xf4, 0x01, 0xf4, 0x0e, 0x05, 0x06, 0x0e, 0xe1,
  0x03, 0xf4, 0x11, 0x11, 0xff, 0xe6, 0xf3, 0x16, 0xe5, 0x04, 0xea, 0x11,
  0xec, 0xe6, 0x13, 0xfe, 0x13, 0xd5, 0xee, 0x0c, 0xea, 0x0a, 0x0e, 0xf8,
  0xfc, 0xe4, 0xeb, 0x04, 0x09, 0xf2, 0x01, 0xf5, 0xfd, 0xdd, 0xfb, 0xe4,
  0x01, 0x10, 0x05, 0xe7, 0xf6, 0xfd, 0xdd, 0x13, 0x03, 0x01, 0xff, 0xf1,
  0xf9, 0xcc, 0xfe, 0xf6, 0xf6, 0x04, 0x04, 0xfe, 0x0b, 0xec, 0xeb, 0x06,
  0xf8, 0xf7, 0x1d, 0xfe, 0x07, 0xc9, 0xfb, 0x07, 0xfa, 0x02, 0xe7, 0x06,
  0xf1, 0xf8, 0xcd, 0xfb, 0xea, 0x1d, 0xfa, 0x0e, 0xf2, 0xd3, 0xfa, 0x02,
  0xea, 0xf8, 0xe6, 0x01, 0xf3, 0xe2, 0xe2, 0x03, 0xe3, 0x10, 0x0a, 0xf1,
  0xfe, 0xce, 0xf5, 0xfd, 0x0f, 0xde, 0xf9, 0x16, 0xfd, 0xfd, 0xe4, 0x05,
  0xf4, 0x00, 0xe8, 0xef, 0xf4, 0xd8, 0x06, 0x0d, 0xef, 0xe4, 0x0a, 0x03,
  0xef, 0xee, 0xd6, 0x04, 0xf0, 0xfe, 0x10, 0x17, 0x0a, 0xbe, 0xf4, 0xe1,
  0x05, 0xd8, 0x18, 0xf8, 0xef, 0xf2, 0xeb, 0x08, 0xf8, 0xf9, 0x08, 0x16,
  0x1a, 0xce, 0xe6, 0xe3, 0xf6, 0xd3, 0x1d, 0x13, 0x22, 0xe4, 0xcd, 0x15,
  0xf0, 0xf6, 0xf3, 0x15, 0x0c, 0xc9, 0xe6, 0x02, 0xf8, 0xd8, 0xe9, 0x04,
  0x07, 0x0b, 0xf1, 0xfc, 0xee, 0x16, 0xee, 0x07, 0x2e, 0xd8, 0xf3, 0xf8,
  0x04, 0xe6, 0x05, 0x03, 0x0b, 0x0c, 0xe7, 0x09, 0x03, 0x06, 0xe7, 0x28,
  0x0d, 0xd5, 0xf3, 0xfe, 0x11, 0x04, 0x03, 0x15, 0x16, 0xf0, 0xe7, 0x09,
  0xdf, 0x38, 0xfa, 0x3b, 0x24, 0xd2, 0xd3, 0x01, 0x0c, 0xfe, 0x25, 0x21,
  0x12, 0xfb, 0xf0, 0x08, 0xe9, 0x30, 0x12, 0x30, 0x28, 0xd1, 0xd7, 0xf2,
  0x0f, 0xd1, 0x27, 0xf2, 0x25, 0x0d, 0xdb, 0x02, 0xf2, 0x1a, 0x18, 0x2f,
  0x1c, 0xc3, 0xe8, 0xee, 0x06, 0xf4, 0xfe, 0xff, 0x37, 0xe6, 0xf3, 0xf8,
  0x02, 0xfc, 0x0b, 0x21, 0x1a, 0xcd, 0xdc, 0xdc, 0x14, 0xfd, 0x1d, 0x0c,
  0x1f, 0xe9, 0xea, 0xf7, 0xea, 0x03, 0x0e, 0x2a, 0x2c, 0xd4, 0xfe, 0xfd,
  0xf7, 0x04, 0x1b, 0x23, 0x09, 0x06, 0xec, 0x01, 0xf8, 0x0e, 0x24, 0x15,
  0x1a, 0xd4, 0xfe, 0xf7, 0x0f, 0xfd, 0x1f, 0x0e, 0x1f, 0xf6, 0xe9, 0x08,
  0x07, 0x0e, 0x18, 0x0d, 0x38, 0xce, 0xf3, 0xe2, 0x09, 0xf7, 0x02, 0xf0,
  0x17, 0xf6, 0xfd, 0x11, 0xfc, 0x0a, 0x0d, 0x14, 0x20, 0xe4, 0x08, 0xec,
  0x0c, 0xe4, 0x04, 0x08, 0x31, 0xef, 0xf2, 0x02, 0xf8, 0x24, 0xf3, 0x12,
  0x2d, 0xdb, 0xee, 0xf9, 0x04, 0x0f, 0x18, 0x0f, 0x39, 0xf3, 0xdf, 0x22,
  0xee, 0xf1, 0x01, 0x2a, 0x19, 0xda, 0xfa, 0xe5, 0xff, 0x0c, 0x1f, 0x0f,
  0x19, 0xf4, 0xdf, 0xf5, 0x00, 0x0a, 0xfc, 0x21, 0x10, 0xf6, 0xe7, 0xf4,
  0xec, 0x06, 0x09, 0xfc, 0x22, 0xf2, 0xe7, 0x06, 0xe4, 0x03, 0xe0, 0x0d,
  0xfb, 0xf3, 0xe1, 0xe9, 0xe9, 0xeb, 0x01, 0x1f, 0xfe, 0xfb, 0xde, 0x03,
  0xe7, 0x06, 0xfa, 0x12, 0x22, 0xf3, 0xef, 0xeb, 0x09, 0xe1, 0x01, 0xf1,
  0x1d, 0xf9, 0xd4, 0x20, 0xe7, 0xff, 0xf2, 0x00, 0x11, 0xd8, 0xfa, 0xde,
  0xfc, 0x08, 0x12, 0x10, 0x17, 0x0a, 0xf5, 0x1c, 0xf3, 0x09, 0x25, 0x09,
  0xf6, 0xfa, 0x01, 0x11, 0xfd, 0xf9, 0x0b, 0x12, 0x08, 0xfa, 0xcd, 0x25,
  0xb9, 0xf0, 0xf2, 0xff, 0xe6, 0x90, 0xb4, 0xc4, 0xc0, 0x2d, 0x00, 0xe7,
  0xf8, 0xc7, 0xe2, 0xdf, 0xc8, 0xfb, 0x09, 0x08, 0x2b, 0x93, 0xb9, 0xc3,
  0xe4, 0xf5, 0x04, 0xfb, 0x08, 0xe7, 0xcf, 0xdc, 0xce, 0x0d, 0x02, 0x02,
  0x1b, 0xac, 0xe3, 0xc4, 0xf6, 0xf8, 0xef, 0xfa, 0x0a, 0xc2, 0xe0, 0xe7,
  0xe9, 0xff, 0x16, 0xf1, 0x1d, 0x90, 0xe7, 0xc9, 0xeb, 0xe6, 0xe5, 0xe2,
  0x01, 0xc7, 0xe0, 0xd6, 0xff, 0xf4, 0x3c, 0xed, 0x0f, 0xb4, 0xf0, 0xbb,
  0xeb, 0xf2, 0xfc, 0xf6, 0x01, 0xf1, 0xe6, 0xcf, 0xff, 0x17, 0x3d, 0xe0,
  0x01, 0x9e, 0xff, 0xdf, 0xf0, 0xe7, 0xf3, 0xe9, 0x06, 0xda, 0xee, 0xdc,
  0xf3, 0x11, 0x38, 0xd3, 0xff, 0xa5, 0x06, 0xe6, 0x00, 0xeb, 0xcc, 0xd9,
  0xfb, 0xd7, 0xfd, 0xde, 0x02, 0xe4, 0x1e, 0xea, 0xfd, 0xd7, 0x17, 0x05,
  0x05, 0xe5, 0xc5, 0xfb, 0xf7, 0xf8, 0x08, 0x00, 0x1a, 0xfe, 0x3d, 0xea,
  0x03, 0xff, 0x1e, 0xff, 0xef, 0xf5, 0xee, 0xff, 0xda, 0xe1, 0x0c, 0xf2,
  0x1f, 0xe0, 0x2d, 0xd6, 0xeb, 0xec, 0x1c, 0xf6, 0x0a, 0x22, 0xe6, 0xf5,
  0xe4, 0x03, 0x14, 0x13, 0x13, 0xfd, 0x04, 0xf2, 0xd3, 0x06, 0xfd, 0x0b,
  0xf8, 0x2b, 0xe2, 0xfc, 0x0d, 0x04, 0xf7, 0x10, 0xfe, 0xee, 0xfc, 0xda,
  0xe9, 0xfe, 0x17, 0x18, 0xfb, 0x39, 0xdb, 0xf6, 0xe0, 0xe9, 0x08, 0xfd,
  0x01, 0xf2, 0xe4, 0xe9, 0x00, 0x10, 0x17, 0x00, 0xfd, 0x3c, 0xeb, 0x0d,
  0xff, 0xfc, 0xf7, 0x1a, 0x15, 0x08, 0xe5, 0xe9, 0xdf, 0x27, 0x18, 0xf6,
  0x1a, 0x33, 0xf1, 0x02, 0xfb, 0xf0, 0xea, 0x13, 0x0e, 0xf4, 0xf7, 0x05,
  0xe2, 0xf3, 0x11, 0x0a, 0x17, 0x17, 0xeb, 0xf8, 0x13, 0xfd, 0xff, 0x12,
  0x17, 0xe5, 0xed, 0xe8, 0xcb, 0xfe, 0x27, 0x0a, 0x0c, 0xf7, 0xd1, 0xfb,
  0xf8, 0xea, 0xe7, 0x16, 0xfa, 0xee, 0xda, 0xcb, 0xce, 0x03, 0x24, 0x12,
  0x13, 0x09, 0xe6, 0xe6, 0xda, 0x07, 0xf7, 0xfd, 0x0f, 0x09, 0xe4, 0xc9,
  0xcd, 0xfa, 0x1f, 0x15, 0x05, 0x0c, 0xdd, 0xf2, 0xe0, 0xed, 0x0f, 0x0f,
  0x1c, 0xfa, 0xe6, 0xbc, 0xd8, 0x1d, 0xfe, 0x05, 0x14, 0x29, 0xf8, 0x02,
  0xe8, 0xff, 0x0a, 0x0c, 0x12, 0xee, 0xfb, 0xc1, 0xe2, 0x10, 0x14, 0xfa,
  0x19, 0x2a, 0xeb, 0x06, 0x13, 0x07, 0x16, 0x19, 0xf5, 0xfd, 0x1e, 0xe4,
  0xdb, 0xda, 0xf2, 0xff, 0x1e, 0x34, 0xe3, 0x04, 0xea, 0xfb, 0xff, 0x20,
  0x14, 0xe7, 0xf1, 0xdc, 0xf0, 0xfb, 0xe3, 0xfc, 0x01, 0x27, 0x05, 0xf4,
  0x12, 0x16, 0x03, 0x1a, 0x16, 0x00, 0x43, 0xfe, 0xfe, 0xf2, 0xf8, 0xef,
  0x05, 0x10, 0xfb, 0xfd, 0x00, 0x05, 0x1c, 0x22, 0x0c, 0xf2, 0xff, 0x06,
  0xf5, 0x11, 0xe8, 0x0d, 0x18, 0x1c, 0xfd, 0x00, 0xf3, 0x00, 0x0f, 0x1e,
  0x01, 0xe9, 0xf4, 0x05, 0xeb, 0xfc, 0xf7, 0x16, 0x09, 0x28, 0xfb, 0x0d,
  0xdb, 0xf6, 0xf7, 0x1d, 0x12, 0x00, 0x01, 0xf8, 0xdd, 0x09, 0xfc, 0x0d,
  0x22, 0xfc, 0xef, 0x17, 0x09, 0xf8, 0x0c, 0x18, 0x02, 0xf9, 0xfe, 0xee,
  0xd9, 0x07, 0xf3, 0x1b, 0x0e, 0xdc, 0xde, 0x00, 0xff, 0x0d, 0x01, 0x0b,
  0x10, 0xf7, 0x12, 0xe2, 0xf2, 0x12, 0xff, 0x03, 0x11, 0xfc, 0x05, 0x04,
  0x17, 0x08, 0x19, 0x2a, 0x16, 0xed, 0xf8, 0xbf, 0xf3, 0x16, 0xfd, 0x08,
  0x1c, 0x07, 0x0a, 0x05, 0xcd, 0x20, 0x1d, 0x1e, 0x08, 0xe5, 0xf3, 0xbc,
  0x02, 0xfc, 0xfc, 0x07, 0x0b, 0xff, 0x03, 0x04, 0xe4, 0x08, 0x17, 0x0d,
  0x1d, 0x03, 0xe4, 0xd8, 0x00, 0x1b, 0x1b, 0x09, 0x20, 0xfc, 0x07, 0xe4,
  0xf2, 0x27, 0x10, 0x2c, 0x13, 0xe0, 0xea, 0xbe, 0x00, 0xf5, 0x07, 0x06,
  0xfb, 0xe7, 0xfe, 0x0b, 0x03, 0x1d, 0x1c, 0x20, 0x07, 0xe5, 0x0a, 0xc4,
  0xe4, 0xf4, 0x0c, 0x0c, 0x20, 0xdc, 0x05, 0x16, 0xfa, 0x02, 0x0f, 0x0b,
  0xfd, 0xdf, 0xfe, 0xc2, 0xf0, 0x0f, 0x07, 0x28, 0x25, 0xdf, 0xf6, 0x04,
  0xe3, 0xfd, 0x19, 0xff, 0x02, 0xfa, 0xd3, 0xe3, 0xfa, 0xf8, 0x1f, 0x04,
  0x03, 0xea, 0x06, 0xf9, 0x0f, 0xff, 0x1a, 0x05, 0x08, 0xe7, 0xf2, 0xe3,
  0xf2, 0x0d, 0x15, 0x12, 0x1b, 0xf3, 0x00, 0x0b, 0xf8, 0xfc, 0xfd, 0x04,
  0x13, 0xee, 0x09, 0xdf, 0xe5, 0x13, 0xfc, 0xf8, 0x16, 0xde, 0xfd, 0xf6,
  0x09, 0x11, 0x11, 0x1f, 0xfd, 0xf1, 0x1c, 0xfe, 0xe6, 0x1e, 0xfe, 0xf5,
  0x0c, 0xdf, 0x04, 0x05, 0xd8, 0x17, 0x08, 0x1d, 0x0c, 0xfc, 0xee, 0xfc,
  0xe9, 0x17, 0x00, 0x17, 0x0f, 0xec, 0x04, 0xf8, 0x21, 0xf9, 0x05, 0x16,
  0xfa, 0x0c, 0xfc, 0xec, 0xea, 0x11, 0x02, 0x19, 0x00, 0x04, 0xf6, 0x0e,
  0xf2, 0x0f, 0x01, 0x1f, 0xf6, 0x0d, 0xf5, 0xf6, 0xe2, 0x08, 0xe0, 0x10,
  0x17, 0x06, 0x09, 0xef, 0x13, 0x01, 0x0d, 0x1e, 0x05, 0x02, 0xf4, 0xe8,
  0xf4, 0xfd, 0xdb, 0x3f, 0x1b, 0x00, 0x09, 0xf8, 0x15, 0x0b, 0x04, 0x17,
  0x07, 0xe6, 0x1c, 0xee, 0xe2, 0xf2, 0xf7, 0xee, 0xdd, 0xee, 0xfa, 0xf2,
  0x18, 0xe5, 0xfc, 0x0e, 0x16, 0xeb, 0x09, 0xe8, 0xfa, 0x06, 0xed, 0xf1,
  0xed, 0xf5, 0xd1, 0x05, 0x0d, 0xfc, 0xfe, 0x1f, 0xff, 0xee, 0xfa, 0xf9,
  0xf5, 0x15, 0xe9, 0x09, 0xed, 0xfa, 0xdb, 0x1b, 0xf2, 0xec, 0xe7, 0x14,
  0xf8, 0xfe, 0x00, 0xd9, 0xee, 0x0e, 0xff, 0xee, 0xee, 0xe7, 0xd3, 0xde,
  0xec, 0x02, 0x06, 0x21, 0x00, 0x07, 0x05, 0xcc, 0x00, 0xf5, 0x12, 0xf1,
  0xd7, 0xe1, 0xef, 0xea, 0xf3, 0x01, 0xfa, 0x19, 0x10, 0xe5, 0x0f, 0xf7,
  0xe8, 0xc3, 0xfc, 0xfc, 0xde, 0xd4, 0xda, 0xf7, 0xdf, 0xe6, 0x07, 0x18,
  0x27, 0xdf, 0x04, 0xdc, 0xfd, 0xd3, 0xf6, 0xf3, 0xf8, 0xe2, 0xe4, 0xea,
  0xf7, 0x02, 0xff, 0xf4, 0x0f, 0xf3, 0x0a, 0xdf, 0xf0, 0xba, 0xdf, 0xe7,
  0xe6, 0xe3, 0xfb, 0x09, 0xf8, 0xf1, 0xf8, 0x0a, 0x00, 0xea, 0x00, 0xe3,
  0x08, 0xd9, 0xf5, 0xf0, 0xee, 0xda, 0xf8, 0xf6, 0xf1, 0xe1, 0xec, 0x08,
  0xf5, 0x00, 0xf7, 0xe7, 0xf8, 0xde, 0x09, 0xfd, 0x01, 0xe9, 0xeb, 0x09,
  0xca, 0xe7, 0xc7, 0xf1, 0x12, 0xdf, 0x04, 0xcd, 0xef, 0xe3, 0xf4, 0xe2,
  0xf6, 0xff, 0x07, 0xec, 0xf5, 0xe6, 0xdd, 0xf3, 0x25, 0xff, 0xe9, 0xe6,
  0xfe, 0xe1, 0xf7, 0xd9, 0xee, 0x00, 0xfe, 0xe9, 0x09, 0xf3, 0xda, 0x04,
  0x16, 0xeb, 0x20, 0xec, 0xef, 0xdd, 0x06, 0xf7, 0xed, 0xf3, 0xfd, 0xf1,
  0xde, 0xe9, 0xfd, 0xec, 0xf7, 0xdf, 0xfd, 0xfa, 0xde, 0xdb, 0xda, 0xef,
  0xec, 0x11, 0xea, 0x0a, 0x04, 0xed, 0x05, 0x0a, 0xf8, 0xed, 0x21, 0xec,
  0xe8, 0xe6, 0x12, 0x12, 0xf5, 0x06, 0xec, 0xdc, 0xf0, 0x0e, 0xd3, 0xec,
  0x0f, 0xe9, 0xf7, 0xd7, 0xf9, 0xbb, 0x0b, 0xf3, 0xf6, 0xdc, 0xea, 0x01,
  0x00, 0x00, 0xf7, 0xeb, 0x02, 0xef, 0x22, 0xe5, 0xed, 0xec, 0x21, 0x07,
  0xe5, 0xee, 0xeb, 0xef, 0x05, 0x0a, 0xe6, 0x04, 0xe5, 0xdb, 0xf5, 0xdb,
  0xef, 0xd1, 0xf7, 0xe5, 0xea, 0xfe, 0xce, 0x05, 0xdc, 0xec, 0xe8, 0xfa,
  0xec, 0x09, 0x09, 0xd2, 0xf0, 0xec, 0x19, 0xfc, 0xf9, 0xde, 0xfa, 0xdd,
  0xfe, 0xed, 0x04, 0xef, 0x14, 0x05, 0xf6, 0xef, 0xef, 0xe1, 0x0f, 0xf0,
  0xff, 0xf1, 0x00, 0xe8, 0x07, 0xf8, 0xf7, 0x01, 0xee, 0xe1, 0xe6, 0xd4,
  0xe5, 0xe9, 0x0e, 0xe8, 0xe8, 0xf4, 0xd5, 0xf5, 0xf8, 0x0f, 0x05, 0xfc,
  0xf8, 0xe7, 0xf6, 0xed, 0xfd, 0xea, 0x13, 0x01, 0xf3, 0x15, 0xec, 0xe6,
  0xf3, 0xf2, 0x04, 0xf8, 0xf0, 0xf8, 0x11, 0xe4, 0xec, 0xd2, 0x06, 0xd8,
  0xd9, 0x0d, 0x03, 0xfd, 0xfc, 0xea, 0xf2, 0xf8, 0xfc, 0xf2, 0xf6, 0xde,
  0xed, 0xe0, 0xfe, 0xfc, 0x05, 0xfc, 0xe3, 0xff, 0xd3, 0xfc, 0xf8, 0x0d,
  0xec, 0xee, 0x07, 0xfa, 0x0a, 0xd5, 0x07, 0xc8, 0xe6, 0x1b, 0x05, 0xe0,
  0xf8, 0xff, 0xe5, 0xef, 0x05, 0xfe, 0x0d, 0x0e, 0xe3, 0xcf, 0xf5, 0xf9,
  0xf1, 0x33, 0xe8, 0x00, 0xf9, 0xf5, 0x04, 0xe1, 0xee, 0x16, 0xe4, 0xff,
  0xf2, 0xd9, 0xeb, 0xcb, 0xf4, 0x0c, 0xf5, 0x03, 0xeb, 0xea, 0x05, 0xf7,
  0x0a, 0x28, 0xeb, 0x27, 0xe6, 0xdf, 0x04, 0xed, 0xe4, 0x05, 0xef, 0xfc,
  0x12, 0xf7, 0x03, 0xfb, 0x0c, 0x27, 0xf8, 0x2d, 0xd4, 0xc7, 0xff, 0xf6,
  0x05, 0x0d, 0xe3, 0x02, 0xe4, 0xdb, 0xfe, 0xec, 0xe2, 0xfe, 0xd7, 0x32,
  0xf8, 0xae, 0xed, 0x00, 0x1d, 0x04, 0xdf, 0xf5, 0xda, 0xfd, 0xe7, 0xf5,
  0xe9, 0x2e, 0xcd, 0x20, 0x01, 0xd7, 0xe2, 0xe0, 0x0a, 0x1b, 0xe1, 0x09,
  0xf4, 0xf2, 0xe0, 0xec, 0xed, 0x16, 0xd2, 0x2a, 0xed, 0xc7, 0xfe, 0xea,
  0x17, 0xf6, 0x10, 0x04, 0xec, 0xfe, 0xe1, 0xe9, 0x10, 0x30, 0xf8, 0x36,
  0xf9, 0xba, 0xf6, 0xf3, 0x20, 0x04, 0xe9, 0xf3, 0xf8, 0xf2, 0x02, 0xdf,
  0xe6, 0x19, 0xdd, 0x37, 0xf0, 0xe6, 0xe2, 0xda, 0x2c, 0x1e, 0x00, 0x1b,
  0x14, 0x0d, 0xea, 0xf9, 0xf3, 0x1d, 0xe4, 0x0e, 0x04, 0xd1, 0x0f, 0xde,
  0x08, 0x17, 0x13, 0xf1, 0x16, 0x05, 0x04, 0xdd, 0xea, 0x05, 0xea, 0x2a,
  0x0c, 0xdb, 0xee, 0xfd, 0x05, 0x0a, 0x0a, 0x23, 0xf1, 0x12, 0xff, 0xfa,
  0xe1, 0x11, 0x07, 0x10, 0x14, 0xea, 0xf3, 0x0a, 0x12, 0x03, 0x0f, 0x12,
  0x0d, 0x04, 0xf5, 0x0d, 0xf5, 0x23, 0xe9, 0x20, 0xf7, 0xf3, 0xec, 0x0e,
  0x1c, 0x0d, 0x08, 0x08, 0x16, 0x0a, 0xef, 0x0b, 0xfc, 0xf2, 0xe2, 0x29,
  0x08, 0xec, 0x0c, 0x03, 0x03, 0xf1, 0x07, 0x17, 0xe1, 0xed, 0xfe, 0xef,
  0xce, 0x0f, 0x00, 0x26, 0xf5, 0xfd, 0x05, 0x16, 0x17, 0xed, 0xfa, 0xf8,
  0xdb, 0xec, 0xcc, 0xea, 0xe5, 0xf5, 0x08, 0x27, 0xf2, 0xfa, 0x04, 0x21,
  0x02, 0x07, 0xfc, 0xf4, 0xf2, 0xfa, 0xfd, 0x0f, 0x0d, 0x03, 0xf4, 0x03,
  0xe6, 0x09, 0x0e, 0x0b, 0x17, 0xef, 0xe8, 0xf6, 0xff, 0xfb, 0x0c, 0xf5,
  0xeb, 0xed, 0xea, 0xe5, 0xe7, 0x13, 0xee, 0x32, 0x0d, 0xdd, 0xf1, 0x00,
  0xf2, 0x21, 0x1e, 0x01, 0xf2, 0x0f, 0x12, 0xe1, 0xd7, 0x0b, 0xf8, 0x52,
  0x01, 0x05, 0xdb, 0x10, 0xe5, 0x07, 0x18, 0x08, 0x0c, 0xfd, 0x0d, 0xdb,
  0xf2, 0x0c, 0xe7, 0x2f, 0x0e, 0xfd, 0xe4, 0xfc, 0xe7, 0xfb, 0x0b, 0x06,
  0xfa, 0x13, 0xea, 0xef, 0xde, 0xfa, 0x02, 0x2b, 0x10, 0xec, 0xe6, 0x12,
  0xe9, 0x19, 0x07, 0xfc, 0xf2, 0xf3, 0xeb, 0xf1, 0xda, 0x0f, 0xff, 0x0b,
  0xfd, 0xf5, 0xfb, 0x0c, 0x08, 0x06, 0x1a, 0xef, 0x0d, 0xf1, 0x19, 0xec,
  0xe7, 0xfe, 0xe2, 0x12, 0x0a, 0xea, 0xf1, 0x08, 0xee, 0x10, 0x05, 0xff,
  0xfc, 0xe9, 0xf3, 0xe3, 0xf9, 0xd8, 0xf7, 0x0e, 0x01, 0xe4, 0xd9, 0x0e,
  0x03, 0x0f, 0x17, 0xf0, 0xfb, 0xfa, 0x03, 0xe9, 0xed, 0xdb, 0xfb, 0x07,
  0xfa, 0xfe, 0xf3, 0x07, 0xd7, 0x03, 0xf7, 0x04, 0xec, 0xfd, 0x08, 0xf6,
  0xda, 0xec, 0xfe, 0x27, 0x0f, 0xe1, 0xe4, 0x1d, 0x20, 0x15, 0xf4, 0x0c,
  0x04, 0x09, 0xf9, 0xfa, 0xe6, 0xd0, 0xf3, 0x29, 0x04, 0xf9, 0xda, 0x22,
  0xe8, 0x20, 0xfc, 0x0c, 0xee, 0x1b, 0x01, 0xf9, 0xf7, 0xe0, 0xec, 0x39,
  0xfe, 0xc7, 0x07, 0x3c, 0x0f, 0x04, 0x02, 0xef, 0xf8, 0x17, 0x0c, 0x13,
  0xfe, 0xe4, 0x02, 0x05, 0x07, 0xdb, 0x0d, 0x31, 0x2d, 0x16, 0x0d, 0x00,
  0xee, 0x22, 0x0e, 0x1c, 0x14, 0xd9, 0xe7, 0x16, 0x06, 0xed, 0xfe, 0x17,
  0x4f, 0x0e, 0x0b, 0xff, 0xf3, 0x2d, 0x01, 0x0b, 0x0b, 0x01, 0xe6, 0xf7,
  0x16, 0xea, 0x08, 0x1b, 0x4d, 0x0d, 0xef, 0xef, 0xda, 0x12, 0x0d, 0x1d,
  0x0b, 0xf3, 0xe7, 0xf7, 0x0e, 0xe2, 0x27, 0x0a, 0x53, 0xfa, 0xd9, 0xfb,
  0x04, 0x15, 0x20, 0x0e, 0x0d, 0xfc, 0xeb, 0xfe, 0x0e, 0xd2, 0x0f, 0x18,
  0x2f, 0xf0, 0xff, 0xf9, 0xea, 0x04, 0x1b, 0xfb, 0x04, 0xf1, 0xdf, 0x0b,
  0xf4, 0xf6, 0x22, 0x1d, 0x3e, 0xfa, 0xf6, 0xe0, 0xcd, 0x15, 0xf9, 0xff,
  0xf6, 0x00, 0xe7, 0x2e, 0x03, 0xfc, 0xf6, 0x19, 0x43, 0xf9, 0xe4, 0xf7,
  0xec, 0x15, 0xf5, 0xf0, 0xff, 0x11, 0xf9, 0x06, 0x18, 0xf0, 0xfe, 0x16,
  0x2f, 0xe3, 0xe8, 0xe7, 0xec, 0xf9, 0x09, 0xef, 0x08, 0x0f, 0xfc, 0x04,
  0xf7, 0xf8, 0x0f, 0x17, 0x27, 0xff, 0x02, 0xf1, 0xeb, 0x19, 0xeb, 0xe3,
  0x19, 0x05, 0x1b, 0xfa, 0xee, 0xdf, 0x0c, 0x1a, 0x2b, 0x00, 0xfb, 0xe1,
  0xeb, 0x16, 0xe6, 0xfc, 0x1c, 0x05, 0xff, 0x0b, 0x09, 0xff, 0x21, 0x20,
  0x42, 0xfa, 0xed, 0xf1, 0xec, 0x1e, 0x11, 0x1a, 0x29, 0xf8, 0xfa, 0x04,
  0x0b, 0xf1, 0x13, 0x12, 0x3b, 0xf9, 0x0e, 0xf9, 0x05, 0x0a, 0x05, 0x14,
  0x10, 0xeb, 0x05, 0xf1, 0x01, 0xda, 0x0d, 0xfb, 0x2b, 0xfe, 0x13, 0xdb,
  0x17, 0x11, 0x03, 0x08, 0x14, 0x19, 0x13, 0xe6, 0xf9, 0xec, 0x10, 0x11,
  0x4f, 0x0f, 0xf5, 0xd2, 0x1e, 0xfc, 0x20, 0x01, 0x0f, 0x2f, 0x17, 0xea,
  0xea, 0xe6, 0xec, 0x14, 0x0b, 0xed, 0xf7, 0xd9, 0xfb, 0xf4, 0xd9, 0x0f,
  0xfa, 0x26, 0x23, 0x11, 0xf3, 0xe7, 0xe7, 0x21, 0x1e, 0xed, 0x0d, 0xd2,
  0xff, 0x0e, 0xed, 0xe9, 0x05, 0x1c, 0x20, 0xed, 0x00, 0x06, 0xf2, 0x0e,
  0x13, 0x03, 0xf3, 0xce, 0x0a, 0xfd, 0xe3, 0xf6, 0x09, 0x1e, 0x16, 0xf2,
  0x0f, 0xfc, 0x0e, 0x08, 0x12, 0xf7, 0x07, 0xf9, 0x08, 0xff, 0xd3, 0xdb,
  0x14, 0x10, 0x11, 0xe9, 0xe0, 0x14, 0x1d, 0x00, 0x1a, 0xf4, 0x11, 0xf8,
  0xfa, 0x07, 0xff, 0x09, 0x11, 0x19, 0x09, 0xf7, 0xe7, 0x11, 0x27, 0x01,
  0x1e, 0xf1, 0x0a, 0xfb, 0x17, 0x12, 0x04, 0xf8, 0x09, 0x0c, 0xff, 0xe9,
  0xf1, 0x10, 0x28, 0x08, 0x0f, 0x09, 0x20, 0xfa, 0x09, 0x2d, 0x0b, 0x28,
  0x1a, 0xff, 0xfb, 0xf6, 0xe7, 0x01, 0x0e, 0xf9, 0x31, 0x10, 0xf9, 0xee,
  0xff, 0x13, 0x1b, 0xed, 0x1f, 0x06, 0x05, 0xfa, 0xe1, 0x04, 0x09, 0x08,
  0x0d, 0xf7, 0xf5, 0xf2, 0x17, 0x1b, 0x02, 0xea, 0x16, 0x07, 0x0b, 0x02,
  0xe9, 0xdd, 0xf3, 0xfc, 0x2a, 0xfc, 0xf4, 0xe4, 0xfd, 0xfc, 0xf2, 0xd3,
  0x11, 0x15, 0xfc, 0xf7, 0xd4, 0xf5, 0x01, 0xfa, 0x10, 0x01, 0x00, 0xf7,
  0xde, 0xf2, 0xfe, 0xc2, 0x0b, 0x1c, 0xf4, 0xfc, 0xda, 0x13, 0xf8, 0xef,
  0x15, 0x0c, 0xf4, 0xe4, 0xf1, 0xeb, 0xf3, 0xbd, 0xfa, 0x18, 0x03, 0xf5,
  0xf3, 0x02, 0xe8, 0xdb, 0x01, 0xfb, 0x1c, 0xd6, 0x13, 0xd6, 0xf9, 0xc3,
  0x20, 0x14, 0x14, 0x03, 0xe4, 0x02, 0xf9, 0x00, 0xf7, 0x02, 0x13, 0xde,
  0xf7, 0xed, 0xf3, 0xe8, 0x0f, 0xfd, 0x15, 0xff, 0xde, 0xf2, 0xfc, 0xf4,
  0x05, 0x03, 0x23, 0xe6, 0xfc, 0x05, 0xf1, 0xdc, 0x04, 0x03, 0x06, 0xf6,
  0xdf, 0xff, 0x04, 0x10, 0x26, 0xf9, 0x14, 0xdc, 0xfd, 0x08, 0xf3, 0xde,
  0x11, 0x07, 0x0c, 0x09, 0xf2, 0xf9, 0x03, 0x16, 0xe3, 0x14, 0x0c, 0xd7,
  0x1b, 0x08, 0xfa, 0xee, 0xfe, 0xef, 0x0a, 0xfe, 0xf5, 0x02, 0xf7, 0xe0,
  0x1c, 0xf1, 0xec, 0x18, 0x2e, 0x14, 0x06, 0x08, 0x03, 0xec, 0x11, 0xfb,
  0xec, 0x13, 0xee, 0x09, 0xf6, 0x02, 0xfd, 0x14, 0x12, 0x06, 0x0d, 0xfa,
  0x0e, 0x01, 0xe9, 0xf6, 0xf4, 0xf4, 0x02, 0x09, 0x05, 0xda, 0xee, 0xfd,
  0x28, 0x0c, 0x03, 0xf5, 0xfc, 0x12, 0x08, 0xd7, 0x08, 0xee, 0x0d, 0x18,
  0xea, 0xfb, 0x0a, 0xef, 0x0f, 0x13, 0x12, 0xdf, 0xef, 0xf4, 0xf7, 0xe7,
  0x14, 0x14, 0xf6, 0x01, 0xfe, 0xf3, 0x15, 0x06, 0x01, 0xe6, 0x26, 0xef,
  0x14, 0x03, 0x21, 0xe5, 0x0b, 0x16, 0xf3, 0x04, 0xfa, 0x01, 0xf2, 0xed,
  0x0c, 0x06, 0x13, 0x0f, 0xfc, 0xe6, 0x01, 0xe6, 0x12, 0x16, 0x01, 0xe8,
  0xed, 0xd9, 0x0c, 0x0c, 0x1c, 0xf4, 0x18, 0x1a, 0x05, 0xdf, 0x17, 0xfd,
  0x09, 0x05, 0x0b, 0xe1, 0xff, 0xe5, 0xef, 0x0f, 0x04, 0xf0, 0x05, 0x0b,
  0x0b, 0xfb, 0x1b, 0xd3, 0xf2, 0xf6, 0xea, 0xe9, 0xf9, 0x08, 0x16, 0x06,
  0x17, 0x0b, 0x21, 0xe8, 0xfb, 0xe0, 0x02, 0xe4, 0x04, 0xf3, 0xe7, 0xe6,
  0x1b, 0x01, 0xfb, 0xf2, 0x0f, 0xee, 0x28, 0xe6, 0x0d, 0xf2, 0xf1, 0xe3,
  0xf5, 0x00, 0xe0, 0xe8, 0xea, 0xe9, 0x16, 0x03, 0x14, 0x0c, 0x2f, 0xe6,
  0xdd, 0xce, 0xe6, 0xee, 0xe5, 0x13, 0xef, 0xf8, 0xfb, 0x08, 0x25, 0xfd,
  0x01, 0x00, 0x0c, 0xf3, 0xf2, 0xeb, 0xee, 0xfb, 0xef, 0xe7, 0x19, 0x06,
  0xfe, 0xf4, 0x11, 0x1b, 0x17, 0xee, 0xfb, 0xe8, 0xdf, 0xee, 0x1a, 0xcb,
  0xef, 0x17, 0xda, 0x10, 0xf8, 0xd9, 0x14, 0xe0, 0x1a, 0xe1, 0x08, 0xf4,
  0x19, 0xf0, 0x19, 0xda, 0x09, 0xf0, 0x06, 0xe5, 0xed, 0xdb, 0x10, 0x02,
  0xf7, 0x09, 0x0a, 0xe8, 0x01, 0xde, 0x25, 0xd4, 0xff, 0x0b, 0xdd, 0x01,
  0x01, 0xed, 0x06, 0xf7, 0x22, 0x06, 0x1c, 0x01, 0x2f, 0xe7, 0x11, 0xfb,
  0xf8, 0xfe, 0x18, 0xfe, 0x0b, 0xe5, 0x0b, 0xf7, 0x08, 0x19, 0x07, 0x05,
  0xfd, 0xdf, 0x0b, 0xfb, 0x09, 0xfc, 0xdf, 0xe7, 0x0a, 0xec, 0xec, 0xe8,
  0x07, 0xe6, 0xdf, 0xef, 0x09, 0xeb, 0x1e, 0xe9, 0xf0, 0xfa, 0xfb, 0xe4,
  0x09, 0xe3, 0xfd, 0xed, 0x23, 0xe7, 0xf0, 0xec, 0xe6, 0xdb, 0xfd, 0xe0,
  0xeb, 0xf7, 0xf7, 0xee, 0xe0, 0xed, 0xf0, 0xf4, 0x0c, 0xe4, 0xfc, 0xf2,
  0xe5, 0xd0, 0x0a, 0xfb, 0xe0, 0xf2, 0xfd, 0xfe, 0xea, 0x0a, 0xf1, 0xe8,
  0x1d, 0xed, 0x16, 0xe0, 0x05, 0xfa, 0xf7, 0xe1, 0x00, 0x00, 0xfa, 0x0f,
  0xfd, 0xe6, 0xd9, 0x04, 0x00, 0xf2, 0xf4, 0xe7, 0x0d, 0x06, 0x03, 0xdb,
  0x0f, 0x0d, 0xf5, 0xe7, 0xe8, 0xee, 0xeb, 0xf7, 0x11, 0x09, 0x18, 0x08,
  0xe8, 0xf1, 0x27, 0xe0, 0x03, 0x0c, 0x0a, 0x05, 0x0d, 0xe0, 0xd4, 0xdb,
  0xfb, 0xf3, 0xf0, 0xe4, 0xf9, 0xf1, 0x1c, 0xe5, 0x08, 0xf7, 0xdd, 0x09,
  0xff, 0xfa, 0xfd, 0xe0, 0x09, 0xf0, 0xfe, 0xfa, 0xfa, 0xfc, 0x2c, 0xce,
  0xe1, 0xeb, 0xde, 0xe1, 0xf1, 0xfe, 0xe3, 0xd1, 0xe4, 0xee, 0x27, 0x17,
  0x11, 0x01, 0x0c, 0xe4, 0x0d, 0xf6, 0xe2, 0xf6, 0xfb, 0xdb, 0x07, 0xf5,
  0xfa, 0xf1, 0x07, 0x0d, 0xda, 0xdd, 0x0c, 0x07, 0x0d, 0xfb, 0xf2, 0x02,
  0xe2, 0xe5, 0xee, 0xef, 0x0b, 0xe5, 0x00, 0xef, 0x05, 0xde, 0x1b, 0xed,
  0xf1, 0x0a, 0xfc, 0xf9, 0xf4, 0xcc, 0xd9, 0xfe, 0x11, 0xeb, 0x11, 0xeb,
  0xe4, 0xf9, 0x09, 0xfd, 0xe2, 0xf5, 0xfe, 0xfc, 0x05, 0xea, 0xdd, 0xe8,
  0x0a, 0x06, 0x08, 0xea, 0xf9, 0x03, 0x1c, 0xef, 0xee, 0xe7, 0xe0, 0xfd,
  0x07, 0xed, 0xdf, 0xfa, 0xf4, 0xed, 0xee, 0x0a, 0x1e, 0xf8, 0x07, 0xee,
  0xf5, 0xf2, 0xf9, 0x00, 0x0f, 0xfa, 0x0c, 0xf0, 0xfe, 0xde, 0x1e, 0xe0,
  0xea, 0xec, 0x08, 0xe0, 0x01, 0xf7, 0xf3, 0x06, 0x00, 0x08, 0x07, 0xea,
  0xfd, 0xf7, 0x1a, 0xfc, 0xf3, 0xf6, 0xf5, 0xe1, 0xeb, 0xf9, 0xe9, 0xf7,
  0x15, 0xf9, 0x0b, 0xea, 0x0c, 0xf1, 0x01, 0xe3, 0xe2, 0xfc, 0xf2, 0xe7,
  0xfb, 0xe9, 0x0d, 0xf6, 0x04, 0xe7, 0x1a, 0xe6, 0x04, 0xf9, 0x06, 0xd2,
  0xe7, 0xdc, 0xe1, 0xe3, 0xe5, 0x0b, 0x06, 0xfa, 0xdf, 0xfc, 0xf5, 0xff,
  0x14, 0x05, 0xff, 0xf7, 0x0e, 0x00, 0xe4, 0x0b, 0xf9, 0x03, 0x10, 0x0e,
  0xf7, 0xf7, 0x03, 0x12, 0x0b, 0xe9, 0x15, 0xfd, 0xfa, 0xf1, 0x02, 0xec,
  0xd6, 0xe6, 0xea, 0xf3, 0xfd, 0xf3, 0xec, 0x0f, 0xf5, 0xfb, 0xf6, 0x11,
  0x1a, 0xf7, 0x00, 0xf5, 0xd7, 0xfd, 0xf6, 0xe8, 0x09, 0xff, 0xf9, 0xf3,
  0xe9, 0x04, 0xeb, 0xe0, 0x0c, 0xe9, 0x0a, 0xf0, 0xf9, 0xed, 0xe5, 0xf6,
  0xf7, 0xe4, 0xf4, 0x0a, 0xe3, 0xfa, 0xf5, 0xe6, 0xfc, 0xde, 0xf2, 0xe0,
  0xef, 0x06, 0xff, 0xe3, 0x08, 0xed, 0xfa, 0xfc, 0xec, 0xe5, 0x28, 0xfb,
  0x01, 0xde, 0x0e, 0x1e, 0x10, 0x02, 0xe9, 0xdc, 0x0d, 0xd9, 0xef, 0x0e,
  0x32, 0x0e, 0x33, 0xf3, 0x1f, 0xd5, 0x2b, 0x1b, 0xf0, 0xe7, 0x03, 0xed,
  0xec, 0x08, 0x0b, 0x0c, 0x27, 0x11, 0x1f, 0xef, 0x02, 0xff, 0x20, 0x1c,
  0x01, 0xfe, 0x08, 0xea, 0x15, 0x0b, 0x17, 0x05, 0x0e, 0xe8, 0x14, 0xfa,
  0xf8, 0xc9, 0x31, 0x02, 0xf0, 0xd9, 0xd8, 0xe7, 0xfc, 0xfd, 0x1c, 0x11,
  0x12, 0xff, 0x34, 0xee, 0xef, 0x0b, 0x1e, 0x02, 0xe5, 0xcc, 0xdf, 0xf2,
  0xed, 0x10, 0x17, 0x24, 0x14, 0xe3, 0x1d, 0xf5, 0x07, 0x04, 0xfe, 0x25,
  0xf1, 0xfa, 0xf6, 0xe7, 0xfc, 0x04, 0x07, 0x25, 0x15, 0xfc, 0x0b, 0xfb,
  0xea, 0x20, 0x10, 0x33, 0xf9, 0xe1, 0x0e, 0x04, 0x0a, 0x0e, 0x09, 0x15,
  0xf7, 0xf8, 0x20, 0xfa, 0xfe, 0x37, 0x07, 0x18, 0xd8, 0x16, 0x07, 0xe1,
  0x0a, 0x13, 0xf9, 0x24, 0x01, 0x03, 0x47, 0xed, 0xf8, 0x41, 0x03, 0x01,
  0xe9, 0x12, 0x13, 0xeb, 0x07, 0x19, 0x06, 0x11, 0x00, 0xe6, 0x2b, 0xce,
  0xee, 0x33, 0xf5, 0xd7, 0xf2, 0x17, 0x00, 0xf9, 0xf0, 0x10, 0x00, 0xff,
  0xe7, 0xdb, 0x23, 0xf9, 0xed, 0x42, 0x05, 0xe4, 0xcd, 0x28, 0x1b, 0xf4,
  0x25, 0xf8, 0xe3, 0x03, 0xe3, 0x02, 0x04, 0xf5, 0xe9, 0x33, 0xfd, 0xf0,
  0xde, 0x32, 0x11, 0xf5, 0x0e, 0x05, 0xe0, 0xff, 0xef, 0xeb, 0xf9, 0x01,
  0xdb, 0x2f, 0x19, 0xea, 0xe5, 0x34, 0x2a, 0x05, 0xdf, 0xf2, 0xe7, 0x11,
  0xeb, 0xf8, 0xdf, 0x03, 0xe9, 0x25, 0x13, 0xe6, 0xe3, 0x29, 0x0d, 0xe2,
  0x02, 0xf7, 0xd5, 0x05, 0x03, 0xeb, 0xdb, 0xf2, 0xf6, 0x2a, 0x14, 0x0a,
  0xe4, 0x2b, 0x12, 0x02, 0xe9, 0xed, 0xf6, 0x10, 0x01, 0xed, 0xf6, 0xe0,
  0xe8, 0x23, 0x14, 0xef, 0xf7, 0x4b, 0x0a, 0x07, 0xd5, 0x02, 0xe7, 0x08,
  0xf6, 0xe5, 0x0a, 0x01, 0xef, 0x15, 0x1b, 0x0a, 0xec, 0x29, 0xfa, 0xf2,
  0xdc, 0xe6, 0x03, 0x05, 0xf1, 0xe5, 0x09, 0xdf, 0x05, 0x12, 0x29, 0x00,
  0xe0, 0x02, 0xf2, 0xe8, 0xe4, 0xfb, 0xe0, 0x16, 0xf2, 0xd8, 0x0c, 0xee,
  0xe1, 0x07, 0x2b, 0xf0, 0xd8, 0x11, 0x13, 0xf2, 0x0b, 0xe8, 0xda, 0x1d,
  0xe4, 0xd2, 0x1e, 0xf7, 0xce, 0xe8, 0x1c, 0xe2, 0xee, 0xf1, 0xef, 0xdd,
  0xd1, 0xd8, 0xf0, 0x0d, 0x00, 0xeb, 0xf5, 0xea, 0xe1, 0xdf, 0x24, 0xf9,
  0xee, 0x0d, 0xf4, 0xeb, 0xcb, 0xff, 0xff, 0x04, 0xfd, 0xf7, 0xf3, 0xe4,
  0xdb, 0xe6, 0x21, 0xfb, 0xe1, 0xeb, 0xfc, 0xdd, 0xfa, 0xff, 0xea, 0x0d,
  0xff, 0xe0, 0xf5, 0xdc, 0xf2, 0xf0, 0x15, 0xf7, 0xed, 0xfd, 0xee, 0x0a,
  0xe8, 0x12, 0x08, 0x04, 0xe6, 0xf5, 0xf9, 0xde, 0xef, 0xd7, 0x08, 0xf2,
  0xe8, 0xe6, 0x0a, 0x0a, 0x02, 0x1c, 0xf3, 0x03, 0x01, 0x03, 0x04, 0xdf,
  0xe2, 0xe0, 0x08, 0xf6, 0xe8, 0xef, 0xf5, 0x0a, 0xfd, 0x21, 0xf0, 0x0f,
  0xe9, 0x00, 0xf0, 0xe8, 0xe0, 0x02, 0xf4, 0xe8, 0xf3, 0x06, 0xfd, 0x0f,
  0x14, 0x15, 0x01, 0x16, 0xec, 0x02, 0x0a, 0xf3, 0xe7, 0xfd, 0xff, 0xf3,
  0x05, 0x3e, 0x1a, 0xeb, 0xfc, 0x13, 0xe8, 0x27, 0xf1, 0xfe, 0x20, 0x06,
  0xcb, 0xf6, 0x05, 0xe7, 0xf6, 0x20, 0xfe, 0xe8, 0x14, 0xfc, 0x01, 0x17,
  0xf5, 0xf7, 0xf7, 0x11, 0xe6, 0x16, 0xf3, 0xf9, 0xee, 0x0b, 0x0d, 0x09,
  0x08, 0xff, 0x0b, 0x1a, 0xf0, 0x03, 0xf3, 0xe1, 0xee, 0x11, 0xf4, 0x12,
  0xe5, 0x04, 0xe9, 0xf9, 0x04, 0xf7, 0x00, 0xfe, 0xf0, 0xf4, 0xea, 0xcd,
  0xd6, 0x05, 0x11, 0x21, 0xfa, 0x14, 0xe8, 0xec, 0x00, 0xe8, 0xeb, 0x06,
  0x0c, 0xe3, 0xeb, 0xee, 0xea, 0x00, 0xfd, 0x02, 0xea, 0x01, 0x07, 0x04,
  0xf5, 0xeb, 0xf8, 0xf5, 0xf2, 0xd0, 0x04, 0xdd, 0xd5, 0x00, 0xfe, 0xf8,
  0xe8, 0xfe, 0xf3, 0x02, 0x0c, 0xe5, 0xf1, 0xf3, 0x01, 0xea, 0xf7, 0xf2,
  0xdb, 0xfb, 0x02, 0x11, 0xef, 0x08, 0x0b, 0xfe, 0x29, 0xeb, 0xdc, 0xeb,
  0x0c, 0xf6, 0xfd, 0xe1, 0xd4, 0x03, 0xf4, 0xee, 0xdb, 0x09, 0x1a, 0x04,
  0x37, 0xf5, 0xe2, 0x06, 0xe4, 0xe2, 0x09, 0xde, 0xee, 0x01, 0x04, 0xf6,
  0x04, 0x22, 0x08, 0xed, 0x15, 0xf9, 0xe6, 0xf5, 0xe7, 0x01, 0x10, 0xd3,
  0xe8, 0x11, 0xf4, 0x11, 0xfb, 0x01, 0x05, 0x1b, 0xfa, 0x02, 0xda, 0xf7,
  0xf2, 0xdd, 0xef, 0xf2, 0xf2, 0x04, 0xf9, 0xf9, 0xf7, 0xe3, 0x07, 0x09,
  0x1e, 0xf5, 0xf0, 0x08, 0xe1, 0xeb, 0x03, 0xd8, 0xdb, 0x19, 0xee, 0xfd,
  0xfe, 0xe7, 0x18, 0xf6, 0x14, 0x01, 0xeb, 0x01, 0x0b, 0xfc, 0x02, 0xec,
  0xd9, 0xf9, 0xed, 0xf7, 0xf8, 0xf4, 0x05, 0x25, 0x01, 0xf9, 0xeb, 0x05,
  0xf3, 0x14, 0x0c, 0xf1, 0xf0, 0x23, 0xf0, 0x0a, 0xe9, 0xfc, 0x11, 0x17,
  0x19, 0xfe, 0x02, 0x0a, 0xfd, 0xfb, 0x1e, 0x08, 0xc8, 0x07, 0xf7, 0xf7,
  0x00, 0xef, 0x11, 0xfb, 0x29, 0xef, 0xe1, 0xf7, 0xf7, 0x03, 0x1d, 0x1c,
  0xe0, 0x00, 0xe4, 0x1c, 0xe7, 0x14, 0x28, 0x00, 0x10, 0xef, 0x02, 0x0d,
  0x05, 0xf9, 0x02, 0xe1, 0xea, 0x19, 0x0d, 0x08, 0xff, 0x08, 0xf9, 0xf9,
  0xde, 0xf7, 0xf3, 0xd4, 0x00, 0x0a, 0x16, 0xff, 0xde, 0x04, 0x28, 0xf1,
  0xfd, 0xf9, 0xe5, 0x02, 0xe9, 0xf7, 0xe9, 0xec, 0xf6, 0xe7, 0x09, 0xea,
  0xef, 0x13, 0x0c, 0x13, 0xff, 0xea, 0xe8, 0xf8, 0xf2, 0xff, 0x0e, 0xd1,
  0xfe, 0x00, 0x21, 0xf7, 0xfb, 0x14, 0x0c, 0x0d, 0xe3, 0x03, 0xdf, 0xf7,
  0xf1, 0x0c, 0x09, 0xeb, 0xdc, 0x1a, 0x2d, 0xeb, 0xe0, 0x1a, 0x2e, 0x1a,
  0x07, 0xf2, 0xf0, 0xf5, 0x11, 0xf5, 0xff, 0xea, 0x00, 0xed, 0x09, 0xef,
  0xda, 0xfc, 0x17, 0xf5, 0x00, 0xf6, 0x08, 0xde, 0xe6, 0x13, 0x0b, 0xdc,
  0x00, 0x05, 0x01, 0xf9, 0xf8, 0x0a, 0x06, 0x00, 0xeb, 0x25, 0xf6, 0xe9,
  0x14, 0xfd, 0xfe, 0xda, 0x04, 0xe8, 0xfc, 0x04, 0x00, 0x07, 0x16, 0x0a,
  0xfc, 0x18, 0x06, 0xf8, 0x00, 0x14, 0x14, 0xcd, 0xeb, 0xf4, 0x1b, 0xfe,
  0x04, 0xfd, 0x0d, 0xf8, 0xf3, 0x04, 0x03, 0xfc, 0x0a, 0x15, 0x06, 0xe3,
  0x00, 0xef, 0x00, 0xed, 0xe7, 0x20, 0x20, 0xf6, 0xeb, 0x08, 0xfa, 0xfb,
  0xfd, 0xf8, 0x02, 0xdc, 0xdc, 0xf7, 0xd3, 0xe9, 0x03, 0x10, 0x12, 0x0d,
  0xf5, 0x00, 0xf6, 0xeb, 0x14, 0x15, 0x0e, 0xf0, 0xe1, 0xe8, 0x05, 0xf0,
  0x11, 0x18, 0x01, 0x08, 0xf0, 0x08, 0xfd, 0x19, 0x21, 0xf5, 0x0f, 0xe2,
  0xfb, 0xec, 0xeb, 0xfe, 0x16, 0xff, 0xff, 0x01, 0xf1, 0x14, 0x11, 0x0f,
  0xfd, 0xf8, 0xe9, 0xdb, 0xf5, 0x10, 0xf3, 0x0b, 0x17, 0x00, 0x18, 0xfa,
  0xed, 0x10, 0x1b, 0x14, 0x19, 0xf0, 0xe9, 0xc8, 0xf6, 0x06, 0x01, 0xf7,
  0x0a, 0x2c, 0x04, 0x0d, 0xf1, 0x1f, 0x07, 0x0b, 0x0a, 0xfe, 0xf7, 0xdc,
  0xe5, 0xfd, 0xfd, 0x07, 0x0b, 0x29, 0xfc, 0xf3, 0xf0, 0x0d, 0x1e, 0x18,
  0x34, 0x14, 0xee, 0xed, 0xe2, 0xf6, 0x00, 0xee, 0x24, 0x2e, 0x16, 0x00,
  0xf0, 0xfa, 0x21, 0x19, 0x44, 0x15, 0x01, 0xff, 0xec, 0xec, 0xf2, 0xfe,
  0x0b, 0x20, 0x12, 0xf3, 0x0c, 0x19, 0x04, 0x23, 0x11, 0x20, 0xfd, 0xf9,
  0xeb, 0xfc, 0x0a, 0xfd, 0x11, 0x3c, 0x29, 0xf4, 0x0d, 0x06, 0x17, 0x14,
  0xff, 0xfa, 0x16, 0x13, 0x03, 0x0a, 0x10, 0xee, 0x07, 0x11, 0x22, 0xde,
  0xfd, 0xfa, 0x04, 0x1c, 0x22, 0xfe, 0x02, 0x03, 0x01, 0x04, 0xee, 0xe1,
  0x0d, 0x30, 0x2d, 0x03, 0x06, 0x0d, 0x12, 0x13, 0x06, 0x18, 0x0d, 0x1c,
  0xf2, 0x03, 0xda, 0xe3, 0x12, 0x10, 0x15, 0xf8, 0x0a, 0xe4, 0x26, 0x19,
  0x15, 0x04, 0x1b, 0x07, 0xe3, 0xfe, 0xfe, 0xea, 0x11, 0xfe, 0x13, 0x12,
  0xed, 0x0d, 0x1c, 0x0f, 0x39, 0xf7, 0x04, 0xef, 0xeb, 0x05, 0xff, 0x07,
  0x1e, 0x12, 0xe8, 0xf9, 0x02, 0x0d, 0x18, 0x06, 0x21, 0xfe, 0xed, 0x09,
  0xe0, 0x16, 0xf0, 0xee, 0x2e, 0xfe, 0x0a, 0x04, 0xf5, 0xed, 0x21, 0x0e,
  0x30, 0x11, 0xec, 0xfa, 0xed, 0xf2, 0x1f, 0xdd, 0x05, 0xfb, 0xf0, 0xf6,
  0xfc, 0xf1, 0x01, 0x1d, 0x12, 0x07, 0xff, 0x09, 0x04, 0xf9, 0x16, 0x00,
  0x19, 0xe9, 0xf4, 0x14, 0x01, 0xeb, 0x14, 0x0b, 0x1e, 0xf8, 0x0f, 0x0c,
  0xe6, 0xed, 0xf9, 0xf2, 0x09, 0xe4, 0xfb, 0x0f, 0xe7, 0xe6, 0xf9, 0x0d,
  0x25, 0x0c, 0xfd, 0x01, 0x03, 0xf2, 0xea, 0xfe, 0x0d, 0xed, 0x05, 0xf2,
  0xfb, 0xeb, 0x18, 0x24, 0x2a, 0x10, 0x13, 0x1c, 0x0e, 0x0e, 0xf3, 0xf4,
  0x0d, 0xf9, 0x1a, 0x0d, 0xf2, 0xe5, 0x18, 0x1b, 0x1b, 0x0a, 0x13, 0x10,
  0xf8, 0x02, 0xf1, 0xee, 0x14, 0xf3, 0x07, 0xf9, 0xe9, 0xe0, 0x12, 0x08,
  0x28, 0x0c, 0x0b, 0x0e, 0xf9, 0x0f, 0xf8, 0x11, 0x27, 0xfd, 0xeb, 0x13,
  0x00, 0x08, 0x14, 0xfa, 0x05, 0x0b, 0xed, 0x1a, 0xfc, 0x05, 0x1d, 0x08,
  0x29, 0xfe, 0xe1, 0xf6, 0x06, 0xf5, 0x1f, 0x0c, 0x2c, 0xfd, 0x04, 0xfa,
  0xfb, 0x06, 0x05, 0x2a, 0x2a, 0xfa, 0xfb, 0xfc, 0xe8, 0xef, 0x14, 0x16,
  0x42, 0xf1, 0xec, 0x19, 0xfd, 0x21, 0x27, 0x09, 0x1f, 0xf5, 0xec, 0xeb,
  0xf7, 0xdc, 0x17, 0xf2, 0x16, 0x04, 0x02, 0x03, 0x0e, 0x18, 0xff, 0x1c,
  0x25, 0xfd, 0xf2, 0xf3, 0xdc, 0xf6, 0x11, 0xf2, 0x1d, 0x11, 0x12, 0x2a,
  0x17, 0x16, 0xfd, 0xf9, 0x09, 0xec, 0x0a, 0x09, 0xeb, 0x11, 0x19, 0x0f,
  0x1d, 0x09, 0x00, 0x1c, 0x07, 0x19, 0x24, 0x0e, 0x1f, 0xfc, 0xf1, 0xee,
  0xf6, 0xe1, 0x20, 0x02, 0x06, 0x04, 0x16, 0x05, 0x1b, 0x11, 0x0f, 0x11,
  0x0d, 0xf7, 0xf2, 0x00, 0xf8, 0xfc, 0x15, 0x03, 0x26, 0x13, 0x1a, 0x14,
  0x1b, 0xfe, 0x03, 0x08, 0x21, 0xf4, 0x0a, 0xf9, 0xfe, 0xe5, 0x10, 0x03,
  0x2d, 0xf3, 0x00, 0x0f, 0x07, 0x0a, 0x05, 0x0c, 0x22, 0xf7, 0x03, 0xfa,
  0x05, 0x02, 0x1f, 0x0b, 0x12, 0xeb, 0xf2, 0x03, 0xf8, 0x06, 0x07, 0xf6,
  0x25, 0xf2, 0xee, 0xf2, 0xf5, 0x28, 0x2c, 0x26, 0xff, 0xf8, 0xd6, 0xf8,
  0x10, 0x0b, 0x20, 0xd3, 0xf5, 0xb1, 0x06, 0xe1, 0xce, 0xce, 0xc9, 0xc2,
  0xfc, 0x22, 0x1b, 0xf8, 0xfa, 0xf5, 0xff, 0xbd, 0xda, 0xed, 0x14, 0xde,
  0xdf, 0xc8, 0xe4, 0xe1, 0xf6, 0x0b, 0x2a, 0xf9, 0x1e, 0x07, 0x0d, 0xca,
  0xe3, 0xbe, 0x06, 0xe5, 0xd3, 0xcf, 0xef, 0xc6, 0xf5, 0x2a, 0x17, 0x06,
  0x0b, 0xd9, 0x15, 0xe8, 0xcd, 0xd8, 0x16, 0xf4, 0xe3, 0xd6, 0xeb, 0xda,
  0x11, 0x1c, 0x09, 0x0c, 0x02, 0xf1, 0x22, 0xcd, 0xe6, 0xf0, 0xf2, 0x0d,
  0xf7, 0xc9, 0x03, 0xf3, 0x34, 0x23, 0x25, 0x13, 0xdc, 0xf0, 0x09, 0xe7,
  0xf2, 0x14, 0xfd, 0x17, 0xdb, 0xd2, 0xe8, 0xe9, 0x21, 0x15, 0x16, 0x0a,
  0xdc, 0xe4, 0xff, 0xc8, 0xfe, 0x2c, 0xe9, 0x06, 0xd7, 0xe2, 0x05, 0xf5,
  0xf3, 0x14, 0xed, 0x0f, 0xfa, 0xed, 0xf0, 0xf0, 0x0a, 0x2b, 0x19, 0xfe,
  0xcc, 0xda, 0xf9, 0x0c, 0x09, 0x01, 0x04, 0x17, 0xe1, 0x0a, 0x1f, 0xea,
  0x02, 0x27, 0x14, 0xe6, 0xe9, 0xfb, 0x1c, 0xf9, 0x38, 0x11, 0xfe, 0x0f,
  0xe9, 0xf1, 0x1f, 0xde, 0x0a, 0x41, 0x07, 0xd8, 0xe2, 0xfb, 0x10, 0xfb,
  0x4c, 0xf1, 0x06, 0x02, 0xf7, 0x03, 0x2e, 0xf9, 0x0b, 0x5f, 0x17, 0xd8,
  0xcc, 0x12, 0x0e, 0xf2, 0x53, 0xdd, 0xf1, 0xe8, 0xee, 0xf1, 0x00, 0xdc,
  0xed, 0x30, 0x20, 0xea, 0xdc, 0xea, 0x23, 0xf7, 0xfd, 0xe1, 0xf2, 0xeb,
  0x09, 0xf0, 0xff, 0xc5, 0x08, 0x38, 0x09, 0xdf, 0xeb, 0xf1, 0x03, 0xe4,
  0x01, 0x05, 0xd0, 0x02, 0xfc, 0xff, 0x1f, 0xc7, 0x11, 0x37, 0x15, 0xf4,
  0xdb, 0x00, 0x15, 0xfe, 0xf0, 0xf0, 0xfb, 0xf5, 0x0e, 0xf8, 0x03, 0xad,
  0x1c, 0x2c, 0x18, 0x12, 0xd2, 0xf6, 0x17, 0x06, 0x24, 0xe8, 0x01, 0x0b,
  0x13, 0x08, 0x2d, 0xea, 0x22, 0x42, 0x05, 0x17, 0x03, 0x13, 0x0a, 0xfb,
  0x28, 0x01, 0xeb, 0xf5, 0xf8, 0xee, 0x1e, 0xe2, 0x03, 0x2f, 0x06, 0xfe,
  0xd8, 0x09, 0x10, 0xf4, 0x30, 0x0b, 0xf3, 0x05, 0xf5, 0x09, 0x23, 0xfa,
  0x26, 0x1f, 0x19, 0x0c, 0xdb, 0xf9, 0x0f, 0xfe, 0x1c, 0x05, 0x01, 0x08,
  0x03, 0xff, 0xfc, 0xe1, 0x16, 0x25, 0x08, 0xf8, 0xf8, 0xf2, 0x02, 0x0c,
  0x2e, 0xf5, 0xf3, 0xf9, 0x17, 0xdf, 0x1a, 0xd1, 0x0d, 0x4d, 0x1d, 0xf7,
  0xe5, 0xfe, 0x0a, 0x16, 0x0f, 0xe3, 0xf4, 0xf5, 0x0e, 0xe0, 0x1f, 0xcd,
  0x12, 0x3a, 0x28, 0xfd, 0xed, 0xf5, 0x08, 0x15, 0x22, 0xe3, 0xff, 0x04,
  0x0a, 0xdf, 0xf9, 0xca, 0x22, 0x4d, 0x10, 0xeb, 0xdf, 0xf6, 0x15, 0xfa,
  0xf5, 0x00, 0xf4, 0xf7, 0x08, 0xfa, 0x25, 0xd9, 0x12, 0x35, 0x17, 0x06,
  0xed, 0x0b, 0x05, 0x2b, 0x4c, 0xe2, 0xff, 0x0d, 0xeb, 0xfa, 0x15, 0xe3,
  0x09, 0x16, 0xfb, 0x00, 0xf9, 0xfa, 0x1c, 0x14, 0x1d, 0xec, 0xee, 0x10,
  0xf2, 0xe1, 0x12, 0xe1, 0x24, 0x1f, 0xef, 0x10, 0xd5, 0x00, 0x1e, 0xef,
  0x33, 0xe0, 0xeb, 0xf6, 0xf2, 0xf4, 0x1c, 0x01, 0x11, 0x19, 0xf6, 0x0e,
  0xd9, 0x13, 0x18, 0xfa, 0x1e, 0xfc, 0xf3, 0x07, 0xf3, 0x10, 0x1c, 0xf3,
  0x08, 0x32, 0xee, 0x09, 0xd0, 0x03, 0x29, 0x02, 0x45, 0xdf, 0xee, 0x15,
  0xff, 0x17, 0x30, 0xf0, 0x0d, 0x2b, 0xe5, 0x05, 0xea, 0xfd, 0x1f, 0x08,
  0x12, 0xfb, 0xf5, 0x00, 0xf3, 0x04, 0x24, 0xe8, 0x05, 0x2b, 0x08, 0x0c,
  0xf8, 0xe4, 0x02, 0x0b, 0x03, 0xf1, 0xf6, 0xf5, 0x03, 0xe6, 0x00, 0xe2,
  0x01, 0x1c, 0xef, 0x0e, 0xea, 0xf2, 0xf0, 0x21, 0x1a, 0xfa, 0xe7, 0xf3,
  0x03, 0xdd, 0x08, 0xce, 0x16, 0x1f, 0x00, 0x03, 0xf1, 0xe7, 0xff, 0x15,
  0xf5, 0xec, 0xf8, 0xfb, 0x00, 0xd8, 0xf9, 0xca, 0x22, 0x34, 0x0a, 0xf9,
  0xf3, 0xff, 0x15, 0x13, 0x03, 0xe5, 0xf9, 0xf9, 0xe7, 0xe3, 0x3f, 0xce,
  0x15, 0x3f, 0xfa, 0xff, 0x04, 0xf1, 0x1a, 0x0c, 0x23, 0xf1, 0xe5, 0xef,
  0xf5, 0x00, 0x21, 0xeb, 0x1a, 0x21, 0xfd, 0xfd, 0x05, 0x17, 0x0f, 0x0f,
  0x22, 0xe8, 0xfa, 0xf8, 0xfd, 0x17, 0x15, 0xeb, 0x28, 0x0f, 0x07, 0x10,
  0x05, 0x0e, 0x0b, 0x05, 0x02, 0xf9, 0xef, 0x12, 0xe4, 0xfd, 0xff, 0xe1,
  0x23, 0x1c, 0xfc, 0x04, 0xe9, 0xee, 0x0b, 0x05, 0x14, 0xe3, 0xeb, 0xfc,
  0xf7, 0xee, 0x11, 0x05, 0x26, 0x0f, 0xec, 0x0f, 0x06, 0xd5, 0x11, 0xfb,
  0x24, 0xf2, 0xe9, 0x10, 0xf3, 0xef, 0x32, 0x03, 0x35, 0x16, 0xf9, 0xfa,
  0x03, 0xff, 0x09, 0x1b, 0x2b, 0xf1, 0xed, 0x06, 0xf8, 0xfb, 0x2a, 0x03,
  0x1c, 0x24, 0x0c, 0x08, 0xfb, 0x08, 0x16, 0x0d, 0x1f, 0x02, 0xed, 0x04,
  0xf5, 0xed, 0x36, 0x09, 0x18, 0x23, 0xf9, 0x0b, 0x0d, 0x08, 0x24, 0x00,
  0x46, 0xfb, 0xfa, 0x02, 0xf9, 0x00, 0x1a, 0x01, 0x37, 0x32, 0xed, 0xfd,
  0x03, 0x13, 0x12, 0xfe, 0x34, 0x00, 0xf1, 0x08, 0xf3, 0xf9, 0x22, 0xf4,
  0x12, 0x22, 0xed, 0x06, 0xe9, 0x2e, 0x11, 0xf9, 0x0a, 0xef, 0xf2, 0x01,
  0x1c, 0x04, 0x0d, 0xed, 0x03, 0xfa, 0x10, 0xfe, 0xef, 0xfc, 0x0b, 0xe6,
  0x0b, 0x1a, 0x33, 0x23, 0x09, 0xf7, 0xeb, 0xdf, 0xf0, 0x0c, 0x1c, 0xfc,
  0xe0, 0xda, 0xf6, 0x07, 0x18, 0x14, 0x19, 0x14, 0xef, 0x07, 0xe9, 0xf1,
  0xeb, 0xec, 0x23, 0xf5, 0xed, 0x05, 0x02, 0x11, 0x11, 0x1a, 0x16, 0x18,
  0x14, 0xed, 0xf0, 0xeb, 0xf6, 0xfc, 0x28, 0x0e, 0xf2, 0x03, 0x11, 0x03,
  0xe4, 0x1f, 0x1e, 0x22, 0x0d, 0xec, 0xdf, 0xe9, 0xe5, 0xd8, 0x1a, 0xe7,
  0x06, 0x03, 0xfc, 0x12, 0x16, 0xf3, 0x1c, 0x19, 0x01, 0x08, 0xe3, 0xd9,
  0x0e, 0xd3, 0x1a, 0xf4, 0xf5, 0xf8, 0xfc, 0xfb, 0x09, 0xf7, 0x0c, 0xfd,
  0x06, 0xf7, 0xec, 0xe3, 0xfe, 0xea, 0xf7, 0x00, 0xf7, 0x02, 0xfb, 0xfe,
  0xf3, 0x07, 0x02, 0x0b, 0x05, 0xf9, 0xfe, 0xe2, 0x15, 0xe1, 0x1b, 0xdf,
  0xeb, 0x01, 0xee, 0x0c, 0xf9, 0xff, 0x1a, 0x19, 0x05, 0xfe, 0x19, 0xea,
  0xf8, 0xf0, 0xf4, 0xdd, 0xe7, 0x02, 0x12, 0xf6, 0xeb, 0x08, 0x0d, 0x11,
  0x0f, 0xf2, 0xfd, 0xdb, 0x09, 0xe8, 0x11, 0xe4, 0xe8, 0xec, 0x09, 0xe9,
  0x09, 0x01, 0x0e, 0x09, 0x11, 0xe6, 0x0a, 0xd9, 0xff, 0xee, 0xfb, 0xf1,
  0xe9, 0xe4, 0xef, 0xfe, 0xf9, 0x0c, 0x19, 0x07, 0x13, 0x16, 0x0b, 0xde,
  0xf9, 0xc8, 0x0a, 0xf8, 0xe3, 0xe3, 0xed, 0xeb, 0xdd, 0x1f, 0x20, 0xf6,
  0x17, 0x11, 0xfe, 0xf3, 0xf3, 0xde, 0x04, 0x00, 0xfa, 0xf5, 0xe9, 0xf1,
  0xfa, 0x07, 0x06, 0xf1, 0x11, 0x0e, 0x01, 0xef, 0xf1, 0xf4, 0x0e, 0x09,
  0xeb, 0xe1, 0xfe, 0xec, 0xf9, 0x14, 0x17, 0xfb, 0x18, 0x01, 0xfa, 0x06,
  0xea, 0xc4, 0xf6, 0x16, 0xef, 0x00, 0xee, 0xf7, 0xe9, 0x0a, 0x03, 0x0d,
  0x0f, 0x05, 0xfd, 0x0c, 0xf4, 0xb5, 0xf8, 0x12, 0x1b, 0xf4, 0xf1, 0x14,
  0xd9, 0x17, 0x02, 0x00, 0x16, 0x07, 0xf0, 0x13, 0xef, 0xcb, 0xe4, 0x0c,
  0x0d, 0xfc, 0xf7, 0x11, 0xef, 0x09, 0xf9, 0x08, 0x03, 0xf2, 0xd9, 0x1b,
  0xf4, 0xb4, 0xce, 0x18, 0x18, 0x02, 0xf2, 0x06, 0xe9, 0xf6, 0x09, 0xfd,
  0xfc, 0xfa, 0x12, 0x15, 0xea, 0xa5, 0xe3, 0x2a, 0x14, 0x0a, 0x08, 0xee,
  0x0f, 0x08, 0xec, 0xe9, 0xef, 0x05, 0xee, 0x18, 0xf4, 0x9d, 0xba, 0x06,
  0x16, 0xf2, 0xef, 0x0b, 0x02, 0xf7, 0xe9, 0xf1, 0xf8, 0x05, 0x0d, 0x1a,
  0xeb, 0x99, 0xc8, 0xfe, 0x0b, 0x0f, 0xef, 0xe7, 0x0b, 0xee, 0xd3, 0xf2,
  0xfd, 0x0d, 0x12, 0x1c, 0x08, 0xc4, 0xbd, 0x11, 0x0b, 0xe5, 0xff, 0xf2,
  0x2a, 0xdc, 0xe1, 0xdc, 0xf4, 0x17, 0xfd, 0x15, 0x00, 0xb4, 0xc4, 0x1f,
  0x0b, 0xde, 0xff, 0xf6, 0xea, 0xd0, 0xcc, 0xf9, 0xe9, 0x0a, 0x10, 0x19,
  0xf0, 0xc8, 0xcd, 0x0c, 0x02, 0xf1, 0xf1, 0x01, 0x11, 0xe8, 0xcf, 0xe3,
  0xfc, 0x0f, 0x1d, 0x17, 0x05, 0xeb, 0xc9, 0xfb, 0xf7, 0x00, 0x0f, 0xf7,
  0x0b, 0xf6, 0xda, 0xe7, 0xfa, 0x02, 0x10, 0x0f, 0xf0, 0xfc, 0xec, 0xf8,
  0x17, 0x10, 0x0c, 0xf2, 0x09, 0xec, 0xe3, 0xf6, 0x08, 0x07, 0xf6, 0x17,
  0xef, 0xf2, 0xf0, 0x12, 0x12, 0xef, 0x0d, 0x10, 0xec, 0xfc, 0xd1, 0xde,
  0xf5, 0x1a, 0xf8, 0x07, 0xe9, 0x0a, 0x00, 0x0c, 0x18, 0x00, 0x21, 0xfc,
  0x0d, 0xf5, 0xef, 0x02, 0xfd, 0x11, 0x1b, 0x18, 0xe9, 0x03, 0xe5, 0x08,
  0x12, 0x13, 0x11, 0x02, 0xfc, 0x0b, 0xea, 0xf7, 0x08, 0x24, 0xfe, 0x1d,
  0xeb, 0x03, 0x00, 0x0d, 0x0e, 0x18, 0x07, 0xfc, 0x0c, 0xed, 0xf5, 0xef,
  0xe9, 0x06, 0x07, 0x0c, 0xfe, 0x00, 0x0b, 0xfb, 0x01, 0x20, 0x07, 0xe7,
  0x04, 0xfa, 0xe9, 0xef, 0xec, 0xfd, 0x12, 0x07, 0xec, 0x04, 0xf4, 0xf1,
  0x1d, 0xfa, 0xea, 0xf6, 0x07, 0xfa, 0xef, 0xf0, 0xfd, 0xed, 0x23, 0x0a,
  0xed, 0x0a, 0x0c, 0x02, 0x0d, 0x07, 0xec, 0x01, 0x04, 0x07, 0xf4, 0xe2,
  0xff, 0x05, 0xe3, 0x00, 0xe5, 0x11, 0x11, 0xf3, 0xfe, 0xfe, 0xff, 0xf9,
  0xfa, 0x15, 0x10, 0xf6, 0xf8, 0xf8, 0xda, 0xf5, 0xf8, 0x03, 0x1f, 0x10,
  0x11, 0x01, 0x06, 0xff, 0xe0, 0x01, 0x0d, 0xf6, 0xf8, 0x02, 0x07, 0x0f,
  0xe0, 0x19, 0x1d, 0x01, 0xf6, 0x07, 0xee, 0xf8, 0x01, 0xfc, 0xf2, 0xe9,
  0x0b, 0xef, 0xd4, 0xe9, 0xd9, 0x19, 0x23, 0xe1, 0x0f, 0x13, 0xee, 0x05,
  0xf6, 0xf6, 0xfc, 0xfc, 0xff, 0xe7, 0xee, 0xfb, 0xe2, 0x14, 0x02, 0xf7,
  0xfb, 0x2f, 0xec, 0xeb, 0xff, 0x09, 0x01, 0xe5, 0x08, 0xda, 0xd6, 0x01,
  0xef, 0x18, 0x08, 0xf6, 0x08, 0x22, 0xec, 0x0d, 0xec, 0xfd, 0xee, 0xf8,
  0xe8, 0xea, 0xe8, 0xf8, 0xf2, 0x13, 0x09, 0xf4, 0x00, 0x1f, 0xe9, 0x06,
  0xe8, 0xfb, 0xf1, 0xe9, 0xef, 0xe6, 0xe8, 0xf4, 0xd5, 0x32, 0x03, 0x17,
  0xfc, 0x0b, 0xec, 0xfc, 0xef, 0xff, 0xed, 0xe0, 0xeb, 0xd9, 0xdd, 0xe5,
  0xe4, 0x21, 0x1f, 0x15, 0x09, 0x1e, 0xf2, 0xd4, 0xe4, 0xfa, 0xee, 0xed,
  0x13, 0xf3, 0xfd, 0xeb, 0xe4, 0xb3, 0xf7, 0xf6, 0xf9, 0xef, 0x06, 0xf8,
  0xe6, 0x00, 0x1b, 0xf6, 0x0b, 0xf2, 0x1a, 0xe6, 0xd9, 0xcc, 0xe3, 0xf6,
  0x01, 0xdf, 0xe0, 0xf7, 0x1b, 0xf9, 0xf2, 0x00, 0x0d, 0xec, 0x0f, 0xf0,
  0xe8, 0xcd, 0xf6, 0x04, 0xef, 0xda, 0xdb, 0xe9, 0xfa, 0x13, 0x07, 0x04,
  0xfc, 0xf9, 0xfb, 0x05, 0x05, 0xde, 0xd4, 0x05, 0xe8, 0xe6, 0xeb, 0x12,
  0xfa, 0x01, 0x0c, 0xeb, 0xed, 0x0e, 0x02, 0xfb, 0xfe, 0xe9, 0xe5, 0x01,
  0x00, 0xce, 0xf8, 0x03, 0xff, 0xf7, 0x0c, 0x03, 0x12, 0xed, 0x00, 0xf8,
  0xe8, 0x08, 0xfe, 0xf5, 0xef, 0xf2, 0x08, 0x0b, 0x13, 0xef, 0x05, 0x06,
  0xf6, 0xfc, 0x16, 0x09, 0x03, 0x26, 0xf5, 0xed, 0x0e, 0xf7, 0x24, 0xfc,
  0x10, 0x07, 0xf3, 0xfc, 0xf6, 0x13, 0x13, 0xf2, 0xf9, 0x2c, 0xe6, 0x09,
  0xee, 0xf4, 0x06, 0xd3, 0xf8, 0x0c, 0xfa, 0x12, 0x04, 0xf5, 0xf1, 0xf4,
  0xda, 0x1c, 0xef, 0x08, 0xfc, 0xf3, 0xf9, 0xf8, 0xef, 0x09, 0x06, 0x16,
  0xef, 0xe5, 0x01, 0x01, 0xe6, 0x10, 0xb9, 0x0b, 0xe6, 0xfa, 0x04, 0x03,
  0xfd, 0x27, 0xf1, 0x19, 0xd4, 0xf8, 0xf1, 0xfa, 0xf2, 0x03, 0xc6, 0xec,
  0x06, 0xfd, 0xf1, 0xf9, 0xfd, 0x1a, 0x06, 0x19, 0xe0, 0xf4, 0xeb, 0x06,
  0xd9, 0x15, 0xd0, 0xe9, 0x01, 0x20, 0xfe, 0xfa, 0xfa, 0x05, 0xe7, 0xfd,
  0xd5, 0x0c, 0xfc, 0x1f, 0xd1, 0x21, 0xcd, 0x19, 0x04, 0x2c, 0x02, 0x0c,
  0x17, 0x11, 0xe6, 0x09, 0xea, 0xf3, 0xfe, 0x1a, 0xcb, 0x1e, 0xd0, 0x15,
  0x19, 0x03, 0xf5, 0xee, 0xf4, 0xe9, 0xf8, 0x0c, 0xec, 0x07, 0xf3, 0xfa,
  0xb1, 0x22, 0xe0, 0x10, 0x0a, 0x26, 0x07, 0x16, 0xe1, 0x0b, 0xec, 0xf1,
  0x00, 0xee, 0xf3, 0x0d, 0xcd, 0x23, 0xea, 0xf7, 0xfe, 0x2a, 0x07, 0x21,
  0x07, 0xe9, 0xda, 0xf0, 0xf0, 0xf5, 0xe8, 0x05, 0xce, 0x16, 0xdf, 0xee,
  0x11, 0x23, 0x0d, 0x15, 0xf6, 0x05, 0xc9, 0xeb, 0xdd, 0x0d, 0x25, 0x12,
  0xce, 0x29, 0xee, 0xf7, 0x0f, 0xf8, 0xe6, 0x16, 0xf0, 0xe8, 0xd4, 0xf6,
  0xf0, 0x19, 0x16, 0x09, 0xe0, 0x3c, 0xdb, 0x00, 0xfa, 0x02, 0xed, 0x0c,
  0xdf, 0xe4, 0xcf, 0x04, 0xf7, 0x16, 0xe8, 0x0e, 0xd4, 0x26, 0xdf, 0x12,
  0x02, 0x16, 0xea, 0x01, 0xde, 0x0f, 0xdf, 0x03, 0x0c, 0x13, 0xf7, 0x05,
  0xe5, 0x2c, 0xf5, 0x09, 0x16, 0x0d, 0x03, 0xee, 0xfd, 0xf1, 0xf3, 0xeb,
  0xeb, 0x08, 0x1d, 0x1d, 0xe6, 0x39, 0xff, 0x16, 0xf8, 0x0f, 0xf0, 0x06,
  0x0f, 0xea, 0xfa, 0xf6, 0x0c, 0xe9, 0xe7, 0x03, 0xe2, 0x1e, 0xfd, 0x0b,
  0x0b, 0xf5, 0xf6, 0x07, 0x00, 0x01, 0x07, 0xf3, 0x11, 0x0e, 0x19, 0x1c,
  0xde, 0x24, 0x17, 0x20, 0xfd, 0x00, 0x04, 0x0d, 0x02, 0x19, 0xf3, 0x05,
  0x1e, 0x04, 0xff, 0x06, 0xcb, 0x23, 0x18, 0x17, 0x0a, 0xf4, 0x06, 0x07,
  0x02, 0xfd, 0x0e, 0x00, 0x08, 0x07, 0xdd, 0x0d, 0xe0, 0x25, 0x14, 0x1e,
  0x05, 0x03, 0x02, 0x14, 0x09, 0x05, 0x03, 0xfa, 0x1a, 0x2c, 0xf8, 0x32,
  0xed, 0x19, 0x2e, 0x0f, 0x1e, 0xec, 0xff, 0x0b, 0x07, 0xf6, 0xf6, 0x09,
  0x2b, 0x1e, 0x05, 0x17, 0xd6, 0x33, 0x13, 0xf3, 0x10, 0xfe, 0x08, 0x0a,
  0x06, 0xfb, 0x0a, 0x00, 0x1f, 0x0c, 0x15, 0x1a, 0xdf, 0x1f, 0x23, 0x0a,
  0x09, 0xe2, 0xed, 0x15, 0x29, 0xf0, 0xf4, 0xf4, 0x09, 0x11, 0x0d, 0x15,
  0xe4, 0x25, 0x2f, 0x15, 0x17, 0xe7, 0xf6, 0x1c, 0xf6, 0xe2, 0xf2, 0xf3,
  0x26, 0x0a, 0x02, 0x1c, 0xda, 0x29, 0x26, 0x19, 0x0b, 0x00, 0xf5, 0xf5,
  0x09, 0x15, 0x07, 0x02, 0xf9, 0x01, 0x09, 0xfb, 0xcb, 0x20, 0x11, 0x1b,
  0x02, 0x0b, 0xfa, 0x19, 0x00, 0x15, 0xf0, 0xfa, 0x06, 0x06, 0x07, 0x04,
  0xd4, 0x22, 0x19, 0x0c, 0x1a, 0x0e, 0xf1, 0xf8, 0x1a, 0xff, 0xee, 0x08,
  0x04, 0xef, 0x10, 0x00, 0xcf, 0x2d, 0x21, 0x09, 0xf5, 0x06, 0x09, 0x12,
  0x01, 0xe7, 0x04, 0x07, 0x02, 0xfa, 0x19, 0xdd, 0xc0, 0x22, 0x24, 0x17,
  0xe7, 0xdf, 0xe1, 0x05, 0xee, 0xdf, 0xfd, 0xf8, 0xfd, 0x09, 0xec, 0xec,
  0xd6, 0x22, 0x3c, 0x0a, 0x02, 0xfa, 0xf3, 0xf7, 0xfc, 0xd7, 0xd8, 0xfe,
  0x05, 0xe2, 0xf1, 0xfc, 0xd3, 0x1f, 0x22, 0xfc, 0xf3, 0xea, 0xf3, 0x04,
  0xf1, 0xcd, 0xfc, 0x0a, 0x03, 0xfb, 0xf6, 0xee, 0xd7, 0x1c, 0x35, 0x04,
  0x09, 0xf8, 0xf7, 0xfa, 0xfe, 0xee, 0xdb, 0x07, 0x1c, 0xea, 0xdf, 0xfb,
  0xd4, 0x2f, 0x15, 0x0b, 0x02, 0x1b, 0xf6, 0x11, 0xd7, 0xf8, 0x01, 0xf0,
  0xfe, 0xef, 0x03, 0xef, 0xd0, 0x2b, 0x23, 0xf5, 0xf5, 0x23, 0xef, 0x19,
  0x00, 0xe8, 0xe8, 0xfc, 0x09, 0xe6, 0xe9, 0xfb, 0xe6, 0x2f, 0x15, 0xff,
  0xfa, 0x0e, 0xfa, 0x14, 0xfb, 0xdd, 0xf7, 0xf7, 0xf8, 0xeb, 0xd1, 0xd8,
  0xcf, 0x10, 0x17, 0x14, 0xe9, 0x08, 0x09, 0xf2, 0xe7, 0xea, 0x01, 0xf2,
  0xe9, 0x26, 0xde, 0x2d, 0x2b, 0x10, 0xc6, 0xa8, 0x01, 0x4d, 0x42, 0x1b,
  0x0c, 0xea, 0xe7, 0x04, 0xf0, 0x19, 0xc2, 0x25, 0x18, 0x0e, 0xc0, 0xa5,
  0x09, 0x37, 0x3a, 0xfa, 0x22, 0xc8, 0xcf, 0x02, 0xe8, 0x0d, 0xe2, 0x17,
  0x2e, 0x2d, 0xf0, 0xae, 0x14, 0x2e, 0x17, 0xf6, 0x30, 0xe0, 0xd9, 0x05,
  0xe2, 0x0d, 0x00, 0x1d, 0x19, 0x26, 0xe6, 0xbe, 0x12, 0x27, 0x29, 0x03,
  0x09, 0xcc, 0xd3, 0xfa, 0xee, 0xf6, 0x06, 0x1d, 0x03, 0x1b, 0xf1, 0xae,
  0xec, 0x3e, 0x21, 0xf3, 0x03, 0xca, 0xd1, 0xd4, 0xf5, 0xef, 0x01, 0xf4,
  0x2e, 0xda, 0x0c, 0xd0, 0x0b, 0x10, 0x01, 0xd6, 0x0f, 0xc3, 0xf7, 0xf5,
  0x11, 0x06, 0x10, 0x10, 0x14, 0xff, 0x0d, 0xea, 0x09, 0x27, 0x04, 0xf5,
  0xd5, 0xc7, 0xfc, 0xfa, 0x0b, 0xda, 0xf8, 0x02, 0x14, 0x03, 0x2f, 0xfb,
  0x02, 0x04, 0x05, 0xec, 0xd8, 0xdf, 0xfa, 0x03, 0x1a, 0xea, 0xf6, 0x04,
  0x04, 0xfc, 0x2f, 0xef, 0xf7, 0xfb, 0xe0, 0xde, 0xe6, 0xd2, 0x04, 0xf9,
  0x16, 0x03, 0xf7, 0xed, 0xf6, 0xee, 0xef, 0x2b, 0xfb, 0xf5, 0xe5, 0x05,
  0xd4, 0xe7, 0x0d, 0xf1, 0xf8, 0xd6, 0xd3, 0xea, 0x03, 0xd1, 0x16, 0x2e,
  0x01, 0xdf, 0xf7, 0x1a, 0xda, 0x09, 0x2b, 0x22, 0xe1, 0x04, 0xf8, 0xec,
  0x12, 0xeb, 0xf4, 0x35, 0x14, 0xe3, 0xd7, 0x0e, 0xed, 0xdf, 0xfd, 0x21,
  0x00, 0xe4, 0x0a, 0xf9, 0xfa, 0x04, 0xd9, 0x12, 0x20, 0xb8, 0xc4, 0x0b,
  0x06, 0xd2, 0xe0, 0x01, 0xf0, 0xec, 0xe0, 0xfe, 0x09, 0x1d, 0xf5, 0x0c,
  0x14, 0xdd, 0xd6, 0x09, 0xf7, 0xdf, 0x04, 0x1a, 0x01, 0xfb, 0xf0, 0xe0,
  0xf1, 0xdf, 0x0c, 0xf7, 0x0f, 0xb0, 0xd9, 0xf1, 0xe8, 0xcc, 0xd5, 0xfb,
  0xe6, 0x0a, 0xdb, 0xef, 0xdc, 0xd6, 0x07, 0x0a, 0x05, 0xcf, 0xc9, 0x06,
  0xd8, 0xfe, 0x00, 0xfc, 0x01, 0xdd, 0xeb, 0xf3, 0x04, 0xe1, 0xee, 0x10,
  0x19, 0xc6, 0xeb, 0xee, 0xe8, 0x0b, 0x01, 0x14, 0x1a, 0x05, 0xf0, 0xef,
  0x02, 0xc4, 0x1a, 0xf9, 0x02, 0xdb, 0xdc, 0xde, 0xe3, 0x14, 0x21, 0xff,
  0x26, 0xf8, 0x24, 0xfe, 0xf3, 0xa2, 0x0f, 0xfd, 0xfb, 0xfe, 0xde, 0xfc,
  0xf7, 0x15, 0x16, 0xf2, 0x17, 0x0b, 0x00, 0x05, 0x0d, 0xa5, 0xe6, 0xf8,
  0x0d, 0xdd, 0xee, 0xd7, 0x04, 0x07, 0x15, 0x01, 0x14, 0x0a, 0x09, 0xfc,
  0x0e, 0xb9, 0xcb, 0x18, 0x1a, 0xed, 0xe9, 0x19, 0xec, 0x05, 0x06, 0xfd,
  0x10, 0x1c, 0xfb, 0x17, 0xfc, 0xcf, 0xe2, 0x15, 0x3b, 0xcb, 0xe5, 0xfa,
  0xf1, 0xf8, 0x03, 0xf8, 0x21, 0x0e, 0x13, 0x17, 0xfa, 0xdb, 0xcc, 0x1b,
  0x19, 0xe2, 0xce, 0xf1, 0xe3, 0xf0, 0x15, 0xfe, 0xfe, 0xfe, 0x1c, 0x22,
  0x0d, 0xe5, 0xf9, 0x05, 0x16, 0xe2, 0xee, 0x02, 0x09, 0xd7, 0xe2, 0x22,
  0xf6, 0x01, 0x24, 0x16, 0x10, 0xfa, 0xff, 0x18, 0x10, 0xe3, 0xe9, 0xc9,
  0xee, 0xdd, 0xee, 0x1e, 0xf8, 0x0d, 0x28, 0x05, 0x0a, 0xf3, 0x12, 0x1d,
  0x08, 0xe1, 0xbb, 0xe6, 0xfb, 0xfa, 0xe5, 0x1c, 0x12, 0xd9, 0x0e, 0xfa,
  0x23, 0xe2, 0x15, 0x16, 0x0a, 0xc9, 0xb4, 0xe5, 0xfc, 0xef, 0xfc, 0x08,
  0xf6, 0xee, 0x26, 0xdf, 0x06, 0xfe, 0x05, 0x0f, 0xfe, 0xef, 0xd4, 0xe9,
  0xe6, 0xf9, 0x00, 0x0a, 0x07, 0xe4, 0x34, 0xdb, 0x18, 0x05, 0x1b, 0x04,
  0x01, 0x03, 0xe9, 0xfb, 0xf6, 0x0d, 0x3b, 0x19, 0x1d, 0xde, 0x28, 0xd9,
  0x05, 0x11, 0x0a, 0x0c, 0xe8, 0xd9, 0xf9, 0xf4, 0xeb, 0x30, 0x2e, 0x21,
  0xfb, 0xd3, 0x36, 0xce, 0x16, 0xff, 0x1c, 0xf1, 0xf2, 0xdd, 0xe3, 0xd4,
  0xe5, 0x17, 0x40, 0x15, 0x01, 0xe4, 0x3c, 0xc3, 0xfe, 0xf6, 0xfc, 0xeb,
  0xfc, 0xf9, 0xd5, 0x04, 0xdd, 0x3f, 0x4b, 0x18, 0x28, 0xf7, 0xfc, 0xe1,
  0x1d, 0xfa, 0xf1, 0xe7, 0x0f, 0xfa, 0xcd, 0x10, 0xe9, 0x1d, 0x3f, 0x18,
  0x17, 0xf9, 0xfa, 0xdc, 0xff, 0xec, 0x14, 0x12, 0x0f, 0xf1, 0xf1, 0x2b,
  0xe2, 0x10, 0x24, 0x07, 0x10, 0x0a, 0x0d, 0xea, 0xeb, 0x0f, 0xfe, 0xf3,
  0x21, 0xfa, 0xf7, 0x18, 0x1e, 0x1d, 0x2c, 0x0a, 0x01, 0x21, 0x0b, 0x0a,
  0xe2, 0xff, 0xff, 0xfd, 0x1b, 0x02, 0x06, 0x08, 0xfc, 0x0a, 0xfd, 0xf5,
  0x20, 0x06, 0x30, 0x28, 0xfb, 0x0c, 0x07, 0x0b, 0x08, 0xe6, 0xf8, 0x22,
  0xec, 0x08, 0xe6, 0x00, 0xf7, 0x28, 0x0c, 0x13, 0x03, 0x0c, 0x09, 0xf6,
  0x17, 0xea, 0xf7, 0xfc, 0xf3, 0x10, 0xe6, 0x00, 0xfc, 0x22, 0x13, 0x1e,
  0x0a, 0xf8, 0xf7, 0x1c, 0x12, 0xee, 0xe6, 0xea, 0x04, 0xfe, 0xe0, 0xf3,
  0xfe, 0x03, 0x3b, 0x0a, 0xfc, 0xd6, 0xf3, 0x1d, 0xfa, 0xce, 0xe4, 0x0e,
  0x04, 0xfa, 0xf7, 0xf2, 0xf9, 0x21, 0x4e, 0xfc, 0x13, 0xc0, 0xf7, 0x3b,
  0xf9, 0xc1, 0xd9, 0xfa, 0xca, 0xf9, 0xe7, 0xff, 0xfc, 0x14, 0x25, 0x03,
  0x2b, 0xca, 0xf1, 0x0a, 0x0d, 0xbc, 0xd5, 0xfa, 0x13, 0x13, 0x0d, 0xff,
  0x00, 0x00, 0x00, 0x00, 0x3e, 0xfe, 0xff, 0xff, 0x04, 0x00, 0x00, 0x00,
  0x08, 0x00, 0x00, 0x00, 0xff, 0xff, 0xff, 0xff, 0xa0, 0x02, 0x00, 0x00,
  0x00, 0x00, 0x00, 0x00, 0x00, 0x00, 0x00, 0x00, 0x00, 0x00, 0x00, 0x00,
  0x5e, 0xfe, 0xff, 0xff, 0x04, 0x00, 0x00, 0x00, 0x14, 0x00, 0x00, 0x00,
  0x62, 0x30, 0x00, 0xbe, 0x4d, 0x66, 0x16, 0xbf, 0xe6, 0x5d, 0x3b, 0x3f,
  0x3e, 0xb4, 0x59, 0x3d, 0x09, 0xda, 0xaa, 0xbe, 0x7e, 0xfe, 0xff, 0xff,
  0x04, 0x00, 0x00, 0x00, 0x40, 0x00, 0x00, 0x00, 0x84, 0x64, 0x58, 0x3e,
  0x55, 0xfd, 0xe0, 0x3e, 0x11, 0x7e, 0xbb, 0x3e, 0xef, 0x25, 0x64, 0xbe,
  0x37, 0xc1, 0xee, 0xbd, 0x62, 0x8c, 0xfb, 0x3e, 0x13, 0xa5, 0xbe, 0xbd,
  0x80, 0x57, 0xf3, 0x3d, 0xf5, 0x6a, 0xc7, 0x3d, 0xb3, 0xa6, 0x92, 0x3e,
  0x6a, 0x5a, 0xab, 0x3e, 0x9e, 0x1a, 0xfe, 0xbd, 0x31, 0x86, 0x9d, 0xbd,
  0x5e, 0xaf, 0xab, 0x3d, 0x80, 0x75, 0x66, 0xbd, 0xff, 0x97, 0x5f, 0xbd,
  0x00, 0x00, 0x00, 0x00, 0xce, 0xfe, 0xff, 0xff, 0x04, 0x00, 0x00, 0x00,
  0x40, 0x00, 0x00, 0x00, 0x13, 0x15, 0xc2, 0xbe, 0x69, 0xc0, 0xd8, 0xbd,
  0x1f, 0xe6, 0x3d, 0x3c, 0x58, 0xc4, 0x48, 0x3e, 0x45, 0x59, 0x1b, 0xbe,
  0x4d, 0xf4, 0x85, 0x3d, 0x52, 0x2e, 0x8a, 0xbe, 0xf3, 0x0b, 0x05, 0xbe,
  0x56, 0x34, 0xfc, 0xbd, 0xb0, 0x94, 0x45, 0x3e, 0xe9, 0x20, 0xcf, 0xbd,
  0x0f, 0xf3, 0x2a, 0xbe, 0x46, 0x03, 0x99, 0xbe, 0x4c, 0x26, 0x1d, 0xbf,
  0xe3, 0xe6, 0x1e, 0xbf, 0x5f, 0x7f, 0x0d, 0xbe, 0x00, 0x00, 0x00, 0x00,
  0x1e, 0xff, 0xff, 0xff, 0x04, 0x00, 0x00, 0x00, 0x20, 0x00, 0x00, 0x00,
  0xeb, 0x8a, 0x1e, 0xbe, 0x57, 0x25, 0xb6, 0xbe, 0x73, 0xd0, 0x08, 0xbf,
  0x09, 0x52, 0x94, 0x3d, 0x87, 0x62, 0x3d, 0xbe, 0x01, 0xce, 0x64, 0xbd,
  0x20, 0x25, 0x45, 0xbe, 0xb9, 0x50, 0x72, 0xbe, 0x00, 0x00, 0x00, 0x00,
  0x00, 0x00, 0x00, 0x00, 0x00, 0x00, 0x00, 0x00, 0x88, 0xf6, 0xff, 0xff,
  0x00, 0x00, 0x00, 0x00, 0x00, 0x00, 0x00, 0x00, 0x00, 0x00, 0x00, 0x00,
  0x98, 0xf6, 0xff, 0xff, 0x00, 0x00, 0x00, 0x00, 0x00, 0x00, 0x00, 0x00,
  0x0f, 0x00, 0x00, 0x00, 0x4d, 0x4c, 0x49, 0x52, 0x20, 0x43, 0x6f, 0x6e,
  0x76, 0x65, 0x72, 0x74, 0x65, 0x64, 0x2e, 0x00, 0x01, 0x00, 0x00, 0x00,
  0x14, 0x00, 0x00, 0x00, 0x00, 0x00, 0x0e, 0x00, 0x18, 0x00, 0x04, 0x00,
  0x08, 0x00, 0x0c, 0x00, 0x10, 0x00, 0x14, 0x00, 0x0e, 0x00, 0x00, 0x00,
  0x78, 0x02, 0x00, 0x00, 0x6c, 0x02, 0x00, 0x00, 0x60, 0x02, 0x00, 0x00,
  0x14, 0x00, 0x00, 0x00, 0x04, 0x00, 0x00, 0x00, 0x04, 0x00, 0x00, 0x00,
  0x6d, 0x61, 0x69, 0x6e, 0x00, 0x00, 0x00, 0x00, 0x08, 0x00, 0x00, 0x00,
  0xfc, 0x01, 0x00, 0x00, 0x98, 0x01, 0x00, 0x00, 0x48, 0x01, 0x00, 0x00,
  0xf8, 0x00, 0x00, 0x00, 0xd0, 0x00, 0x00, 0x00, 0x88, 0x00, 0x00, 0x00,
  0x40, 0x00, 0x00, 0x00, 0x04, 0x00, 0x00, 0x00, 0x92, 0xfe, 0xff, 0xff,
  0x00, 0x00, 0x00, 0x09, 0x04, 0x00, 0x00, 0x00, 0x24, 0x00, 0x00, 0x00,
  0x18, 0x00, 0x00, 0x00, 0x0c, 0x00, 0x00, 0x00, 0x00, 0x00, 0x06, 0x00,
  0x08, 0x00, 0x04, 0x00, 0x06, 0x00, 0x00, 0x00, 0x00, 0x00, 0x80, 0x3f,
  0x01, 0x00, 0x00, 0x00, 0x11, 0x00, 0x00, 0x00, 0x01, 0x00, 0x00, 0x00,
  0x10, 0x00, 0x00, 0x00, 0xca, 0xff, 0xff, 0xff, 0x00, 0x00, 0x00, 0x08,
  0x03, 0x00, 0x00, 0x00, 0x18, 0x00, 0x00, 0x00, 0x0c, 0x00, 0x00, 0x00,
  0x04, 0x00, 0x00, 0x00, 0x68, 0xf7, 0xff, 0xff, 0x01, 0x00, 0x00, 0x00,
  0x10, 0x00, 0x00, 0x00, 0x03, 0x00, 0x00, 0x00, 0x0f, 0x00, 0x00, 0x00,
  0x07, 0x00, 0x00, 0x00, 0x04, 0x00, 0x00, 0x00, 0x00, 0x00, 0x0e, 0x00,
  0x18, 0x00, 0x08, 0x00, 0x0c, 0x00, 0x10, 0x00, 0x07, 0x00, 0x14, 0x00,
  0x0e, 0x00, 0x00, 0x00, 0x00, 0x00, 0x00, 0x08, 0x03, 0x00, 0x00, 0x00,
  0x1c, 0x00, 0x00, 0x00, 0x10, 0x00, 0x00, 0x00, 0x04, 0x00, 0x00, 0x00,
  0x62, 0xf7, 0xff, 0xff, 0x00, 0x00, 0x00, 0x01, 0x01, 0x00, 0x00, 0x00,
  0x0f, 0x00, 0x00, 0x00, 0x03, 0x00, 0x00, 0x00, 0x0e, 0x00, 0x00, 0x00,
  0x06, 0x00, 0x00, 0x00, 0x03, 0x00, 0x00, 0x00, 0x00, 0x00, 0x0a, 0x00,
  0x10, 0x00, 0x04, 0x00, 0x08, 0x00, 0x0c, 0x00, 0x0a, 0x00, 0x00, 0x00,
  0x02, 0x00, 0x00, 0x00, 0x10, 0x00, 0x00, 0x00, 0x04, 0x00, 0x00, 0x00,
  0x01, 0x00, 0x00, 0x00, 0x0e, 0x00, 0x00, 0x00, 0x02, 0x00, 0x00, 0x00,
  0x0d, 0x00, 0x00, 0x00, 0x05, 0x00, 0x00, 0x00, 0x76, 0xff, 0xff, 0xff,
  0x00, 0x00, 0x00, 0x05, 0x01, 0x00, 0x00, 0x00, 0x38, 0x00, 0x00, 0x00,
  0x2c, 0x00, 0x00, 0x00, 0x14, 0x00, 0x00, 0x00, 0x00, 0x00, 0x0e, 0x00,
  0x14, 0x00, 0x00, 0x00, 0x04, 0x00, 0x08, 0x00, 0x0c, 0x00, 0x10, 0x00,
  0x0e, 0x00, 0x00, 0x00, 0x01, 0x00, 0x00, 0x00, 0x03, 0x00, 0x00, 0x00,
  0x01, 0x00, 0x00, 0x00, 0x03, 0x00, 0x00, 0x00, 0x01, 0x00, 0x00, 0x00,
  0x0d, 0x00, 0x00, 0x00, 0x01, 0x00, 0x00, 0x00, 0x0c, 0x00, 0x00, 0x00,
  0x62, 0xff, 0xff, 0xff, 0x00, 0x00, 0x00, 0x01, 0x24, 0x00, 0x00, 0x00,
  0x18, 0x00, 0x00, 0x00, 0x04, 0x00, 0x00, 0x00, 0x54, 0xff, 0xff, 0xff,
  0x00, 0x00, 0x00, 0x01, 0x01, 0x00, 0x00, 0x00, 0x01, 0x00, 0x00, 0x00,
  0x01, 0x00, 0x00, 0x00, 0x0c, 0x00, 0x00, 0x00, 0x03, 0x00, 0x00, 0x00,
  0x0b, 0x00, 0x00, 0x00, 0x09, 0x00, 0x00, 0x00, 0x02, 0x00, 0x00, 0x00,
  0x00, 0x00, 0x0e, 0x00, 0x1a, 0x00, 0x08, 0x00, 0x0c, 0x00, 0x10, 0x00,
  0x07, 0x00, 0x14, 0x00, 0x0e, 0x00, 0x00, 0x00, 0x00, 0x00, 0x00, 0x05,
  0x01, 0x00, 0x00, 0x00, 0x3c, 0x00, 0x00, 0x00, 0x30, 0x00, 0x00, 0x00,
  0x14, 0x00, 0x00, 0x00, 0x00, 0x00, 0x0e, 0x00, 0x18, 0x00, 0x07, 0x00,
  0x08, 0x00, 0x0c, 0x00, 0x10, 0x00, 0x14, 0x00, 0x0e, 0x00, 0x00, 0x00,
  0x00, 0x00, 0x00, 0x01, 0x03, 0x00, 0x00, 0x00, 0x03, 0x00, 0x00, 0x00,
  0x03, 0x00, 0x00, 0x00, 0x03, 0x00, 0x00, 0x00, 0x01, 0x00, 0x00, 0x00,
  0x0b, 0x00, 0x00, 0x00, 0x01, 0x00, 0x00, 0x00, 0x0a, 0x00, 0x00, 0x00,
  0x00, 0x00, 0x0e, 0x00, 0x14, 0x00, 0x00, 0x00, 0x08, 0x00, 0x0c, 0x00,
  0x07, 0x00, 0x10, 0x00, 0x0e, 0x00, 0x00, 0x00, 0x00, 0x00, 0x00, 0x01,
  0x30, 0x00, 0x00, 0x00, 0x24, 0x00, 0x00, 0x00, 0x10, 0x00, 0x00, 0x00,
  0x0c, 0x00, 0x10, 0x00, 0x00, 0x00, 0x08, 0x00, 0x0c, 0x00, 0x07, 0x00,
  0x0c, 0x00, 0x00, 0x00, 0x00, 0x00, 0x00, 0x01, 0x01, 0x00, 0x00, 0x00,
  0x01, 0x00, 0x00, 0x00, 0x01, 0x00, 0x00, 0x00, 0x0a, 0x00, 0x00, 0x00,
  0x03, 0x00, 0x00, 0x00, 0x00, 0x00, 0x00, 0x00, 0x08, 0x00, 0x00, 0x00,
  0x01, 0x00, 0x00, 0x00, 0x01, 0x00, 0x00, 0x00, 0x11, 0x00, 0x00, 0x00,
  0x01, 0x00, 0x00, 0x00, 0x00, 0x00, 0x00, 0x00, 0x12, 0x00, 0x00, 0x00,
  0x9c, 0x06, 0x00, 0x00, 0x34, 0x06, 0x00, 0x00, 0xdc, 0x05, 0x00, 0x00,
  0x84, 0x05, 0x00, 0x00, 0x2c, 0x05, 0x00, 0x00, 0xe0, 0x04, 0x00, 0x00,
  0x58, 0x04, 0x00, 0x00, 0x0c, 0x04, 0x00, 0x00, 0xb8, 0x03, 0x00, 0x00,
  0x64, 0x03, 0x00, 0x00, 0xac, 0x02, 0x00, 0x00, 0x50, 0x02, 0x00, 0x00,
  0x98, 0x01, 0x00, 0x00, 0x3c, 0x01, 0x00, 0x00, 0xf0, 0x00, 0x00, 0x00,
  0x88, 0x00, 0x00, 0x00, 0x3c, 0x00, 0x00, 0x00, 0x04, 0x00, 0x00, 0x00,
  0xba, 0xf9, 0xff, 0xff, 0x24, 0x00, 0x00, 0x00, 0x12, 0x00, 0x00, 0x00,
  0x0c, 0x00, 0x00, 0x00, 0x04, 0x00, 0x00, 0x00, 0xac, 0xf9, 0xff, 0xff,
  0x08, 0x00, 0x00, 0x00, 0x49, 0x64, 0x65, 0x6e, 0x74, 0x69, 0x74, 0x79,
  0x00, 0x00, 0x00, 0x00, 0x02, 0x00, 0x00, 0x00, 0x01, 0x00, 0x00, 0x00,
  0x05, 0x00, 0x00, 0x00, 0xee, 0xf9, 0xff, 0xff, 0x38, 0x00, 0x00, 0x00,
  0x11, 0x00, 0x00, 0x00, 0x0c, 0x00, 0x00, 0x00, 0x04, 0x00, 0x00, 0x00,
  0xe0, 0xf9, 0xff, 0xff, 0x1d, 0x00, 0x00, 0x00, 0x73, 0x65, 0x71, 0x75,
  0x65, 0x6e, 0x74, 0x69, 0x61, 0x6c, 0x5f, 0x36, 0x2f, 0x64, 0x65, 0x6e,
  0x73, 0x65, 0x5f, 0x31, 0x31, 0x2f, 0x42, 0x69, 0x61, 0x73, 0x41, 0x64,
  0x64, 0x00, 0x00, 0x00, 0x02, 0x00, 0x00, 0x00, 0x01, 0x00, 0x00, 0x00,
  0x05, 0x00, 0x00, 0x00, 0x36, 0xfa, 0xff, 0xff, 0x54, 0x00, 0x00, 0x00,
  0x10, 0x00, 0x00, 0x00, 0x0c, 0x00, 0x00, 0x00, 0x04, 0x00, 0x00, 0x00,
  0x28, 0xfa, 0xff, 0xff, 0x38, 0x00, 0x00, 0x00, 0x73, 0x65, 0x71, 0x75,
  0x65, 0x6e, 0x74, 0x69, 0x61, 0x6c, 0x5f, 0x36, 0x2f, 0x64, 0x65, 0x6e,
  0x73, 0x65, 0x5f, 0x31, 0x30, 0x2f, 0x52, 0x65, 0x6c, 0x75, 0x3b, 0x73,
  0x65, 0x71, 0x75, 0x65, 0x6e, 0x74, 0x69, 0x61, 0x6c, 0x5f, 0x36, 0x2f,
  0x64, 0x65, 0x6e, 0x73, 0x65, 0x5f, 0x31, 0x30, 0x2f, 0x42, 0x69, 0x61,
  0x73, 0x41, 0x64, 0x64, 0x00, 0x00, 0x00, 0x00, 0x02, 0x00, 0x00, 0x00,
  0x01, 0x00, 0x00, 0x00, 0x10, 0x00, 0x00, 0x00, 0x9a, 0xfa, 0xff, 0xff,
  0x38, 0x00, 0x00, 0x00, 0x0f, 0x00, 0x00, 0x00, 0x0c, 0x00, 0x00, 0x00,
  0x04, 0x00, 0x00, 0x00, 0x8c, 0xfa, 0xff, 0xff, 0x1e, 0x00, 0x00, 0x00,
  0x73, 0x65, 0x71, 0x75, 0x65, 0x6e, 0x74, 0x69, 0x61, 0x6c, 0x5f, 0x36,
  0x2f, 0x66, 0x6c, 0x61, 0x74, 0x74, 0x65, 0x6e, 0x5f, 0x34, 0x2f, 0x52,
  0x65, 0x73, 0x68, 0x61, 0x70, 0x65, 0x00, 0x00, 0x02, 0x00, 0x00, 0x00,
  0x01, 0x00, 0x00, 0x00, 0xa0, 0x02, 0x00, 0x00, 0xe2, 0xfa, 0xff, 0xff,
  0x40, 0x00, 0x00, 0x00, 0x0e, 0x00, 0x00, 0x00, 0x0c, 0x00, 0x00, 0x00,
  0x04, 0x00, 0x00, 0x00, 0xd4, 0xfa, 0xff, 0xff, 0x24, 0x00, 0x00, 0x00,
  0x73, 0x65, 0x71, 0x75, 0x65, 0x6e, 0x74, 0x69, 0x61, 0x6c, 0x5f, 0x36,
  0x2f, 0x6d, 0x61, 0x78, 0x5f, 0x70, 0x6f, 0x6f, 0x6c, 0x69, 0x6e, 0x67,
  0x32, 0x64, 0x5f, 0x39, 0x2f, 0x4d, 0x61, 0x78, 0x50, 0x6f, 0x6f, 0x6c,
  0x00, 0x00, 0x00, 0x00, 0x04, 0x00, 0x00, 0x00, 0x01, 0x00, 0x00, 0x00,
  0x2a, 0x00, 0x00, 0x00, 0x01, 0x00, 0x00, 0x00, 0x10, 0x00, 0x00, 0x00,
  0x3a, 0xfb, 0xff, 0xff, 0x9c, 0x00, 0x00, 0x00, 0x0d, 0x00, 0x00, 0x00,
  0x0c, 0x00, 0x00, 0x00, 0x04, 0x00, 0x00, 0x00, 0x2c, 0xfb, 0xff, 0xff,
  0x82, 0x00, 0x00, 0x00, 0x73, 0x65, 0x71, 0x75, 0x65, 0x6e, 0x74, 0x69,
  0x61, 0x6c, 0x5f, 0x36, 0x2f, 0x63, 0x6f, 0x6e, 0x76, 0x32, 0x64, 0x5f,
  0x39, 0x2f, 0x52, 0x65, 0x6c, 0x75, 0x3b, 0x73, 0x65, 0x71, 0x75, 0x65,
  0x6e, 0x74, 0x69, 0x61, 0x6c, 0x5f, 0x36, 0x2f, 0x63, 0x6f, 0x6e, 0x76,
  0x32, 0x64, 0x5f, 0x39, 0x2f, 0x42, 0x69, 0x61, 0x73, 0x41, 0x64, 0x64,
  0x3b, 0x73, 0x65, 0x71, 0x75, 0x65, 0x6e, 0x74, 0x69, 0x61, 0x6c, 0x5f,
  0x36, 0x2f, 0x63, 0x6f, 0x6e, 0x76, 0x32, 0x64, 0x5f, 0x39, 0x2f, 0x43,
  0x6f, 0x6e, 0x76, 0x32, 0x44, 0x3b, 0x73, 0x65, 0x71, 0x75, 0x65, 0x6e,
  0x74, 0x69, 0x61, 0x6c, 0x5f, 0x36, 0x2f, 0x63, 0x6f, 0x6e, 0x76, 0x32,
  0x64, 0x5f, 0x39, 0x2f, 0x42, 0x69, 0x61, 0x73, 0x41, 0x64, 0x64, 0x2f,
  0x52, 0x65, 0x61, 0x64, 0x56, 0x61, 0x72, 0x69, 0x61, 0x62, 0x6c, 0x65,
  0x4f, 0x70, 0x00, 0x00, 0x04, 0x00, 0x00, 0x00, 0x01, 0x00, 0x00, 0x00,
  0x7e, 0x00, 0x00, 0x00, 0x01, 0x00, 0x00, 0x00, 0x10, 0x00, 0x00, 0x00,
  0xee, 0xfb, 0xff, 0xff, 0x40, 0x00, 0x00, 0x00, 0x0c, 0x00, 0x00, 0x00,
  0x0c, 0x00, 0x00, 0x00, 0x04, 0x00, 0x00, 0x00, 0xe0, 0xfb, 0xff, 0xff,
  0x24, 0x00, 0x00, 0x00, 0x73, 0x65, 0x71, 0x75, 0x65, 0x6e, 0x74, 0x69,
  0x61, 0x6c, 0x5f, 0x36, 0x2f, 0x6d, 0x61, 0x78, 0x5f, 0x70, 0x6f, 0x6f,
  0x6c, 0x69, 0x6e, 0x67, 0x32, 0x64, 0x5f, 0x38, 0x2f, 0x4d, 0x61, 0x78,
  0x50, 0x6f, 0x6f, 0x6c, 0x00, 0x00, 0x00, 0x00, 0x04, 0x00, 0x00, 0x00,
  0x01, 0x00, 0x00, 0x00, 0x7e, 0x00, 0x00, 0x00, 0x01, 0x00, 0x00, 0x00,
  0x08, 0x00, 0x00, 0x00, 0x46, 0xfc, 0xff, 0xff, 0x9c, 0x00, 0x00, 0x00,
  0x0b, 0x00, 0x00, 0x00, 0x0c, 0x00, 0x00, 0x00, 0x04, 0x00, 0x00, 0x00,
  0x38, 0xfc, 0xff, 0xff, 0x82, 0x00, 0x00, 0x00, 0x73, 0x65, 0x71, 0x75,
  0x65, 0x6e, 0x74, 0x69, 0x61, 0x6c, 0x5f, 0x36, 0x2f, 0x63, 0x6f, 0x6e,
  0x76, 0x32, 0x64, 0x5f, 0x38, 0x2f, 0x52, 0x65, 0x6c, 0x75, 0x3b, 0x73,
  0x65, 0x71, 0x75, 0x65, 0x6e, 0x74, 0x69, 0x61, 0x6c, 0x5f, 0x36, 0x2f,
  0x63, 0x6f, 0x6e, 0x76, 0x32, 0x64, 0x5f, 0x38, 0x2f, 0x42, 0x69, 0x61,
  0x73, 0x41, 0x64, 0x64, 0x3b, 0x73, 0x65, 0x71, 0x75, 0x65, 0x6e, 0x74,
  0x69, 0x61, 0x6c, 0x5f, 0x36, 0x2f, 0x63, 0x6f, 0x6e, 0x76, 0x32, 0x64,
  0x5f, 0x38, 0x2f, 0x43, 0x6f, 0x6e, 0x76, 0x32, 0x44, 0x3b, 0x73, 0x65,
  0x71, 0x75, 0x65, 0x6e, 0x74, 0x69, 0x61, 0x6c, 0x5f, 0x36, 0x2f, 0x63,
  0x6f, 0x6e, 0x76, 0x32, 0x64, 0x5f, 0x38, 0x2f, 0x42, 0x69, 0x61, 0x73,
  0x41, 0x64, 0x64, 0x2f, 0x52, 0x65, 0x61, 0x64, 0x56, 0x61, 0x72, 0x69,
  0x61, 0x62, 0x6c, 0x65, 0x4f, 0x70, 0x00, 0x00, 0x04, 0x00, 0x00, 0x00,
  0x01, 0x00, 0x00, 0x00, 0x7c, 0x01, 0x00, 0x00, 0x03, 0x00, 0x00, 0x00,
  0x08, 0x00, 0x00, 0x00, 0xfa, 0xfc, 0xff, 0xff, 0x38, 0x00, 0x00, 0x00,
  0x0a, 0x00, 0x00, 0x00, 0x0c, 0x00, 0x00, 0x00, 0x04, 0x00, 0x00, 0x00,
  0xec, 0xfc, 0xff, 0xff, 0x1c, 0x00, 0x00, 0x00, 0x73, 0x65, 0x71, 0x75,
  0x65, 0x6e, 0x74, 0x69, 0x61, 0x6c, 0x5f, 0x36, 0x2f, 0x63, 0x6f, 0x6e,
  0x76, 0x32, 0x64, 0x5f, 0x39, 0x2f, 0x43, 0x6f, 0x6e, 0x76, 0x32, 0x44,
  0x00, 0x00, 0x00, 0x00, 0x04, 0x00, 0x00, 0x00, 0x10, 0x00, 0x00, 0x00,
  0x04, 0x00, 0x00, 0x00, 0x01, 0x00, 0x00, 0x00, 0x08, 0x00, 0x00, 0x00,
  0x4a, 0xfd, 0xff, 0xff, 0x38, 0x00, 0x00, 0x00, 0x09, 0x00, 0x00, 0x00,
  0x0c, 0x00, 0x00, 0x00, 0x04, 0x00, 0x00, 0x00, 0x3c, 0xfd, 0xff, 0xff,
  0x1c, 0x00, 0x00, 0x00, 0x73, 0x65, 0x71, 0x75, 0x65, 0x6e, 0x74, 0x69,
  0x61, 0x6c, 0x5f, 0x36, 0x2f, 0x63, 0x6f, 0x6e, 0x76, 0x32, 0x64, 0x5f,
  0x38, 0x2f, 0x43, 0x6f, 0x6e, 0x76, 0x32, 0x44, 0x00, 0x00, 0x00, 0x00,
  0x04, 0x00, 0x00, 0x00, 0x08, 0x00, 0x00, 0x00, 0x04, 0x00, 0x00, 0x00,
  0x03, 0x00, 0x00, 0x00, 0x01, 0x00, 0x00, 0x00, 0x9a, 0xfd, 0xff, 0xff,
  0x38, 0x00, 0x00, 0x00, 0x08, 0x00, 0x00, 0x00, 0x0c, 0x00, 0x00, 0x00,
  0x04, 0x00, 0x00, 0x00, 0x8c, 0xfd, 0xff, 0xff, 0x1c, 0x00, 0x00, 0x00,
  0x73, 0x65, 0x71, 0x75, 0x65, 0x6e, 0x74, 0x69, 0x61, 0x6c, 0x5f, 0x36,
  0x2f, 0x64, 0x65, 0x6e, 0x73, 0x65, 0x5f, 0x31, 0x31, 0x2f, 0x4d, 0x61,
  0x74, 0x4d, 0x75, 0x6c, 0x00, 0x00, 0x00, 0x00, 0x02, 0x00, 0x00, 0x00,
  0x05, 0x00, 0x00, 0x00, 0x10, 0x00, 0x00, 0x00, 0x8a, 0xff, 0xff, 0xff,
  0x00, 0x00, 0x00, 0x09, 0x60, 0x00, 0x00, 0x00, 0x07, 0x00, 0x00, 0x00,
  0x34, 0x00, 0x00, 0x00, 0x10, 0x00, 0x00, 0x00, 0x0c, 0x00, 0x0c, 0x00,
  0x00, 0x00, 0x00, 0x00, 0x04, 0x00, 0x08, 0x00, 0x0c, 0x00, 0x00, 0x00,
  0x14, 0x00, 0x00, 0x00, 0x04, 0x00, 0x00, 0x00, 0x01, 0x00, 0x00, 0x00,
  0x00, 0x00, 0x00, 0x00, 0x00, 0x00, 0x00, 0x00, 0x01, 0x00, 0x00, 0x00,
  0x32, 0xed, 0x78, 0x3b, 0x1c, 0x00, 0x00, 0x00, 0x73, 0x65, 0x71, 0x75,
  0x65, 0x6e, 0x74, 0x69, 0x61, 0x6c, 0x5f, 0x36, 0x2f, 0x64, 0x65, 0x6e,
  0x73, 0x65, 0x5f, 0x31, 0x30, 0x2f, 0x4d, 0x61, 0x74, 0x4d, 0x75, 0x6c,
  0x00, 0x00, 0x00, 0x00, 0x02, 0x00, 0x00, 0x00, 0x10, 0x00, 0x00, 0x00,
  0xa0, 0x02, 0x00, 0x00, 0x00, 0x00, 0x0e, 0x00, 0x18, 0x00, 0x08, 0x00,
  0x07, 0x00, 0x0c, 0x00, 0x10, 0x00, 0x14, 0x00, 0x0e, 0x00, 0x00, 0x00,
  0x00, 0x00, 0x00, 0x02, 0x38, 0x00, 0x00, 0x00, 0x06, 0x00, 0x00, 0x00,
