unsigned char cnn_model_quantized_tflite[] = {
  0x20, 0x00, 0x00, 0x00, 0x54, 0x46, 0x4c, 0x33, 0x00, 0x00, 0x00, 0x00,
  0x00, 0x00, 0x12, 0x00, 0x1c, 0x00, 0x04, 0x00, 0x08, 0x00, 0x0c, 0x00,
  0x10, 0x00, 0x14, 0x00, 0x00, 0x00, 0x18, 0x00, 0x12, 0x00, 0x00, 0x00,
  0x03, 0x00, 0x00, 0x00, 0x8c, 0x6b, 0x00, 0x00, 0x38, 0x62, 0x00, 0x00,
  0x20, 0x62, 0x00, 0x00, 0x3c, 0x00, 0x00, 0x00, 0x04, 0x00, 0x00, 0x00,
  0x01, 0x00, 0x00, 0x00, 0x0c, 0x00, 0x00, 0x00, 0x08, 0x00, 0x0c, 0x00,
  0x04, 0x00, 0x08, 0x00, 0x08, 0x00, 0x00, 0x00, 0x08, 0x00, 0x00, 0x00,
  0x13, 0x00, 0x00, 0x00, 0x13, 0x00, 0x00, 0x00, 0x6d, 0x69, 0x6e, 0x5f,
  0x72, 0x75, 0x6e, 0x74, 0x69, 0x6d, 0x65, 0x5f, 0x76, 0x65, 0x72, 0x73,
  0x69, 0x6f, 0x6e, 0x00, 0x14, 0x00, 0x00, 0x00, 0xd8, 0x61, 0x00, 0x00,
  0xc4, 0x61, 0x00, 0x00, 0x88, 0x61, 0x00, 0x00, 0x34, 0x61, 0x00, 0x00,
  0xe0, 0x60, 0x00, 0x00, 0xbc, 0x60, 0x00, 0x00, 0x98, 0x60, 0x00, 0x00,
  0x84, 0x0b, 0x00, 0x00, 0x70, 0x0a, 0x00, 0x00, 0xdc, 0x08, 0x00, 0x00,
  0xc8, 0x00, 0x00, 0x00, 0xbc, 0x00, 0x00, 0x00, 0xa8, 0x00, 0x00, 0x00,
  0x94, 0x00, 0x00, 0x00, 0x80, 0x00, 0x00, 0x00, 0x6c, 0x00, 0x00, 0x00,
  0x58, 0x00, 0x00, 0x00, 0x44, 0x00, 0x00, 0x00, 0x30, 0x00, 0x00, 0x00,
  0x04, 0x00, 0x00, 0x00, 0xe6, 0x9d, 0xff, 0xff, 0x04, 0x00, 0x00, 0x00,
  0x10, 0x00, 0x00, 0x00, 0x31, 0x2e, 0x35, 0x2e, 0x30, 0x00, 0x00, 0x00,
  0x00, 0x00, 0x00, 0x00, 0x00, 0x00, 0x00, 0x00, 0x00, 0x00, 0x00, 0x00,
  0x00, 0x00, 0x00, 0x00, 0x00, 0x00, 0x00, 0x00, 0x68, 0x95, 0xff, 0xff,
  0x00, 0x00, 0x00, 0x00, 0x00, 0x00, 0x00, 0x00, 0x00, 0x00, 0x00, 0x00,
  0x78, 0x95, 0xff, 0xff, 0x00, 0x00, 0x00, 0x00, 0x00, 0x00, 0x00, 0x00,
  0x00, 0x00, 0x00, 0x00, 0x88, 0x95, 0xff, 0xff, 0x00, 0x00, 0x00, 0x00,
  0x00, 0x00, 0x00, 0x00, 0x00, 0x00, 0x00, 0x00, 0x98, 0x95, 0xff, 0xff,
  0x00, 0x00, 0x00, 0x00, 0x00, 0x00, 0x00, 0x00, 0x00, 0x00, 0x00, 0x00,
  0xa8, 0x95, 0xff, 0xff, 0x00, 0x00, 0x00, 0x00, 0x00, 0x00, 0x00, 0x00,
  0x00, 0x00, 0x00, 0x00, 0xb8, 0x95, 0xff, 0xff, 0x00, 0x00, 0x00, 0x00,
  0x00, 0x00, 0x00, 0x00, 0x00, 0x00, 0x00, 0x00, 0xc8, 0x95, 0xff, 0xff,
  0x00, 0x00, 0x00, 0x00, 0x00, 0x00, 0x00, 0x00, 0x00, 0x00, 0x00, 0x00,
  0xd8, 0x95, 0xff, 0xff, 0x00, 0x00, 0x00, 0x00, 0x86, 0x9e, 0xff, 0xff,
  0x04, 0x00, 0x00, 0x00, 0x00, 0x08, 0x00, 0x00, 0x52, 0x49, 0x16, 0x3e,
  0xb1, 0x41, 0xf0, 0xbd, 0xc9, 0x97, 0xf7, 0x3c, 0xb5, 0xf8, 0x25, 0x3e,
  0xcc, 0xcf, 0x2a, 0xbe, 0x9b, 0xa1, 0x8d, 0x3e, 0x01, 0xfd, 0x3b, 0xbe,
  0x73, 0xb3, 0xf2, 0x3d, 0x70, 0x4e, 0xeb, 0x3d, 0xe2, 0x52, 0x32, 0x3b,
  0x52, 0xea, 0x52, 0xbd, 0x8e, 0x15, 0x67, 0x3e, 0x46, 0xa4, 0x80, 0xbe,
  0xd5, 0xd7, 0xda, 0x3e, 0x16, 0xe9, 0x7d, 0xbe, 0x6a, 0x36, 0x3a, 0x3e,
  0x03, 0x88, 0x12, 0x3e, 0x9c, 0xc0, 0xd7, 0xbd, 0xd4, 0x61, 0x44, 0xbd,
  0x8e, 0x88, 0x29, 0x3d, 0x43, 0x20, 0x84, 0xbe, 0xb2, 0x21, 0x6b, 0xbd,
  0x2c, 0x31, 0x72, 0xbe, 0xec, 0xe3, 0x77, 0x3c, 0x58, 0xfb, 0x4c, 0x3d,
  0x16, 0xa3, 0xe1, 0xbd, 0x93, 0x96, 0x4c, 0xbd, 0xa3, 0xc0, 0x8d, 0x3d,
  0xec, 0xc3, 0x8a, 0xbe, 0x92, 0x50, 0x9e, 0x3e, 0x38, 0xbe, 0x5e, 0xbe,
  0x62, 0xeb, 0x22, 0xbe, 0xc2, 0x69, 0x74, 0x3e, 0xd3, 0x75, 0x5f, 0x3c,
  0x9f, 0x52, 0x50, 0xbd, 0xe3, 0x44, 0xd2, 0x3e, 0x14, 0x4d, 0xaf, 0xbb,
  0x22, 0xce, 0x4c, 0xbe, 0x7e, 0x9b, 0x3d, 0x3d, 0xb4, 0x94, 0x26, 0xbe,
  0x87, 0x36, 0x82, 0x3e, 0x1d, 0xbc, 0x92, 0xbd, 0xd0, 0xfe, 0x6a, 0xbd,
  0xf8, 0x80, 0xfb, 0x3e, 0xae, 0x9e, 0x33, 0x3e, 0x84, 0xd1, 0x61, 0xbe,
  0x2d, 0xae, 0x0c, 0xbe, 0x9f, 0xf2, 0xd1, 0xbd, 0x30, 0x82, 0xaa, 0xbd,
  0xb2, 0x4d, 0xa5, 0x3d, 0x22, 0xb6, 0x23, 0x3d, 0x53, 0xe1, 0xb7, 0x3d,
  0xae, 0xeb, 0x0d, 0xbf, 0xa1, 0x0b, 0xa4, 0xbe, 0x68, 0x45, 0xb7, 0xbb,
  0xac, 0x07, 0x15, 0xbe, 0xfd, 0x9f, 0x80, 0x3e, 0xcb, 0x1f, 0x09, 0xbe,
  0x63, 0xd7, 0x63, 0xbc, 0x16, 0x6f, 0x92, 0x3d, 0x6f, 0x79, 0x23, 0xbf,
  0x3e, 0xda, 0x93, 0xbe, 0x4c, 0x2b, 0x12, 0xbe, 0x0f, 0x10, 0x6a, 0xbe,
  0xb8, 0xc5, 0xae, 0xbe, 0x0b, 0x98, 0x85, 0x3d, 0xa3, 0x73, 0x40, 0xbe,
  0x14, 0x6f, 0x73, 0x3d, 0x09, 0x56, 0x9a, 0x3e, 0x1a, 0x5d, 0x5c, 0xbe,
  0xae, 0x64, 0x6f, 0x3e, 0xc1, 0x9f, 0xc2, 0xbd, 0x91, 0xb7, 0x8c, 0xbe,
  0xac, 0xc3, 0x55, 0x3e, 0x0a, 0x6f, 0x62, 0xbe, 0x92, 0x47, 0x98, 0x3e,
  0x06, 0x23, 0x91, 0x3b, 0x74, 0x88, 0x84, 0xbe, 0x29, 0x3c, 0x0d, 0x3e,
  0x47, 0x57, 0xde, 0xbd, 0x9f, 0x4a, 0xcd, 0xbe, 0xdc, 0x35, 0xe1, 0xbc,
  0x28, 0x77, 0x86, 0xbe, 0x99, 0xe9, 0xf6, 0x3d, 0x4c, 0xa5, 0x41, 0x3e,
  0xe5, 0x58, 0x7d, 0xbe, 0xfd, 0xbf, 0x11, 0xbd, 0x72, 0x1c, 0xce, 0xbd,
  0x37, 0x3c, 0x8e, 0xbd, 0xb7, 0x54, 0x9e, 0x3d, 0x45, 0x49, 0x27, 0xbe,
  0xd3, 0x37, 0x79, 0x3d, 0x12, 0x81, 0xae, 0xbd, 0x7d, 0x67, 0x69, 0xbe,
  0x1b, 0x97, 0x9f, 0xbd, 0x59, 0x7a, 0x78, 0xbc, 0xcd, 0x9d, 0x60, 0x3e,
  0xe3, 0xcf, 0x76, 0x3d, 0xb0, 0xa5, 0x27, 0xbf, 0xa9, 0xe5, 0x37, 0xbe,
  0x9c, 0x0e, 0x79, 0x3e, 0x18, 0xc8, 0x82, 0x3d, 0x91, 0xff, 0xd6, 0xbe,
  0x98, 0xbb, 0x69, 0x3e, 0x09, 0xd3, 0x93, 0x3e, 0x64, 0xcc, 0xca, 0xbd,
  0x58, 0xd6, 0x23, 0xbf, 0x64, 0xd0, 0x2c, 0xbe, 0xc2, 0xb9, 0x89, 0xbc,
  0x31, 0x9b, 0xd5, 0xbb, 0x29, 0x4b, 0xc6, 0xbe, 0x99, 0x38, 0x04, 0x3f,
  0xc1, 0x82, 0x98, 0x3d, 0x75, 0x00, 0xdd, 0xbd, 0xee, 0x78, 0x26, 0xbf,
  0xbc, 0x9f, 0x27, 0xbe, 0x5d, 0x43, 0xd5, 0xbc, 0x75, 0x9e, 0xb4, 0xbd,
  0xd5, 0x16, 0x2e, 0xbe, 0x71, 0x0e, 0xac, 0x3d, 0x80, 0xb9, 0x03, 0x3e,
  0x0b, 0x45, 0xe9, 0xbd, 0xf8, 0xdb, 0x01, 0xbf, 0x99, 0x23, 0x11, 0xbd,
  0x11, 0xd7, 0x33, 0xbd, 0xb5, 0x4c, 0x30, 0xbe, 0x1b, 0xb7, 0x38, 0xbe,
  0xa8, 0x4e, 0x42, 0x3d, 0xf1, 0xc7, 0x9b, 0x3e, 0x3e, 0x24, 0x19, 0xbe,
  0x59, 0x3c, 0x2f, 0xbf, 0xf8, 0x6a, 0xd1, 0xbc, 0xd0, 0x44, 0x72, 0xbd,
  0xf5, 0xe6, 0x14, 0xbe, 0xe6, 0x37, 0x1a, 0xbf, 0x0e, 0x5d, 0x91, 0x3d,
  0xed, 0x41, 0x2d, 0x3f, 0xff, 0xfd, 0x2c, 0xbe, 0x56, 0xc8, 0x62, 0xbf,
  0x0a, 0x78, 0x3e, 0xbb, 0x8d, 0xb6, 0x1e, 0x3e, 0x9d, 0x89, 0x32, 0x3d,
  0xa0, 0x9f, 0x0a, 0xbf, 0x7f, 0xf5, 0x49, 0xbd, 0xe9, 0xd3, 0x2f, 0x3f,
  0x6f, 0x39, 0xf0, 0x3d, 0xda, 0x2c, 0x53, 0xbf, 0xd1, 0xd7, 0x3b, 0xbd,
  0x6c, 0x68, 0x15, 0x3e, 0x80, 0xf8, 0x95, 0xbd, 0xd7, 0xa3, 0x17, 0xbf,
  0x80, 0x9b, 0x18, 0x3e, 0xc7, 0xd2, 0xcb, 0x3e, 0x3d, 0x82, 0x15, 0xbe,
  0x75, 0x8f, 0x2b, 0xbf, 0xf5, 0xac, 0x5c, 0xbd, 0x9c, 0x29, 0x78, 0xbd,
  0xba, 0x27, 0x33, 0xbd, 0x14, 0x1f, 0xa1, 0xbe, 0x2a, 0xbf, 0xcc, 0x3e,
  0xbe, 0x52, 0xf7, 0x3d, 0x61, 0x1c, 0xed, 0xbe, 0x3a, 0xfd, 0x0f, 0xbd,
  0xb2, 0x6f, 0x34, 0xbe, 0x31, 0x54, 0x34, 0xbe, 0xdd, 0xe9, 0xd9, 0x3e,
  0xd5, 0x9c, 0x71, 0x3c, 0x40, 0x46, 0x38, 0xbe, 0xca, 0xb3, 0xf1, 0x3c,
  0xa9, 0x9f, 0xdd, 0xbe, 0xe6, 0xce, 0x58, 0xbd, 0xe4, 0xa8, 0xaa, 0xbd,
  0x71, 0xc1, 0x32, 0xbe, 0x18, 0x79, 0xf0, 0x3e, 0x01, 0xd5, 0x3a, 0xbd,
  0xa7, 0x0b, 0x90, 0xbe, 0x18, 0xec, 0x48, 0x3e, 0xc9, 0x25, 0x9a, 0xbe,
  0x96, 0xa6, 0x01, 0x3d, 0xe0, 0xc3, 0xe0, 0xbc, 0x27, 0xa6, 0x23, 0xbe,
  0xd3, 0xac, 0xe8, 0x3e, 0x20, 0x22, 0x4d, 0x3e, 0x8a, 0xcb, 0x8e, 0xbe,
  0xc6, 0x36, 0xef, 0x3d, 0xed, 0xbb, 0xd8, 0xbe, 0x65, 0x04, 0x00, 0xbe,
  0xeb, 0x9c, 0xe5, 0x3d, 0xc0, 0x89, 0x77, 0xbe, 0x30, 0x0c, 0x91, 0x3c,
  0x5a, 0x4f, 0xb0, 0xbc, 0x32, 0x8e, 0x46, 0xbe, 0x94, 0xd1, 0x63, 0x3e,
  0xb5, 0x27, 0x97, 0x3e, 0x6d, 0x5e, 0x21, 0xbc, 0x23, 0x13, 0x52, 0xbd,
  0x04, 0xaf, 0x56, 0xbd, 0x3d, 0x80, 0x84, 0xbc, 0x0a, 0xbb, 0xe3, 0x3c,
  0x25, 0xbc, 0x16, 0xbe, 0x96, 0x00, 0xea, 0x3c, 0x56, 0xfe, 0x83, 0x3e,
  0x58, 0x6a, 0x26, 0xbe, 0x29, 0xb5, 0x43, 0x3e, 0x3b, 0x45, 0x56, 0xbe,
  0x78, 0xef, 0x00, 0xbe, 0xe2, 0xc6, 0x9f, 0xbd, 0x12, 0x50, 0x3b, 0xbe,
  0x72, 0x02, 0x91, 0x3e, 0xaf, 0x9e, 0x15, 0x3d, 0x7b, 0xe4, 0xe9, 0x3b,
  0xac, 0x7d, 0x15, 0x3e, 0x19, 0x2c, 0x48, 0xbe, 0x57, 0x0e, 0xb7, 0x3d,
  0xf7, 0x9d, 0x1f, 0x3e, 0xe1, 0x4b, 0x2b, 0xbe, 0x70, 0x86, 0xab, 0xbd,
  0xed, 0xdd, 0x05, 0x3e, 0x0a, 0x64, 0x0f, 0xbe, 0x05, 0x11, 0xb7, 0x3e,
  0xdf, 0x9b, 0x4a, 0xbe, 0x5b, 0xa3, 0x35, 0xbe, 0xd9, 0xd2, 0xa6, 0x3d,
  0x97, 0xe6, 0x07, 0xbe, 0xf5, 0x88, 0xa9, 0x3e, 0x4c, 0x3d, 0xce, 0x3c,
  0x6d, 0xec, 0xc8, 0xbd, 0x08, 0x34, 0xaa, 0x3a, 0xe5, 0x48, 0x4e, 0xbd,
  0xf5, 0xd2, 0x0d, 0xbd, 0xb7, 0xb2, 0xbc, 0xbe, 0x86, 0x52, 0xfa, 0x3e,
  0x1d, 0x31, 0x2a, 0x3e, 0x90, 0xd3, 0x28, 0x3d, 0x4b, 0x7e, 0x0f, 0xbe,
  0x1a, 0xbf, 0xa2, 0x3e, 0xbe, 0xce, 0x8e, 0xbd, 0xf4, 0x33, 0x8b, 0x3d,
  0x27, 0xe9, 0xde, 0xbe, 0x8c, 0x64, 0x93, 0x3e, 0x3c, 0xb1, 0xdf, 0x3b,
  0x34, 0x21, 0x09, 0x3c, 0x73, 0xb3, 0x46, 0xbe, 0xfb, 0xb8, 0x6a, 0xbd,
  0x31, 0x3c, 0xe8, 0xbd, 0xd1, 0xb3, 0xb5, 0xbd, 0xad, 0xb8, 0xdb, 0xbe,
  0x87, 0xa6, 0x02, 0x3f, 0x68, 0xa7, 0x58, 0xbe, 0x99, 0x7f, 0x1c, 0x3d,
  0x4d, 0x2f, 0x5a, 0xbe, 0x5a, 0x83, 0x8c, 0xbc, 0x64, 0xd6, 0xa4, 0x3d,
  0x51, 0xb7, 0xdc, 0xbd, 0x34, 0xf5, 0xc1, 0xbe, 0x83, 0x86, 0x6d, 0x3d,
  0xc2, 0xdc, 0xd5, 0xbe, 0xce, 0x78, 0xb9, 0x3d, 0x2e, 0xf8, 0x84, 0x3d,
  0xac, 0xc4, 0x8c, 0x3e, 0xa9, 0x94, 0x2e, 0xbc, 0xf6, 0xb0, 0xe0, 0x3c,
  0x8c, 0xc8, 0x6c, 0xbc, 0x5f, 0xd9, 0x14, 0x3d, 0x17, 0x2b, 0x0b, 0xbf,
  0x0e, 0xfb, 0x3e, 0xbd, 0xa4, 0x23, 0x00, 0x3d, 0x6b, 0x3f, 0x68, 0x3e,
  0xce, 0xbf, 0x5f, 0xbe, 0x2b, 0xeb, 0x7a, 0x3e, 0x86, 0xb8, 0x4f, 0x3e,
  0x64, 0xee, 0x62, 0x3d, 0x94, 0xcf, 0xf5, 0xbe, 0x68, 0x19, 0xcf, 0xbd,
  0x66, 0x8f, 0x67, 0xbd, 0x58, 0x98, 0x90, 0xbd, 0x6a, 0xfc, 0x50, 0xbe,
  0xca, 0xc2, 0xfe, 0x3d, 0x25, 0x73, 0xf0, 0xbd, 0x97, 0x10, 0x17, 0xbe,
  0x41, 0x03, 0xe5, 0xbe, 0x9e, 0x63, 0x3b, 0x3e, 0x00, 0x4f, 0x33, 0x3d,
  0x7f, 0x38, 0x12, 0xbe, 0xaa, 0x90, 0xa4, 0xbd, 0x33, 0x23, 0x7a, 0x3e,
  0xe2, 0xe9, 0x8d, 0x3d, 0x4a, 0x73, 0x1b, 0xbe, 0x5d, 0x39, 0x85, 0xbd,
  0x89, 0x08, 0xdb, 0xba, 0x03, 0x21, 0xdc, 0x3d, 0xe5, 0x37, 0xc5, 0x3e,
  0xc6, 0xb9, 0x17, 0xbd, 0x0f, 0xcb, 0xd8, 0xbd, 0x22, 0xec, 0xd2, 0xbd,
  0xec, 0x1d, 0xf4, 0xbd, 0x16, 0x56, 0x92, 0xbd, 0x99, 0x15, 0xa0, 0xbd,
  0xa3, 0x63, 0x8f, 0x3d, 0xb9, 0x9a, 0x7a, 0x3d, 0x1c, 0x0b, 0x7d, 0x3d,
  0xb9, 0x8c, 0x62, 0xbe, 0x2c, 0xa6, 0xf4, 0x3d, 0xfe, 0xd1, 0xc2, 0xbd,
  0x41, 0x29, 0x23, 0xbd, 0xd2, 0xcc, 0x0f, 0x3e, 0xb2, 0xc1, 0x86, 0xbd,
  0x20, 0x4b, 0xa1, 0x3d, 0xe4, 0x5b, 0x77, 0xbd, 0xc8, 0x7e, 0x6e, 0xbe,
  0xb2, 0x4d, 0xe2, 0xbd, 0x19, 0xd2, 0xa4, 0x3d, 0x96, 0x83, 0xb8, 0xbc,
  0x2a, 0x8d, 0x08, 0xbe, 0x33, 0x99, 0xe5, 0xbc, 0x65, 0x85, 0x1a, 0xbe,
  0x57, 0x29, 0x80, 0xbe, 0x12, 0x40, 0x11, 0xbe, 0xb0, 0xbd, 0x95, 0xbd,
  0x3c, 0x07, 0x9a, 0x3d, 0xd9, 0x0c, 0xa4, 0xbd, 0xc6, 0xdd, 0x88, 0x3e,
  0x44, 0x3c, 0x00, 0xbe, 0x3c, 0x40, 0x77, 0xbd, 0x05, 0x18, 0x8f, 0x3c,
  0xc9, 0xa7, 0xe2, 0x3d, 0x59, 0x61, 0x0a, 0x3e, 0x94, 0x19, 0xfe, 0x3d,
  0x1e, 0xc8, 0xfd, 0x3d, 0xe5, 0x49, 0x4c, 0xbd, 0x24, 0xb6, 0xbb, 0xbd,
  0xfd, 0x70, 0xfa, 0x3d, 0x31, 0x5f, 0x53, 0xbe, 0x32, 0x73, 0x28, 0x3d,
  0xf9, 0xed, 0xa7, 0x3e, 0x28, 0xf9, 0x89, 0xbd, 0x8f, 0x51, 0x0a, 0xbe,
  0x6b, 0x91, 0x34, 0x3e, 0xb6, 0x19, 0x8a, 0xbd, 0xcd, 0x35, 0x5a, 0x3e,
  0x27, 0x59, 0x52, 0xbe, 0xfa, 0xa9, 0x21, 0xbe, 0x05, 0x8e, 0x96, 0xbd,
  0x61, 0x7b, 0xa3, 0xbd, 0x82, 0x5b, 0x23, 0xbe, 0xb7, 0xa9, 0xbe, 0x3d,
  0xc1, 0xfc, 0x43, 0xbe, 0x93, 0xf4, 0x01, 0xbe, 0xdb, 0x1b, 0x57, 0xbe,
  0xd8, 0x8b, 0x49, 0xbe, 0x7a, 0xbf, 0x45, 0x3e, 0x8d, 0xcc, 0xd1, 0xbd,
  0xc0, 0x3a, 0xb3, 0xbe, 0xf6, 0x69, 0xed, 0xbd, 0x8a, 0x7e, 0x7d, 0x3d,
  0x1d, 0xe9, 0x9b, 0xbe, 0x2f, 0x3c, 0x94, 0x3e, 0x83, 0x37, 0xf1, 0xbd,
  0x8d, 0x4b, 0x95, 0xbd, 0xb3, 0x9a, 0xd3, 0xbd, 0xee, 0x6b, 0xb1, 0xbe,
  0x88, 0x16, 0xa7, 0xbd, 0xbd, 0x4c, 0x2b, 0x3b, 0xd3, 0x40, 0x0c, 0x3d,
  0xad, 0xf3, 0x1c, 0x3e, 0x92, 0x78, 0xab, 0xbd, 0x7f, 0x6f, 0x43, 0x3e,
  0xa2, 0x4e, 0xca, 0x3d, 0x9b, 0x72, 0x08, 0xbf, 0x81, 0xdc, 0x5b, 0x3d,
  0x5d, 0xa3, 0x14, 0xbe, 0x07, 0xfe, 0x8c, 0xbd, 0x4d, 0xe9, 0x81, 0x3e,
  0x6d, 0x96, 0xbd, 0xbc, 0xad, 0xc5, 0xe4, 0x3c, 0x51, 0x66, 0x96, 0xbd,
  0x78, 0xf7, 0x99, 0xbe, 0x9e, 0x30, 0x2a, 0xbd, 0xfb, 0xef, 0x6d, 0x3c,
  0x3c, 0xc6, 0x17, 0xbe, 0xe4, 0xcd, 0x7c, 0x3e, 0x10, 0x86, 0xc7, 0xbd,
  0xf9, 0x96, 0x27, 0x3e, 0xf1, 0x25, 0x06, 0xbe, 0x67, 0x17, 0xc7, 0xbd,
  0x3e, 0x94, 0x05, 0xbe, 0x5d, 0xf9, 0xa6, 0xbd, 0xc0, 0xfd, 0xa3, 0xbd,
  0xe1, 0xec, 0x8c, 0x3e, 0xc2, 0x72, 0x8a, 0xbe, 0x03, 0xe2, 0xab, 0xbd,
  0xcd, 0x3d, 0xcf, 0x3d, 0x6c, 0x0d, 0xcd, 0xbd, 0x16, 0x67, 0x25, 0xbe,
  0x7c, 0x04, 0xee, 0x3d, 0xd7, 0xe1, 0x13, 0xbd, 0x5f, 0x95, 0x5a, 0xbe,
  0xd2, 0x11, 0x07, 0xbf, 0x65, 0x55, 0x45, 0x3d, 0x0a, 0x5a, 0xd6, 0xbd,
  0xb0, 0x9f, 0x5b, 0x3d, 0x72, 0xcd, 0x04, 0x3e, 0x5f, 0x26, 0x4b, 0xbd,
  0xb8, 0x37, 0x88, 0x3d, 0x4f, 0xe9, 0xfa, 0xbe, 0x3a, 0x63, 0x05, 0xbf,
  0xc5, 0xca, 0x84, 0x3e, 0xb3, 0xcd, 0xc4, 0x3d, 0x22, 0x88, 0x24, 0x3e,
  0x24, 0xb2, 0x0a, 0x3e, 0xe3, 0xbf, 0xbb, 0xbd, 0x61, 0xf0, 0x14, 0xbd,
  0x0a, 0x95, 0x2e, 0xbf, 0x4c, 0xbb, 0x43, 0xbe, 0x5e, 0x2c, 0x82, 0x3d,
  0x43, 0x6d, 0xed, 0x3c, 0xf5, 0x37, 0x5e, 0xbe, 0x25, 0x5a, 0x85, 0xbe,
  0xce, 0x9f, 0x05, 0x3e, 0xe6, 0x75, 0xb5, 0xbe, 0x55, 0x15, 0x31, 0xbe,
  0xcb, 0x54, 0x90, 0xbe, 0x93, 0xfb, 0xc8, 0x3d, 0x58, 0x36, 0x6c, 0x3d,
  0xdd, 0x5d, 0x4c, 0xbe, 0xfc, 0x95, 0x12, 0xbe, 0x95, 0x83, 0x65, 0xbd,
  0x6d, 0xc0, 0xba, 0xbe, 0x9c, 0xf3, 0xfa, 0xbd, 0xaf, 0x1d, 0xdc, 0xbc,
  0x93, 0x3d, 0x16, 0xbe, 0xc0, 0x1c, 0xee, 0x3d, 0x96, 0xee, 0xb2, 0x3c,
  0xd5, 0x54, 0xd5, 0xbd, 0x03, 0x28, 0x7c, 0x3e, 0xcc, 0xaa, 0x8a, 0xbe,
  0x6a, 0xe0, 0x97, 0x3e, 0x60, 0xb9, 0x67, 0x3c, 0x2a, 0xaa, 0xdd, 0xb9,
  0x20, 0x52, 0x4a, 0xb9, 0xf7, 0xf4, 0x02, 0xbe, 0xb8, 0x4f, 0x06, 0x3d,
  0xb8, 0xe8, 0x46, 0xbc, 0x78, 0x10, 0xd3, 0xbd, 0x2a, 0xc8, 0x99, 0x3e,
  0xd8, 0x5c, 0x5c, 0xbd, 0x0f, 0x94, 0x96, 0xbd, 0x97, 0xbf, 0x37, 0x3e,
  0x6b, 0x29, 0x73, 0xbe, 0xa1, 0xd9, 0xb3, 0xbe, 0x71, 0x39, 0x4b, 0x3e,
  0x38, 0x4b, 0xae, 0x3d, 0x14, 0xb1, 0x5e, 0x3e, 0x6a, 0xb8, 0x83, 0xbe,
  0x82, 0xb4, 0x27, 0xbe, 0x75, 0x19, 0xed, 0x3d, 0x80, 0x11, 0x85, 0xbe,
  0x53, 0xaa, 0xd7, 0xbd, 0x21, 0xee, 0x47, 0xbe, 0xc8, 0x16, 0x4a, 0x3d,
  0x64, 0x8c, 0x7b, 0xbc, 0x73, 0x6b, 0x2c, 0x3e, 0x3c, 0x63, 0xdd, 0xbd,
  0x8e, 0x4e, 0x7a, 0x3d, 0x39, 0xe7, 0xef, 0xbd, 0xd5, 0x25, 0x97, 0xbe,
  0xd4, 0xf0, 0xa1, 0xbc, 0xb2, 0x91, 0x97, 0xbd, 0x14, 0x75, 0x3e, 0x3e,
  0x4b, 0xf4, 0x40, 0xbd, 0x37, 0x8a, 0x9a, 0x3d, 0x8e, 0xe9, 0xd3, 0xbd,
  0x30, 0xed, 0x39, 0xbe, 0xa0, 0xd0, 0x85, 0xbe, 0x01, 0x34, 0x82, 0x3e,
  0x9e, 0x93, 0x00, 0x3e, 0x56, 0x6b, 0x0c, 0xbe, 0x13, 0xa4, 0x56, 0xbe,
  0x09, 0x54, 0x8a, 0xbc, 0x15, 0x7c, 0x02, 0x3e, 0x88, 0xfc, 0xd0, 0x3e,
  0xcc, 0xd6, 0x7a, 0xbe, 0xc9, 0xdd, 0xeb, 0xbe, 0x9a, 0x8b, 0x36, 0xbe,
  0x14, 0x17, 0xea, 0xbd, 0xdd, 0xf3, 0x88, 0x3e, 0x2b, 0x82, 0x69, 0xbe,
  0x3a, 0x9a, 0xfb, 0x3c, 0x91, 0xdc, 0x86, 0x3e, 0xed, 0xfa, 0x9f, 0xbe,
  0xe1, 0x35, 0xda, 0xbe, 0xf5, 0xae, 0xf4, 0xbd, 0xdc, 0xff, 0x83, 0xbc,
  0x93, 0x43, 0xc1, 0x3e, 0xc6, 0xae, 0xb1, 0xbe, 0xf1, 0xe7, 0x29, 0x3e,
  0x6f, 0xd7, 0x65, 0x3e, 0xc3, 0xd0, 0x94, 0xbe, 0x3b, 0xf1, 0xeb, 0xbe,
  0x77, 0x64, 0x91, 0xbe, 0x4a, 0x78, 0x8e, 0x3d, 0xcc, 0xeb, 0x22, 0x3d,
  0x85, 0x49, 0xba, 0xbe, 0xea, 0x44, 0x1e, 0x3e, 0x5a, 0x20, 0x22, 0x3e,
  0x32, 0xa0, 0x78, 0xbe, 0x8e, 0xe4, 0xf7, 0xbe, 0xa4, 0x64, 0x6f, 0xbe,
  0xb8, 0xea, 0x8c, 0x3c, 0x5a, 0x26, 0x9f, 0x3c, 0x43, 0x56, 0x7d, 0xbe,
  0x32, 0xd6, 0xf0, 0x3e, 0x00, 0x00, 0x00, 0x00, 0x96, 0xa6, 0xff, 0xff,
  0x04, 0x00, 0x00, 0x00, 0x80, 0x01, 0x00, 0x00, 0x22, 0xb5, 0x13, 0xbe,
  0x98, 0x43, 0xc8, 0xbd, 0x62, 0xf4, 0xe1, 0xba, 0xfc, 0x07, 0x0f, 0xbd,
  0x4f, 0x4b, 0x28, 0x3d, 0x1e, 0x8d, 0x0a, 0xbe, 0x9b, 0x9c, 0xe7, 0x3b,
  0xb1, 0xe1, 0xa1, 0xbd, 0xb4, 0xb5, 0xbe, 0xbe, 0x82, 0x3a, 0xd8, 0x3d,
  0x0f, 0x6d, 0x26, 0x3e, 0x7d, 0x57, 0xbd, 0xbe, 0xae, 0x6c, 0x02, 0x3e,
  0xa9, 0x87, 0xe7, 0x3d, 0x86, 0xfb, 0xf8, 0x3d, 0x9f, 0xdd, 0x24, 0xbe,
  0x37, 0x15, 0x54, 0x3e, 0x5a, 0x0f, 0xcf, 0x3b, 0x51, 0x83, 0x31, 0xbe,
  0x65, 0xab, 0xb9, 0x3d, 0xb4, 0xb1, 0x2d, 0xbe, 0x48, 0x6c, 0x49, 0x3d,
  0xee, 0xc8, 0x9f, 0x3d, 0xc0, 0x7f, 0xa9, 0x3d, 0x91, 0x6a, 0x1d, 0xbe,
  0xb3, 0x26, 0xe8, 0xbd, 0xf2, 0x8a, 0x0d, 0xbd, 0x85, 0x78, 0xc9, 0xbc,
  0x9e, 0x72, 0x69, 0x3e, 0xbf, 0xb1, 0x0f, 0xbe, 0xaa, 0x83, 0xa4, 0xbe,
  0x20, 0x67, 0x32, 0x3e, 0x4c, 0xb1, 0xd9, 0x3d, 0x7b, 0x59, 0x5c, 0xbe,
  0x73, 0x57, 0xe9, 0xbd, 0x3f, 0x76, 0x04, 0xbe, 0x8d, 0xd3, 0x16, 0x3d,
  0xd6, 0x5d, 0xb6, 0x3d, 0xae, 0x55, 0xf6, 0xbd, 0xb3, 0x29, 0x80, 0xbe,
  0xe7, 0xc4, 0xf0, 0x3c, 0x05, 0x04, 0x0a, 0xbb, 0xe4, 0xea, 0x74, 0xbc,
  0xd0, 0x55, 0x70, 0x3e, 0xee, 0x0e, 0xa2, 0x3d, 0xa4, 0xa3, 0x0b, 0xbe,
  0x85, 0x30, 0x36, 0x3e, 0x6a, 0x6d, 0x72, 0x3c, 0x38, 0xc6, 0x0a, 0xbe,
  0xb8, 0x60, 0xf2, 0x3d, 0x41, 0xaa, 0xce, 0x3d, 0x38, 0x81, 0x70, 0x3e,
  0x7d, 0xd8, 0xa4, 0xbd, 0xf0, 0x08, 0xd8, 0xbd, 0x30, 0x8c, 0x32, 0x3e,
  0x00, 0xee, 0x10, 0x3e, 0x22, 0x40, 0x11, 0xbe, 0x18, 0xb6, 0x8e, 0x3e,
  0x35, 0xac, 0x2f, 0xbd, 0x22, 0xba, 0xd4, 0x3a, 0x9a, 0x90, 0x76, 0xbe,
  0x7a, 0x82, 0x74, 0x3e, 0x99, 0x56, 0x94, 0xbd, 0x3c, 0x2b, 0x8c, 0x3d,
  0x7d, 0xde, 0x0b, 0x3e, 0xcf, 0xa6, 0x2d, 0xbe, 0x71, 0x40, 0x0c, 0x3b,
  0xc5, 0xa8, 0xee, 0xbd, 0x54, 0xf6, 0x83, 0xbe, 0xb2, 0x83, 0x4a, 0x3e,
  0x19, 0xcb, 0x6a, 0x3e, 0x57, 0xda, 0x77, 0xbe, 0xaa, 0x32, 0x87, 0xbe,
  0xf7, 0xfd, 0x58, 0x3e, 0xd4, 0x62, 0xe8, 0xbd, 0xee, 0x00, 0x05, 0xbe,
  0x84, 0xd9, 0x7f, 0xbe, 0xa8, 0xba, 0x4d, 0xbb, 0xeb, 0x15, 0x94, 0x3d,
  0xb0, 0xf7, 0xd7, 0xbd, 0x0c, 0x48, 0x01, 0x3e, 0xed, 0x0d, 0xa0, 0xbe,
  0x1f, 0x66, 0x24, 0xbe, 0xb6, 0x87, 0x61, 0x3e, 0x8a, 0x92, 0x8d, 0xbd,
  0x91, 0x1f, 0xa7, 0xbe, 0x57, 0x16, 0x3e, 0x3d, 0x1c, 0x6a, 0x74, 0x3e,
  0x58, 0xf1, 0x66, 0x3d, 0x10, 0xaa, 0x08, 0x3e, 0x95, 0x76, 0xab, 0x3e,
  0x11, 0x2c, 0xb2, 0xbe, 0xf2, 0x06, 0xc8, 0xbd, 0xc9, 0x8a, 0x79, 0x3e,
  0x87, 0xbe, 0xdb, 0xbd, 0x94, 0x54, 0x7a, 0x3d, 0x00, 0x00, 0x00, 0x00,
  0x26, 0xa8, 0xff, 0xff, 0x04, 0x00, 0x00, 0x00, 0x00, 0x01, 0x00, 0x00,
  0xe8, 0x8f, 0x85, 0x3e, 0xfe, 0x6f, 0x07, 0xbe, 0xa0, 0x03, 0x08, 0x3e,
  0x75, 0x3c, 0xdd, 0xbe, 0x59, 0x9b, 0x1d, 0xbe, 0x74, 0x0c, 0xc7, 0x3e,
  0x8e, 0xa1, 0x66, 0x3e, 0x73, 0xc1, 0x50, 0x3e, 0xf1, 0xd3, 0x83, 0xbe,
  0x50, 0x5e, 0xff, 0x3e, 0x64, 0xce, 0xa1, 0xbe, 0x2f, 0x11, 0xca, 0xbe,
  0x56, 0x52, 0xb0, 0x3e, 0xa5, 0x93, 0x8d, 0x3e, 0x0f, 0xe4, 0x93, 0x3e,
  0xb3, 0x69, 0x17, 0xbf, 0xf0, 0x94, 0x15, 0xbf, 0xa9, 0xa0, 0x81, 0x3e,
  0x62, 0x32, 0x2b, 0xbd, 0xda, 0x36, 0x7d, 0xbf, 0x77, 0x38, 0xd7, 0xbe,
  0x90, 0x58, 0xb8, 0x3c, 0x9c, 0xe5, 0x81, 0xbd, 0xa9, 0x18, 0x8e, 0x3e,
  0x81, 0x6e, 0x9f, 0xbc, 0x76, 0xde, 0x90, 0x3e, 0x54, 0xf1, 0x38, 0xbf,
  0x95, 0x87, 0x69, 0xbf, 0x06, 0xa3, 0x72, 0x3e, 0x08, 0xf8, 0xbf, 0x3d,
  0xd4, 0x31, 0xe7, 0x3e, 0xe9, 0x3f, 0x5a, 0xbd, 0x46, 0xf2, 0x48, 0x3e,
  0x31, 0x0c, 0xfa, 0x3e, 0x76, 0x9d, 0x5b, 0xbe, 0x9d, 0xc7, 0xc2, 0xbd,
  0x87, 0xa3, 0x0c, 0x3f, 0x78, 0x77, 0xd2, 0x3e, 0x93, 0xdf, 0x57, 0xbe,
  0x08, 0xb5, 0xec, 0xbe, 0x0f, 0xc8, 0x09, 0xbf, 0x7e, 0xae, 0x69, 0x3e,
  0x7e, 0x18, 0x48, 0xbe, 0xe6, 0x4f, 0xc1, 0x3d, 0x3f, 0x0e, 0xf1, 0x3c,
  0xfd, 0xd6, 0xde, 0x3e, 0xd7, 0xed, 0xab, 0x3e, 0x3b, 0x08, 0x20, 0xbe,
  0x06, 0xc6, 0xcc, 0x3e, 0x9e, 0xe9, 0xf5, 0xbe, 0x50, 0xc0, 0xb1, 0xbd,
  0x8e, 0x4b, 0xdf, 0xbd, 0xf9, 0xd7, 0x1c, 0xbe, 0xac, 0xe1, 0xfb, 0xbe,
  0x66, 0x9a, 0xec, 0xbe, 0x16, 0x63, 0xbd, 0x3d, 0xab, 0x72, 0xba, 0xbd,
  0x4f, 0x0f, 0xb1, 0xbe, 0x79, 0xa8, 0x6c, 0x3e, 0x09, 0xa0, 0x84, 0x3d,
  0xa7, 0xf3, 0x1f, 0xbf, 0xe0, 0xdf, 0xdb, 0x3e, 0x54, 0x92, 0xc5, 0xbe,
  0xf1, 0x59, 0x1b, 0xbf, 0x00, 0x00, 0x00, 0x00, 0x36, 0xa9, 0xff, 0xff,
  0x04, 0x00, 0x00, 0x00, 0x00, 0x55, 0x00, 0x00, 0xea, 0xea, 0xfe, 0xf7,
  0x1c, 0xfa, 0xd9, 0x06, 0xc9, 0xe4, 0xf1, 0xd7, 0x0c, 0xee, 0xe7, 0xf1,
  0xff, 0xe8, 0xec, 0x04, 0x23, 0xf8, 0xea, 0x1e, 0xd7, 0xed, 0xcf, 0xea,
  0xf7, 0xda, 0xd6, 0xfe, 0x07, 0xf7, 0xe7, 0xf6, 0x10, 0x01, 0xf3, 0x1c,
  0xbe, 0xe8, 0xc6, 0xef, 0xf4, 0x02, 0xde, 0xfe, 0xfc, 0x0e, 0x01, 0x02,
  0x03, 0x00, 0xf6, 0x1e, 0xd4, 0xfe, 0xd1, 0x01, 0xf4, 0x05, 0x1d, 0x04,
  0xf7, 0xf9, 0xf9, 0xff, 0x0f, 0xf8, 0xdb, 0x0b, 0xcd, 0x05, 0xdd, 0x00,
  0x16, 0x05, 0x08, 0x09, 0xf6, 0x1a, 0xfc, 0x05, 0x25, 0xfb, 0xe5, 0x0b,
  0xe8, 0xf7, 0xe5, 0xf3, 0x11, 0x05, 0xf9, 0x01, 0x03, 0xf9, 0x0a, 0xe7,
  0x29, 0xf6, 0xf7, 0xef, 0xea, 0x06, 0xe5, 0x07, 0x14, 0xfe, 0x08, 0xf4,
  0x1c, 0xf7, 0x0e, 0xf4, 0x16, 0x08, 0xff, 0x15, 0xe9, 0x00, 0xe5, 0x13,
  0x13, 0xff, 0x07, 0xf5, 0x13, 0x05, 0xfe, 0xfa, 0x04, 0x38, 0xf7, 0x20,
  0xdd, 0xf3, 0xe2, 0x15, 0x0b, 0xf9, 0x24, 0xff, 0x1e, 0x0b, 0xff, 0x16,
  0x22, 0x37, 0xe3, 0x37, 0xe4, 0xe6, 0xdc, 0x09, 0x07, 0xf1, 0xfc, 0x10,
  0x08, 0xfd, 0xf9, 0xfb, 0x31, 0x3c, 0xdf, 0x25, 0xcc, 0xe6, 0xcc, 0x11,
  0x0e, 0x04, 0x05, 0x1a, 0x1b, 0xeb, 0x04, 0xfb, 0x37, 0x21, 0xec, 0x2b,
  0xd4, 0xd8, 0xe5, 0x20, 0xea, 0xf9, 0x05, 0x11, 0x30, 0xfc, 0x06, 0x0a,
  0x05, 0x17, 0xff, 0x22, 0xde, 0xf9, 0xec, 0x18, 0x03, 0xff, 0xff, 0xef,
  0x22, 0xeb, 0x07, 0x12, 0xf2, 0x0b, 0x1d, 0x29, 0x00, 0xf3, 0xf5, 0x15,
  0xdd, 0x0e, 0xfa, 0xe4, 0x1e, 0x10, 0x0f, 0xf9, 0xe6, 0x04, 0x07, 0x20,
  0xee, 0xeb, 0xef, 0x1f, 0xc9, 0xfe, 0x0f, 0xe1, 0x0e, 0xf8, 0x0b, 0xf4,
  0xd9, 0xf8, 0xee, 0x10, 0xf4, 0xe2, 0xf2, 0x0b, 0xda, 0xf3, 0x03, 0xf4,
  0x08, 0xec, 0x05, 0xf5, 0xee, 0xf0, 0xf9, 0x1a, 0xfd, 0xf4, 0xff, 0x0f,
  0xf0, 0xfe, 0x05, 0xe8, 0x07, 0xfc, 0x04, 0xfb, 0xda, 0xf2, 0x0d, 0x11,
  0x14, 0x10, 0xf0, 0xf5, 0x05, 0x1f, 0x1d, 0xd1, 0xfe, 0x02, 0xf1, 0xfe,
  0xd4, 0x15, 0x03, 0xfe, 0x0e, 0x00, 0xe9, 0xf6, 0x0d, 0x10, 0x21, 0xec,
  0x14, 0xee, 0x0b, 0xe8, 0xce, 0xf3, 0x0c, 0x15, 0x11, 0x0b, 0xed, 0xdf,
  0xf9, 0x16, 0x3e, 0xe8, 0x12, 0x02, 0xf7, 0xe7, 0xd7, 0xf1, 0x07, 0x19,
  0x36, 0x13, 0x05, 0xf4, 0x02, 0x04, 0x2a, 0xdf, 0x11, 0x09, 0xfc, 0xef,
  0xda, 0xd9, 0x0f, 0x04, 0xfd, 0x0e, 0xff, 0xef, 0x09, 0x06, 0x12, 0xed,
  0x01, 0x03, 0x0e, 0xda, 0xe2, 0xd9, 0x2d, 0x04, 0x11, 0x0c, 0x1e, 0xe9,
  0x16, 0x06, 0x03, 0xf5, 0xf4, 0x0a, 0xfc, 0xe4, 0xd1, 0xe3, 0x1d, 0xfb,
  0x0f, 0x0b, 0x14, 0xf0, 0x0c, 0xf8, 0x05, 0xe3, 0xff, 0x08, 0xfe, 0xef,
  0xdf, 0xc8, 0x25, 0x04, 0x25, 0x06, 0x20, 0xeb, 0x0b, 0xf5, 0xf9, 0xfa,
  0xfd, 0xfc, 0x01, 0xfc, 0xe8, 0xe0, 0x18, 0x0f, 0x16, 0xf5, 0x0e, 0xe7,
  0x05, 0x0a, 0xfc, 0xf0, 0xfb, 0x14, 0xfc, 0xe0, 0xf4, 0xf8, 0x1c, 0x0e,
  0x02, 0xf8, 0x07, 0xe7, 0x05, 0x0b, 0xfb, 0xf9, 0xf7, 0x16, 0xeb, 0x09,
  0xef, 0x07, 0x22, 0x12, 0xf7, 0x02, 0x0c, 0xf0, 0xf8, 0xf9, 0xf5, 0xfd,
  0xf5, 0x15, 0xf1, 0xfc, 0xf3, 0x09, 0x2f, 0xef, 0xfe, 0xf5, 0x2d, 0xe8,
  0xf0, 0xf0, 0xf2, 0xee, 0xe7, 0x11, 0xe7, 0xfd, 0xe7, 0xf6, 0x2c, 0xf5,
  0xf9, 0xf8, 0x2b, 0xdd, 0x04, 0x08, 0xf6, 0xfa, 0xec, 0x1c, 0xe9, 0xfd,
  0xeb, 0xe2, 0x11, 0x0c, 0x0d, 0x08, 0x1e, 0xe4, 0xff, 0x14, 0xfa, 0x00,
  0xdd, 0x1f, 0xfe, 0x09, 0xf5, 0xf1, 0xeb, 0x0f, 0x10, 0x09, 0x06, 0xf2,
  0x07, 0x17, 0x0f, 0xef, 0xcc, 0x02, 0xfe, 0xf5, 0x01, 0x02, 0x05, 0xfc,
  0x03, 0x08, 0x05, 0x05, 0x1b, 0x09, 0x0e, 0xf8, 0xda, 0x0e, 0x04, 0xfc,
  0xfe, 0x0b, 0x09, 0xe3, 0x09, 0x0b, 0x12, 0xfc, 0x14, 0x03, 0x03, 0xf0,
  0xf5, 0x2f, 0x0c, 0xfc, 0x08, 0x0b, 0x10, 0xfa, 0x03, 0x1d, 0x07, 0xf5,
  0x16, 0xf2, 0x0f, 0x03, 0xf1, 0x18, 0x00, 0xf5, 0x06, 0x12, 0x06, 0xf3,
  0xf7, 0x0b, 0x13, 0x05, 0x07, 0xf4, 0x0d, 0xeb, 0xf0, 0x34, 0x03, 0xe8,
  0xf3, 0x13, 0x2b, 0xdb, 0x0c, 0x0c, 0x05, 0x0a, 0x1f, 0xf1, 0x06, 0xdb,
  0xfb, 0x32, 0x0b, 0xf5, 0xfc, 0x02, 0x25, 0xd5, 0x0e, 0x12, 0x20, 0xf8,
  0x10, 0xf3, 0x10, 0xee, 0x05, 0x47, 0x18, 0xef, 0xfa, 0x0a, 0x24, 0xf0,
  0x15, 0x04, 0x1a, 0xef, 0x12, 0xea, 0x09, 0xe1, 0xfc, 0x1f, 0xfb, 0xed,
  0xf0, 0x17, 0x23, 0xf4, 0x15, 0xfc, 0x10, 0xe9, 0x07, 0xe1, 0xff, 0xde,
  0x01, 0x37, 0x03, 0xf0, 0xf2, 0x03, 0x1a, 0xf7, 0x20, 0xe8, 0x02, 0xf1,
  0xf0, 0xe6, 0xf1, 0xcf, 0x11, 0x19, 0x11, 0xfb, 0xd9, 0x1d, 0x1c, 0x07,
  0x25, 0x09, 0x0c, 0xf4, 0xf1, 0x06, 0x13, 0xe9, 0x08, 0x0b, 0x00, 0x05,
  0xec, 0x01, 0x10, 0xff, 0x2a, 0x13, 0x01, 0xe0, 0x17, 0x06, 0x1b, 0xd6,
  0x09, 0x08, 0x19, 0xfa, 0xed, 0xfe, 0xf7, 0xe1, 0x18, 0x0f, 0x1d, 0xdd,
  0x0e, 0xf9, 0xf8, 0xd9, 0xf9, 0x03, 0x08, 0xf8, 0x02, 0x16, 0x00, 0xf2,
  0x16, 0xf9, 0xff, 0xe1, 0x03, 0xfa, 0xfc, 0xde, 0x0b, 0xfb, 0x08, 0xf4,
  0xef, 0x11, 0x12, 0xeb, 0x2a, 0xfa, 0x12, 0xe9, 0xdf, 0x01, 0xf0, 0xdf,
  0x0b, 0x17, 0x06, 0xf5, 0xf3, 0x0d, 0x1c, 0xfb, 0x29, 0xf8, 0x11, 0xe0,
  0xf8, 0x03, 0xec, 0xe5, 0xff, 0x09, 0x12, 0x0f, 0xf1, 0x09, 0x0e, 0xec,
  0x08, 0xef, 0x22, 0xf7, 0xfe, 0xfb, 0xf8, 0xef, 0xe8, 0x15, 0x10, 0x00,
  0x01, 0x01, 0x09, 0xfd, 0x18, 0x18, 0x27, 0xfb, 0xf2, 0xf3, 0xfa, 0xd9,
  0xee, 0x29, 0x1a, 0xfa, 0xf5, 0xfb, 0xfb, 0xfa, 0x28, 0x06, 0x14, 0xfd,
  0x08, 0xfb, 0x06, 0xe1, 0xeb, 0x0d, 0x16, 0xe4, 0xf3, 0x01, 0xfe, 0xf9,
  0x1b, 0x03, 0x12, 0xf3, 0x00, 0xef, 0xfa, 0xee, 0xe8, 0x0e, 0x0d, 0xe5,
  0x05, 0xf8, 0x03, 0xe3, 0x01, 0x08, 0x08, 0xf9, 0x15, 0xfd, 0x10, 0xe3,
  0xea, 0x15, 0x09, 0xf4, 0x09, 0xdf, 0x04, 0xe7, 0xed, 0x07, 0x04, 0xed,
  0x11, 0x14, 0xfb, 0xef, 0xff, 0x19, 0x01, 0xe6, 0x0d, 0xf7, 0x24, 0xf5,
  0x10, 0xfa, 0x1f, 0xf9, 0xed, 0x10, 0x11, 0xfd, 0xf3, 0x16, 0x0c, 0x00,
  0x0c, 0x04, 0x14, 0xfa, 0x0e, 0x02, 0x1c, 0x06, 0x01, 0x08, 0x17, 0xfc,
  0xe6, 0x26, 0x02, 0xf1, 0x08, 0x0c, 0x27, 0xe3, 0x0a, 0x11, 0x23, 0xf5,
  0x0c, 0x03, 0x15, 0x01, 0xff, 0x27, 0xf9, 0xf5, 0xf7, 0x07, 0x1f, 0xf0,
  0x0c, 0x07, 0x24, 0x0d, 0x00, 0xf6, 0xfa, 0xf3, 0xff, 0x3c, 0xfa, 0xf4,
  0x00, 0xfb, 0x15, 0xf9, 0x16, 0x04, 0x17, 0xfc, 0x0e, 0x14, 0x10, 0xed,
  0xec, 0x21, 0x06, 0x08, 0xeb, 0xf2, 0x17, 0xf3, 0x02, 0x15, 0x08, 0x08,
  0x15, 0x0f, 0x1c, 0xe3, 0xf6, 0x43, 0x06, 0xf6, 0xf4, 0xf7, 0x11, 0xe8,
  0x10, 0x10, 0xf4, 0xfc, 0x03, 0x06, 0x1c, 0xef, 0xf3, 0x16, 0x0b, 0xf0,
  0xf1, 0xed, 0x14, 0xda, 0x0d, 0x04, 0xf8, 0xfd, 0xf8, 0x0e, 0x12, 0xdd,
  0xf1, 0xfd, 0x04, 0xfb, 0xee, 0xfc, 0x04, 0xee, 0xff, 0x0c, 0xf2, 0x07,
  0xfe, 0x12, 0xf9, 0xe7, 0xed, 0x16, 0x06, 0xfa, 0xda, 0xf9, 0x17, 0xf4,
  0xf9, 0x02, 0xf9, 0x08, 0x12, 0xfe, 0x02, 0xea, 0x04, 0x02, 0x09, 0xf6,
  0xe8, 0x0e, 0x10, 0x02, 0x01, 0x06, 0x14, 0x0e, 0x07, 0x12, 0xe9, 0xf6,
  0x03, 0x1e, 0x01, 0xfc, 0x06, 0x03, 0x13, 0xf8, 0x04, 0xf7, 0x1c, 0xf2,
  0x08, 0xf8, 0xfe, 0xea, 0xf0, 0xff, 0xf0, 0xf9, 0xf7, 0xf7, 0x16, 0xfd,
  0x0b, 0x03, 0x1b, 0x04, 0xf3, 0xfd, 0xf4, 0xdc, 0x0a, 0x0c, 0x11, 0xe1,
  0xfc, 0xe9, 0x1a, 0x04, 0x1b, 0xf0, 0x13, 0xf5, 0xf2, 0xe0, 0xea, 0xf0,
  0xf8, 0x08, 0x09, 0xf9, 0xfe, 0x02, 0x0c, 0x0d, 0x17, 0xff, 0x20, 0xf1,
  0xf1, 0xf5, 0xf1, 0xf7, 0xf6, 0x1f, 0x1d, 0xfe, 0xf6, 0xf1, 0x05, 0x02,
  0x0c, 0x12, 0x0e, 0xf9, 0xfd, 0xeb, 0xf3, 0xff, 0xe7, 0xf5, 0x18, 0x06,
  0xf2, 0xf8, 0xdf, 0xfe, 0x0d, 0x0d, 0x1a, 0x10, 0xfb, 0xfc, 0xfd, 0xf2,
  0xe6, 0x0f, 0x1a, 0x01, 0x16, 0xfc, 0xe7, 0xf9, 0x02, 0xfc, 0x11, 0x0a,
  0xf5, 0xf5, 0xf4, 0xfd, 0xde, 0x10, 0x12, 0x0a, 0x0c, 0xde, 0xdc, 0xe7,
  0xfb, 0xf8, 0x0b, 0x1a, 0xfa, 0x06, 0xef, 0xf9, 0xd3, 0xff, 0xf6, 0xf0,
  0x08, 0xde, 0xe1, 0xd9, 0xf9, 0x03, 0x1b, 0x10, 0x0e, 0xf7, 0xf0, 0xe2,
  0xe9, 0x13, 0x00, 0xff, 0x0e, 0xfc, 0xfa, 0xd1, 0xe9, 0xef, 0x1a, 0x18,
  0x06, 0xf8, 0xf5, 0xef, 0xf4, 0x2b, 0xf6, 0xe7, 0x05, 0xee, 0x06, 0xd2,
  0xfc, 0x08, 0x18, 0x0e, 0xeb, 0x00, 0xe6, 0xf3, 0xf8, 0xfe, 0xf4, 0xdd,
  0x08, 0xff, 0xfb, 0xf4, 0xee, 0xfd, 0x23, 0xf6, 0xe8, 0xee, 0xe3, 0xee,
  0xe3, 0x0d, 0xee, 0xfe, 0x1f, 0x19, 0xe3, 0x03, 0xf2, 0xf4, 0x07, 0x07,
  0xed, 0xec, 0xec, 0xf9, 0xfa, 0xfd, 0xf5, 0xee, 0x0a, 0x0a, 0xe6, 0x11,
  0x05, 0xf7, 0xfc, 0x02, 0xf2, 0xf1, 0xe1, 0xf8, 0xf6, 0x14, 0xf4, 0xfd,
  0x08, 0xee, 0xee, 0x1f, 0x1a, 0xf9, 0x01, 0xf0, 0x04, 0xf6, 0xf8, 0xe0,
  0x01, 0xf5, 0xf4, 0xe8, 0x07, 0xf0, 0x00, 0x13, 0x28, 0x03, 0x19, 0xf8,
  0xff, 0xf4, 0xe7, 0xea, 0x03, 0xfc, 0xf2, 0xf3, 0x06, 0xc6, 0x08, 0x0e,
  0x10, 0x0c, 0x28, 0x09, 0xf9, 0x02, 0xfb, 0xf0, 0xfc, 0xea, 0x01, 0xf4,
  0xf8, 0xd6, 0x1d, 0xd9, 0x17, 0x01, 0x19, 0x02, 0xfc, 0xfb, 0xf3, 0xef,
  0xf7, 0x10, 0xf9, 0xfb, 0xf4, 0xbf, 0x17, 0xdc, 0x10, 0xfe, 0x3f, 0x0e,
  0xfc, 0xfc, 0xe1, 0x01, 0xeb, 0xf6, 0xf6, 0xf3, 0xfa, 0xbc, 0x13, 0xd4,
  0x21, 0x07, 0x38, 0x00, 0xff, 0x07, 0xf7, 0x04, 0xe1, 0xc9, 0x03, 0xf9,
  0x04, 0xd4, 0xe3, 0xf9, 0x00, 0x0d, 0xff, 0x02, 0xef, 0x04, 0x02, 0x08,
  0xf6, 0xff, 0xfb, 0x09, 0xfe, 0xf8, 0xf9, 0xf7, 0xfb, 0xf4, 0x0b, 0x08,
  0x00, 0xf4, 0x04, 0xfd, 0xf2, 0x04, 0x06, 0xff, 0xf7, 0x08, 0xef, 0x0a,
  0xf9, 0xef, 0xfd, 0xf5, 0x00, 0x06, 0x04, 0x06, 0x08, 0x08, 0x00, 0x01,
  0xfc, 0x02, 0xfb, 0xf5, 0xfb, 0xfa, 0x02, 0x0a, 0xfa, 0x02, 0xff, 0xfe,
  0x06, 0xf3, 0x08, 0x06, 0xf8, 0x08, 0xfe, 0x09, 0xf7, 0x02, 0xf8, 0xfc,
  0xfe, 0xf5, 0x07, 0xf8, 0xf9, 0xf2, 0xff, 0x00, 0xfe, 0x07, 0xeb, 0x03,
  0x02, 0xff, 0x05, 0xf8, 0xf7, 0xfc, 0x08, 0xfc, 0x02, 0xfa, 0xf7, 0xfe,
  0x05, 0xf4, 0xf0, 0xf9, 0xfd, 0x01, 0x01, 0xfe, 0x0b, 0x00, 0x05, 0x02,
  0x08, 0x03, 0x01, 0x09, 0x03, 0xf4, 0xfd, 0x02, 0x03, 0xf0, 0xf1, 0xfb,
  0x04, 0x05, 0xf7, 0x00, 0x06, 0x09, 0x09, 0x05, 0x00, 0x00, 0xfa, 0x07,
  0xf8, 0x03, 0xfe, 0x03, 0xf5, 0x01, 0xf4, 0x09, 0x05, 0x00, 0x04, 0xf4,
  0x0b, 0x00, 0x03, 0xff, 0xfb, 0xf6, 0xf7, 0xfa, 0x0a, 0x02, 0xf5, 0x0a,
  0xf7, 0xf9, 0xf6, 0xfb, 0xfb, 0x08, 0xfd, 0xfd, 0x07, 0xff, 0xf2, 0xf7,
  0xfa, 0x07, 0x05, 0x03, 0xfb, 0x02, 0x03, 0x03, 0x04, 0xfb, 0xf9, 0xfb,
  0x06, 0x06, 0xf6, 0x03, 0xf6, 0x01, 0x03, 0xfd, 0xfd, 0x02, 0x08, 0xfa,
  0xff, 0xf6, 0xfa, 0x01, 0xf7, 0xf2, 0x02, 0x02, 0xf9, 0x07, 0x05, 0xfd,
  0x03, 0xfe, 0x06, 0xf9, 0xfa, 0xff, 0xf3, 0xf7, 0xfc, 0xff, 0xf5, 0x09,
  0xf7, 0xfe, 0xf9, 0xf4, 0x09, 0x06, 0xfd, 0xf5, 0x07, 0xf6, 0xfb, 0xfd,
  0xf5, 0xf5, 0xfc, 0xf6, 0x00, 0xf6, 0xf7, 0xff, 0x07, 0x0b, 0x0a, 0xfb,
  0x09, 0x08, 0xf7, 0xf8, 0x03, 0x03, 0x04, 0xf6, 0xfc, 0xf5, 0x06, 0xfe,
  0xfb, 0xf7, 0xfc, 0x04, 0xfc, 0xfc, 0xfa, 0xf9, 0xf4, 0xf8, 0xf4, 0x04,
  0x04, 0xf9, 0xf9, 0xf6, 0xf3, 0x03, 0x09, 0xf4, 0x03, 0x01, 0xf8, 0xf7,
  0x02, 0x06, 0xf7, 0x00, 0xfb, 0xff, 0xfc, 0xf7, 0xf9, 0x04, 0x00, 0xf9,
  0x07, 0xf8, 0x0a, 0x01, 0xf1, 0xf5, 0xff, 0x00, 0x10, 0x05, 0xfc, 0x06,
  0xf5, 0xf4, 0xfe, 0x02, 0x03, 0xfc, 0xfd, 0xfe, 0xf2, 0x06, 0xf6, 0x07,
  0x07, 0x01, 0xf6, 0xff, 0xfa, 0x03, 0x06, 0x03, 0x0a, 0xfe, 0x01, 0xf4,
  0xfe, 0xf4, 0xf4, 0xf7, 0xf9, 0xfc, 0xf6, 0xfe, 0x06, 0xf7, 0x08, 0xfc,
  0xfb, 0xf8, 0x04, 0xfc, 0x06, 0xf4, 0x05, 0xfe, 0x05, 0xfc, 0xfd, 0xf6,
  0xf8, 0xf5, 0x01, 0xfe, 0xf7, 0x03, 0xf5, 0x01, 0xf2, 0xfd, 0x00, 0xf9,
  0x0a, 0xf9, 0xfd, 0xf5, 0x03, 0x0a, 0x07, 0x00, 0xfb, 0x05, 0xf1, 0x03,
  0xf8, 0xf7, 0xfd, 0xf4, 0xfe, 0xf6, 0x08, 0xfd, 0xff, 0x05, 0xfe, 0xfe,
  0x0a, 0xf9, 0xf3, 0xf6, 0x0a, 0x00, 0x04, 0x02, 0xfe, 0x01, 0xf6, 0xff,
  0xf9, 0xf6, 0xfa, 0x02, 0xf7, 0xf7, 0x04, 0x08, 0xfb, 0x06, 0xf3, 0x03,
  0xfe, 0x01, 0xf8, 0x03, 0xf6, 0x02, 0xf8, 0xf7, 0x0b, 0xf5, 0xf5, 0x00,
  0x00, 0xf8, 0x01, 0xfb, 0xfb, 0x05, 0x04, 0x05, 0xfe, 0xf3, 0x01, 0x06,
  0xfa, 0xfe, 0xef, 0xf8, 0xff, 0x08, 0xf9, 0x07, 0x06, 0xfa, 0xf6, 0x07,
  0x02, 0xfa, 0xfd, 0x03, 0xf6, 0x05, 0xfd, 0xf9, 0xff, 0x07, 0xf2, 0x06,
  0xfa, 0xfe, 0xfd, 0xfd, 0xff, 0x0a, 0x00, 0xfa, 0x05, 0xfe, 0xfa, 0xfc,
  0xfa, 0xf8, 0x05, 0xff, 0xfd, 0xf9, 0xfc, 0xf7, 0x07, 0x03, 0xfd, 0xfe,
  0x00, 0x09, 0xf7, 0xff, 0xf9, 0xff, 0xfe, 0x08, 0xfe, 0xf3, 0xfb, 0xf5,
  0x03, 0x04, 0xf5, 0xfc, 0xfc, 0x04, 0xf0, 0xfb, 0x08, 0xf6, 0x03, 0xf8,
  0xf4, 0xf4, 0x02, 0x06, 0x01, 0x05, 0x02, 0xfb, 0xfa, 0x06, 0xf9, 0xfd,
  0x06, 0xfe, 0xef, 0xf7, 0x04, 0xf8, 0x04, 0xf4, 0xf9, 0x01, 0xff, 0xff,
  0xfe, 0x02, 0xf2, 0x04, 0xef, 0xf2, 0x01, 0xfb, 0x00, 0x01, 0xf6, 0xff,
  0x04, 0xf8, 0x09, 0xfb, 0xf3, 0x07, 0xf5, 0x04, 0xf5, 0xf3, 0xf1, 0x01,
  0xf7, 0xf5, 0x02, 0xf8, 0x01, 0x09, 0xfe, 0xfa, 0xfd, 0xf6, 0xf5, 0x02,
  0xf9, 0xf5, 0xff, 0x08, 0xfb, 0x09, 0xfc, 0xf8, 0xf4, 0xfe, 0x00, 0xf8,
  0x01, 0x07, 0xf8, 0x06, 0xf2, 0xf1, 0xfe, 0x03, 0x03, 0xfa, 0xff, 0x06,
  0xf6, 0x07, 0xfd, 0xfc, 0x09, 0xfe, 0xff, 0x05, 0x05, 0x07, 0xf8, 0xfe,
  0xf8, 0xf3, 0xfc, 0x00, 0xf6, 0xf7, 0xf7, 0x00, 0xf8, 0x0a, 0xfa, 0xf7,
  0xfa, 0xf4, 0xf9, 0x07, 0xf7, 0x01, 0xf9, 0x05, 0x08, 0xfd, 0xf7, 0x03,
  0xff, 0x01, 0xfc, 0xf5, 0xf2, 0x0b, 0x01, 0xfa, 0xfd, 0x04, 0xfe, 0x01,
  0xff, 0xf7, 0xfe, 0xf5, 0xfa, 0xf5, 0xfa, 0xff, 0xfb, 0xf9, 0xf3, 0xfd,
  0xfb, 0x04, 0xf5, 0xf5, 0xf0, 0xfb, 0xf7, 0x03, 0xfc, 0x05, 0xfa, 0x07,
  0xf9, 0x0a, 0x00, 0x0a, 0x09, 0xf5, 0x00, 0xfc, 0xef, 0xfb, 0xff, 0x01,
  0x06, 0xfb, 0x03, 0xf6, 0xff, 0xff, 0xef, 0xf4, 0xfb, 0x08, 0xfd, 0x07,
  0xf0, 0x05, 0xfc, 0xf4, 0x03, 0x07, 0xf8, 0xff, 0x03, 0xf5, 0xff, 0xfa,
  0x07, 0x09, 0x02, 0x00, 0xf9, 0x0a, 0x00, 0xf9, 0xfc, 0xf6, 0xf7, 0x0a,
  0xf2, 0x02, 0x03, 0x08, 0xf5, 0xfd, 0xfb, 0x03, 0xf8, 0x02, 0xf6, 0xf5,
  0xf7, 0xfc, 0x09, 0x07, 0xf3, 0x09, 0xef, 0xfe, 0x07, 0xf8, 0xf5, 0xfa,
  0xf1, 0x05, 0xfd, 0x08, 0xf9, 0xf9, 0x05, 0x00, 0x01, 0x05, 0xf7, 0xf6,
  0xfb, 0xf6, 0xfc, 0xfa, 0x08, 0xfc, 0x0b, 0x05, 0x08, 0x05, 0xf3, 0x0a,
  0x00, 0xfa, 0x04, 0xf9, 0x02, 0x08, 0x08, 0x02, 0xf8, 0xf6, 0xf6, 0x07,
  0xf4, 0xff, 0xfe, 0x05, 0xf7, 0xf6, 0xfa, 0x08, 0x05, 0x07, 0xfc, 0xf6,
  0xf3, 0x02, 0x07, 0xfa, 0xfe, 0xfb, 0xf8, 0xff, 0x06, 0xf5, 0xfe, 0x04,
  0x0b, 0xf7, 0xf5, 0xf5, 0xf0, 0xf4, 0xff, 0x05, 0xf6, 0xf7, 0x04, 0x09,
  0xf9, 0xf1, 0x04, 0xf7, 0xf8, 0x0a, 0xfa, 0x03, 0xf1, 0xf5, 0xfe, 0xf8,
  0x0a, 0x04, 0xfd, 0xf9, 0xfc, 0xf8, 0x05, 0xfc, 0x03, 0x06, 0xf3, 0xfa,
  0xfc, 0xfa, 0xfd, 0x01, 0xfe, 0xfb, 0xf5, 0xff, 0x00, 0x02, 0x05, 0xf7,
  0xff, 0x09, 0x01, 0x01, 0xfb, 0x06, 0xff, 0xf3, 0xf8, 0x00, 0xf9, 0xf4,
  0x05, 0xf8, 0x01, 0xff, 0xf9, 0xf4, 0x08, 0x00, 0xf6, 0xfb, 0x06, 0xfb,
  0xfe, 0x00, 0xf2, 0xfc, 0xf5, 0xf5, 0xfe, 0x06, 0x03, 0xf6, 0xf8, 0x09,
  0xf4, 0x03, 0xf0, 0xf7, 0x00, 0xf5, 0xf9, 0x06, 0xfe, 0xf6, 0xfa, 0xf1,
  0x0b, 0x03, 0x07, 0xf9, 0xf9, 0xf8, 0xfc, 0xfe, 0xf7, 0xf4, 0xf7, 0xfb,
  0x0a, 0x01, 0x05, 0xff, 0xfb, 0xfc, 0xff, 0xf7, 0xfd, 0xff, 0x00, 0x02,
  0x06, 0x08, 0xf9, 0xf3, 0xf9, 0xf9, 0xf4, 0x00, 0x0a, 0xf2, 0xf6, 0xf6,
  0xf6, 0xf7, 0x09, 0xf3, 0xfa, 0xfe, 0x05, 0x0e, 0x04, 0x09, 0x02, 0xfe,
  0xf6, 0xff, 0x09, 0xf5, 0x04, 0x02, 0xfd, 0x04, 0x01, 0xff, 0xfa, 0xfd,
  0x02, 0xff, 0x00, 0x00, 0xff, 0xfc, 0xf6, 0xf6, 0xfc, 0x08, 0xfb, 0xf1,
  0x05, 0xf9, 0x03, 0x03, 0xfa, 0x01, 0x02, 0xfd, 0xf6, 0xf9, 0xfc, 0xf7,
  0x01, 0xf8, 0x05, 0x0a, 0xfc, 0xfc, 0x04, 0xf9, 0xfb, 0x03, 0xf6, 0xf6,
  0xf9, 0xf0, 0xf5, 0xfb, 0xf9, 0x09, 0x0e, 0xf4, 0xf3, 0x09, 0x03, 0xf8,
  0xf7, 0x04, 0xf9, 0xf2, 0x08, 0x06, 0xf6, 0xf7, 0xf9, 0xfd, 0x07, 0xf6,
  0x04, 0xf4, 0x0a, 0x04, 0xf9, 0xfd, 0xff, 0x00, 0x01, 0xf1, 0xf4, 0x08,
  0x00, 0x02, 0xf0, 0x02, 0x0c, 0xfb, 0x04, 0x01, 0xfb, 0x03, 0xf4, 0x00,
  0x03, 0x08, 0xf6, 0x02, 0x04, 0xf6, 0xef, 0x02, 0xfb, 0xf6, 0xfa, 0xf2,
  0x08, 0xfe, 0xf5, 0x01, 0x00, 0xf6, 0xf6, 0xf8, 0x00, 0xfc, 0xfd, 0xf8,
  0x07, 0x02, 0xfb, 0xf1, 0xf9, 0x08, 0xf1, 0xf7, 0xf5, 0x08, 0xf7, 0xfe,
  0xf9, 0x00, 0x04, 0x04, 0xef, 0x03, 0xf4, 0x02, 0x02, 0x07, 0x05, 0xff,
  0x04, 0x04, 0x02, 0xf9, 0xfc, 0xfc, 0x01, 0xfc, 0xf5, 0xfc, 0x05, 0x05,
  0xf3, 0xfe, 0xf6, 0xf5, 0x02, 0x02, 0x09, 0xf7, 0x09, 0x09, 0xff, 0x09,
  0x02, 0x01, 0xf7, 0xf3, 0x01, 0x01, 0xfb, 0x05, 0x03, 0x09, 0x00, 0xf8,
  0xf3, 0x09, 0xf8, 0xfb, 0xf1, 0xf7, 0xfa, 0x01, 0x01, 0xf7, 0x09, 0xf9,
  0x07, 0x0a, 0xf7, 0x09, 0xf4, 0x09, 0x09, 0x08, 0xfb, 0x06, 0x04, 0xf8,
  0x05, 0xfe, 0xfa, 0x05, 0x02, 0x0c, 0x08, 0x00, 0x02, 0x00, 0xf1, 0x07,
  0xfd, 0xfe, 0xfc, 0xf1, 0xf6, 0x08, 0xfd, 0xfc, 0x08, 0xfe, 0xfe, 0xf9,
  0x02, 0x06, 0xfb, 0x01, 0xfe, 0xfd, 0xfd, 0x01, 0x06, 0x03, 0xff, 0xf2,
  0xfb, 0xf5, 0xfd, 0x01, 0xfd, 0xf5, 0xfb, 0xf7, 0xf2, 0xfe, 0x07, 0xfd,
  0x02, 0xf6, 0xfe, 0x01, 0x0a, 0x00, 0xfa, 0x05, 0xfe, 0x00, 0x04, 0x04,
  0xf1, 0x08, 0xf8, 0xf9, 0xff, 0xfd, 0xf9, 0x01, 0x05, 0x01, 0xf8, 0xf9,
  0x04, 0x01, 0xff, 0x09, 0xf6, 0x0a, 0xf8, 0x02, 0xf3, 0x04, 0xf6, 0xff,
  0xfe, 0x05, 0xf5, 0xfa, 0xff, 0xf9, 0xfe, 0x0a, 0xf7, 0xf9, 0xf9, 0xfa,
  0xfa, 0x03, 0xf9, 0xfe, 0x03, 0xf7, 0x03, 0xf8, 0x00, 0xf0, 0xf2, 0x05,
  0xfe, 0x04, 0x02, 0xf8, 0xfb, 0x06, 0xf7, 0xff, 0x02, 0xfc, 0x07, 0xfd,
  0x03, 0x0c, 0xfe, 0xfd, 0xf8, 0xf5, 0x08, 0x04, 0x06, 0x07, 0x00, 0xfc,
  0xf7, 0xfb, 0x02, 0xf4, 0xf0, 0xf8, 0xf6, 0xfc, 0xf2, 0x08, 0xfc, 0xf8,
  0x00, 0xf8, 0x05, 0xf6, 0x00, 0x02, 0x05, 0xfc, 0x05, 0xfe, 0xf7, 0xf9,
  0x09, 0x03, 0x09, 0x00, 0x02, 0x0a, 0x00, 0x08, 0xfb, 0xf3, 0xfb, 0x09,
  0x01, 0x0b, 0x0a, 0xf9, 0xf8, 0xf5, 0xfe, 0xf9, 0xff, 0xfc, 0xf9, 0xff,
  0x02, 0xfa, 0xfe, 0x01, 0xff, 0x00, 0x08, 0x04, 0xff, 0xf7, 0xf4, 0xf9,
  0x08, 0x01, 0x07, 0x01, 0xf6, 0xf6, 0xfe, 0x03, 0xfd, 0xf0, 0xf4, 0xfa,
  0xf5, 0x08, 0xf7, 0xfe, 0xfb, 0xfc, 0xff, 0xfe, 0xfc, 0x04, 0x0a, 0x00,
  0xf8, 0x05, 0xf3, 0x02, 0x06, 0xff, 0x07, 0xfc, 0x08, 0x01, 0xf7, 0xfc,
  0xf4, 0xfd, 0x0a, 0x0d, 0xf9, 0xff, 0xf8, 0x0b, 0x00, 0xd8, 0xed, 0xc5,
  0x10, 0x06, 0x07, 0xd1, 0x21, 0xe4, 0x18, 0x0e, 0xfa, 0x1c, 0xf5, 0x0a,
  0xf8, 0xf7, 0xe8, 0xf0, 0xfa, 0x0f, 0x0d, 0xe7, 0x11, 0x07, 0x0b, 0xf6,
  0xed, 0x0b, 0xe7, 0x09, 0x0b, 0x0e, 0xe3, 0xed, 0x03, 0x1d, 0x25, 0xed,
  0x11, 0x08, 0xfc, 0x09, 0xe7, 0x15, 0xea, 0x09, 0x02, 0xfe, 0xe2, 0xe5,
  0xeb, 0x16, 0xfe, 0xdf, 0x09, 0x15, 0x0a, 0x0f, 0xf3, 0x18, 0xd9, 0xff,
  0x10, 0xfc, 0xe8, 0xe7, 0xe6, 0x23, 0xe9, 0xf1, 0x1e, 0x20, 0x16, 0x20,
  0x08, 0x0e, 0xd3, 0x05, 0xf8, 0xff, 0xee, 0x05, 0xe9, 0x0a, 0x11, 0xe9,
  0x26, 0x08, 0x0d, 0x10, 0xf9, 0x01, 0xd3, 0x1a, 0x0e, 0xf1, 0xd7, 0xf8,
  0xf4, 0x1a, 0x02, 0xda, 0x1b, 0x01, 0x03, 0x20, 0xfb, 0xfc, 0xda, 0x0d,
  0x0a, 0xf7, 0xe1, 0xdc, 0xf4, 0x14, 0xfa, 0xde, 0x27, 0x12, 0x0b, 0x14,
  0x09, 0x00, 0xe4, 0x04, 0x17, 0xf0, 0xd1, 0x02, 0x05, 0x0a, 0xee, 0xdd,
  0x15, 0x04, 0x02, 0x24, 0x01, 0xff, 0xdc, 0xff, 0x23, 0xfb, 0xe7, 0xe2,
  0x0e, 0x09, 0x1a, 0xea, 0x03, 0x04, 0xef, 0x0a, 0xec, 0xf2, 0xdf, 0xfd,
  0xfc, 0xf2, 0xee, 0xd5, 0x0f, 0x08, 0xfe, 0xe1, 0x16, 0x00, 0xfc, 0x01,
  0xda, 0xfa, 0xdc, 0x03, 0x14, 0xee, 0xe6, 0xda, 0x0b, 0x0d, 0x12, 0xe5,
  0x18, 0x09, 0x11, 0x04, 0xe7, 0xf5, 0xe7, 0x00, 0x0b, 0xdd, 0xdd, 0xd2,
  0x0d, 0x07, 0x13, 0xe1, 0x0c, 0x12, 0xfc, 0x06, 0xfd, 0x12, 0xd8, 0x00,
  0x0b, 0xe3, 0xfe, 0xe1, 0x10, 0x0d, 0x1f, 0xde, 0x09, 0xfd, 0xf3, 0xfb,
  0xf7, 0xfa, 0xeb, 0xe9, 0x08, 0xea, 0x0e, 0xd3, 0x07, 0x19, 0x2d, 0xd7,
  0x1f, 0x07, 0x02, 0xfa, 0x04, 0x24, 0xe1, 0x02, 0xfe, 0xd7, 0x12, 0xef,
  0x13, 0x14, 0x22, 0xda, 0x05, 0xfa, 0xef, 0xf8, 0xfc, 0x0e, 0xe7, 0x0c,
  0xf9, 0xe7, 0xfa, 0xf5, 0xf8, 0xff, 0x29, 0xd6, 0x03, 0xff, 0xf3, 0x11,
  0x05, 0x20, 0xdf, 0x00, 0x09, 0xf1, 0xfe, 0x04, 0x0a, 0x01, 0x0c, 0xc8,
  0x01, 0xfc, 0xf3, 0xff, 0x14, 0x13, 0xd8, 0xf8, 0xfc, 0x04, 0x10, 0x05,
  0x07, 0x06, 0x22, 0xdf, 0x07, 0x06, 0xfa, 0x0c, 0x08, 0x28, 0xd8, 0x06,
  0xf8, 0xfd, 0x07, 0xff, 0x17, 0xff, 0x17, 0xd3, 0xff, 0xe4, 0xfb, 0xe5,
  0xfb, 0xfb, 0xd9, 0xfd, 0x04, 0x15, 0x16, 0xe6, 0x15, 0xfb, 0x25, 0xe2,
  0xfb, 0xee, 0xec, 0xf1, 0x00, 0x01, 0xd4, 0xea, 0xfa, 0x06, 0x26, 0x03,
  0x1d, 0x07, 0x1f, 0xe0, 0x03, 0x01, 0xf0, 0xf4, 0x08, 0x19, 0xdd, 0xf1,
  0xf3, 0x0f, 0x20, 0xfd, 0x1f, 0xf2, 0x19, 0xe0, 0xf0, 0xed, 0xfb, 0xf1,
  0xf6, 0x33, 0xdc, 0xfd, 0xf6, 0x0b, 0x1d, 0xef, 0xf3, 0xf9, 0x17, 0xe6,
  0x00, 0xf6, 0x01, 0xe3, 0x0d, 0x03, 0xfe, 0xfc, 0xfc, 0x09, 0x04, 0xff,
  0x05, 0x07, 0x03, 0xe0, 0x02, 0xfc, 0x03, 0xe1, 0xed, 0xfa, 0x00, 0xe8,
  0xff, 0xf6, 0xfc, 0x04, 0x15, 0x01, 0x18, 0xf0, 0xf5, 0xff, 0xff, 0xe5,
  0xee, 0x03, 0x00, 0xfb, 0xdf, 0xfc, 0x0a, 0xf9, 0x07, 0x0c, 0x0c, 0xf3,
  0x00, 0x0f, 0x0b, 0xee, 0xf0, 0x05, 0xf2, 0xe3, 0x00, 0x04, 0xfd, 0xfa,
  0x08, 0xf6, 0x14, 0xee, 0xfd, 0xf5, 0x13, 0xf9, 0xf2, 0x12, 0xeb, 0xee,
  0x02, 0xff, 0x09, 0xfa, 0x07, 0xf6, 0x12, 0xe5, 0xef, 0x14, 0x13, 0xdb,
  0xf3, 0xdc, 0xf9, 0xee, 0xef, 0xf0, 0x0b, 0x02, 0x0f, 0xf3, 0x07, 0x03,
  0xfc, 0x0a, 0x05, 0xe2, 0xe1, 0xe0, 0xf2, 0xf4, 0xf5, 0x02, 0x07, 0xfb,
  0x24, 0x0d, 0x14, 0xf2, 0xf9, 0xff, 0x10, 0xfc, 0xde, 0xeb, 0xf3, 0xff,
  0xfc, 0xfc, 0x05, 0xf6, 0x1b, 0xff, 0x13, 0xf7, 0xef, 0x02, 0x0d, 0xfd,
  0xc3, 0xea, 0xe9, 0xde, 0x00, 0xf7, 0xea, 0xe5, 0x06, 0x13, 0x09, 0x16,
  0xec, 0x0b, 0x16, 0xf5, 0xdb, 0xe7, 0xf7, 0x0e, 0x0d, 0xe7, 0xee, 0xf3,
  0xf4, 0x17, 0x01, 0x0d, 0x01, 0x17, 0x19, 0xee, 0xd4, 0x10, 0x15, 0x16,
  0x12, 0xe2, 0xe4, 0x06, 0x09, 0x09, 0x08, 0x14, 0x01, 0x09, 0x1b, 0xeb,
  0xc9, 0xf9, 0x19, 0x12, 0x17, 0xe9, 0xf5, 0x15, 0x07, 0x06, 0x08, 0x13,
  0xf6, 0x02, 0xf9, 0xd4, 0xcd, 0x24, 0x0d, 0x08, 0x14, 0xd0, 0x05, 0xeb,
  0x09, 0x02, 0x0e, 0x16, 0xfe, 0x0e, 0xf5, 0xf5, 0xc0, 0x0c, 0x03, 0x02,
  0x17, 0xd2, 0xfb, 0xed, 0xfc, 0xf3, 0x1e, 0x16, 0xf6, 0x00, 0xef, 0xde,
  0xd1, 0xf8, 0x03, 0x13, 0x0a, 0xf0, 0x02, 0xea, 0x0b, 0x07, 0x12, 0x13,
  0xff, 0x02, 0xed, 0xe1, 0xe2, 0x0e, 0x10, 0x05, 0x0d, 0xe4, 0x10, 0xea,
  0x10, 0x10, 0x18, 0x13, 0x0e, 0x0b, 0xf8, 0xe8, 0xec, 0xff, 0x13, 0xfa,
  0x12, 0xf4, 0x05, 0xf0, 0x0d, 0xfa, 0x15, 0x11, 0xf6, 0xfd, 0x01, 0xf3,
  0x06, 0x17, 0x15, 0x15, 0x18, 0xd9, 0x0a, 0xf1, 0xf6, 0xee, 0x1b, 0x11,
  0xf6, 0xec, 0xde, 0xe0, 0xef, 0x1c, 0x09, 0x11, 0x1c, 0x02, 0x0d, 0xef,
  0xff, 0xf7, 0x06, 0x18, 0xfb, 0xf3, 0xf3, 0xe5, 0xf4, 0x01, 0x1b, 0xf2,
  0x02, 0xec, 0x0b, 0xe8, 0x16, 0xf5, 0xfa, 0x0d, 0xf8, 0xee, 0xd5, 0xfb,
  0xf6, 0x07, 0x18, 0x01, 0xf9, 0xee, 0x03, 0xec, 0x1d, 0xf9, 0xff, 0xfc,
  0x00, 0xeb, 0xec, 0x17, 0xfa, 0x08, 0x1c, 0xee, 0x05, 0xf4, 0x01, 0xe0,
  0xfa, 0xf8, 0x1f, 0x19, 0xf4, 0xf7, 0xeb, 0x0f, 0xf9, 0x02, 0x12, 0xf4,
  0xef, 0xf9, 0xf8, 0xfd, 0x1a, 0xef, 0x04, 0xff, 0xfb, 0xfb, 0xf3, 0xf5,
  0x04, 0x1f, 0x08, 0xfe, 0x01, 0xf6, 0xf8, 0xf7, 0xf8, 0xf2, 0xfc, 0x0a,
  0xf3, 0xe1, 0xdd, 0xea, 0x0b, 0xff, 0x18, 0xea, 0x02, 0xf0, 0xea, 0x11,
  0x02, 0xef, 0xea, 0x14, 0xf7, 0xec, 0xef, 0xe7, 0x0e, 0x13, 0x0f, 0xe4,
  0xec, 0x19, 0xfd, 0x09, 0xf8, 0xeb, 0x0d, 0x0a, 0xd6, 0xe6, 0xd0, 0xdd,
  0x26, 0x11, 0x0f, 0xe5, 0xf4, 0x1d, 0xec, 0x06, 0x05, 0xd8, 0xfb, 0x12,
  0xd4, 0xda, 0xc6, 0xd8, 0x08, 0xf6, 0x10, 0xeb, 0xe9, 0x37, 0xf7, 0x16,
  0xeb, 0xdb, 0xfa, 0x09, 0xd3, 0xd7, 0xd9, 0xe4, 0x25, 0xff, 0x0e, 0xe5,
  0xf4, 0x02, 0x08, 0xfd, 0x03, 0xe6, 0x07, 0x0b, 0xf1, 0xf0, 0xdf, 0xeb,
  0x0a, 0xfc, 0x09, 0x03, 0xea, 0xfd, 0x0b, 0xf6, 0xe9, 0xeb, 0x00, 0x24,
  0xf5, 0xea, 0xe2, 0xfb, 0x0d, 0xea, 0x03, 0xea, 0xfd, 0x0c, 0x07, 0xed,
  0xe2, 0xe7, 0xf5, 0x19, 0xf7, 0xfe, 0xd5, 0xf6, 0x11, 0xfa, 0x21, 0x00,
  0xee, 0xf4, 0x02, 0xf3, 0xf5, 0xeb, 0xfc, 0x15, 0xfa, 0xe9, 0xdf, 0xe4,
  0x04, 0xe8, 0x0d, 0xdd, 0xe9, 0xf5, 0x03, 0xf0, 0x0a, 0xfa, 0xfc, 0x1a,
  0x0a, 0xe4, 0xf3, 0xef, 0x07, 0x09, 0xfd, 0xe9, 0xf1, 0xfe, 0x17, 0xf6,
  0xf5, 0xdf, 0xf7, 0x09, 0xf7, 0xdb, 0xe6, 0xeb, 0x0a, 0x03, 0x05, 0xdd,
  0xe8, 0xe5, 0x09, 0xff, 0xf3, 0xd8, 0xf0, 0x0c, 0xef, 0xe9, 0xee, 0xda,
  0x07, 0x0c, 0xfb, 0xd8, 0xe8, 0xf6, 0x1e, 0x0c, 0x02, 0xd3, 0xf5, 0x0d,
  0xf0, 0xd8, 0xec, 0xd7, 0x05, 0x13, 0x0d, 0xe1, 0xe4, 0xfb, 0x18, 0xfb,
  0xe1, 0xc4, 0xfa, 0x14, 0xe4, 0xd4, 0xd9, 0xd1, 0x18, 0x26, 0x04, 0xeb,
  0xeb, 0x14, 0x00, 0x13, 0xf1, 0xbf, 0xf5, 0x00, 0xc7, 0xda, 0xdd, 0xdb,
  0x28, 0x20, 0x05, 0xfd, 0xe2, 0x24, 0x13, 0x1b, 0xf8, 0xb2, 0xf8, 0x02,
  0xa7, 0xb1, 0xca, 0xe3, 0x31, 0x04, 0x05, 0x07, 0xe4, 0x37, 0x2f, 0x11,
  0xe1, 0xac, 0xff, 0xfe, 0xbe, 0xc7, 0xdb, 0xe6, 0x12, 0x0d, 0x04, 0xff,
  0xe3, 0x20, 0xfe, 0x0c, 0xfd, 0xb7, 0x02, 0x0b, 0xcc, 0xdb, 0xe9, 0xea,
  0x0f, 0xe1, 0x0a, 0xfd, 0xf4, 0x0b, 0xe9, 0x08, 0xe5, 0xe1, 0x14, 0x09,
  0xd7, 0xee, 0xea, 0xf5, 0x0b, 0xe3, 0x0a, 0xe7, 0xf4, 0xf5, 0xec, 0x09,
  0xec, 0xea, 0x12, 0x13, 0xf2, 0xf7, 0xf4, 0xe2, 0x06, 0xfe, 0x15, 0xef,
  0xfc, 0x05, 0xef, 0xf7, 0xef, 0x12, 0x03, 0x21, 0x00, 0x04, 0x01, 0xe6,
  0xf3, 0xe5, 0x0d, 0xdb, 0xec, 0xfe, 0xd6, 0xf8, 0x07, 0x01, 0xec, 0x09,
  0xd1, 0xfa, 0x03, 0xe3, 0x06, 0xd1, 0x1d, 0xe4, 0xe2, 0x00, 0xdb, 0x00,
  0xe6, 0xe1, 0xe2, 0x0b, 0xf7, 0xf6, 0xf3, 0xeb, 0x05, 0x10, 0x09, 0xec,
  0xfe, 0x1d, 0xfb, 0x0d, 0xe9, 0xf0, 0xeb, 0xf9, 0xe2, 0xf4, 0xff, 0xea,
  0x0e, 0xe7, 0xfc, 0x03, 0xee, 0x1e, 0x01, 0x15, 0xeb, 0xeb, 0xec, 0x08,
  0xec, 0x0c, 0x27, 0xf0, 0x0e, 0xf3, 0x12, 0xf7, 0xfe, 0x19, 0xf1, 0x1c,
  0xff, 0x08, 0x02, 0x0c, 0xf0, 0xfb, 0x28, 0xf1, 0x0b, 0xf1, 0x0c, 0x05,
  0xfc, 0x00, 0xee, 0x07, 0x05, 0x19, 0xe7, 0x0f, 0x00, 0x0f, 0x31, 0xe3,
  0xfb, 0xf9, 0xfe, 0xee, 0xee, 0x23, 0xf2, 0x0c, 0xfb, 0x05, 0xf8, 0xff,
  0x06, 0x0a, 0x18, 0xe1, 0x08, 0xfd, 0x06, 0xf9, 0x0b, 0x11, 0x0a, 0x1c,
  0xef, 0x00, 0xf3, 0xfd, 0xfc, 0x05, 0x18, 0xd7, 0x0a, 0x0c, 0x0c, 0xf3,
  0xf5, 0x06, 0xe7, 0x17, 0x00, 0x17, 0xf1, 0xf7, 0xf2, 0x1a, 0x21, 0xde,
  0x10, 0xf5, 0xef, 0x03, 0xe5, 0x0e, 0xe1, 0x21, 0x0a, 0x17, 0xe7, 0xf0,
  0x05, 0x01, 0x14, 0xde, 0xe5, 0xec, 0xdb, 0x03, 0xdb, 0x07, 0xbd, 0x05,
  0xf0, 0x1a, 0xd5, 0xf8, 0x06, 0x0e, 0x1b, 0xe4, 0x0a, 0x0b, 0xcf, 0x0c,
  0xe7, 0x2e, 0xe1, 0x0d, 0xe8, 0x0b, 0xd0, 0xeb, 0x07, 0x16, 0x18, 0xf1,
  0x11, 0x02, 0xce, 0xfc, 0xc6, 0x1f, 0xd8, 0x1e, 0xfc, 0x04, 0xe6, 0xf1,
  0xf8, 0x04, 0x1b, 0xea, 0x00, 0xf2, 0xe9, 0xee, 0xc2, 0x1d, 0xe2, 0x0f,
  0xe8, 0x15, 0xda, 0xe8, 0xfb, 0x19, 0x1c, 0xf5, 0x13, 0xd5, 0xee, 0xe6,
  0xae, 0x06, 0xef, 0x13, 0x01, 0x16, 0x01, 0xf5, 0x2c, 0x26, 0x11, 0xe8,
  0x0d, 0x07, 0xfe, 0xf0, 0xc6, 0x21, 0xf0, 0x20, 0xf2, 0x1b, 0x04, 0xf0,
  0x19, 0x0f, 0x28, 0xfe, 0x15, 0x07, 0x00, 0xfe, 0xcd, 0x0f, 0xf3, 0x0b,
  0x20, 0x18, 0x0c, 0xf9, 0x15, 0x2a, 0x16, 0x0a, 0x2c, 0x13, 0x00, 0xfe,
  0x21, 0x1f, 0x07, 0x5b, 0x11, 0xfd, 0x07, 0x3e, 0xde, 0x15, 0x0a, 0x12,
  0x39, 0x04, 0x12, 0x01, 0x13, 0x08, 0x14, 0x6a, 0x05, 0xe5, 0xef, 0x29,
  0xe0, 0xee, 0x1d, 0x07, 0x2d, 0xec, 0x1e, 0x01, 0x1e, 0x0b, 0x0f, 0x62,
  0xfb, 0xf7, 0xf1, 0x28, 0xf0, 0xe3, 0xfe, 0xff, 0x37, 0xe7, 0x13, 0x07,
  0x27, 0x1f, 0xf4, 0x7f, 0x04, 0xe7, 0x00, 0x0f, 0xe7, 0xe1, 0x02, 0x09,
  0x46, 0xe2, 0x01, 0x14, 0x1b, 0x1f, 0xec, 0x73, 0x07, 0xea, 0xff, 0x13,
  0xe5, 0xe2, 0xee, 0x05, 0x33, 0xf1, 0xf9, 0x03, 0x20, 0x20, 0x04, 0x74,
  0xfe, 0xe1, 0xf0, 0x30, 0xe1, 0xef, 0x0d, 0x05, 0x2b, 0xe0, 0x02, 0x0b,
  0x12, 0x0d, 0x01, 0x6f, 0x0a, 0xe0, 0xf4, 0x31, 0xe8, 0x02, 0x06, 0x12,
  0x33, 0xd4, 0x06, 0x2b, 0x21, 0x0e, 0xea, 0x66, 0x1b, 0xda, 0xf3, 0x20,
  0xd7, 0xe2, 0xff, 0x2e, 0x30, 0xee, 0x0a, 0x13, 0x20, 0x0f, 0x00, 0x45,
  0x11, 0xe1, 0xde, 0x1f, 0xdd, 0xf2, 0x28, 0x13, 0x2c, 0xe4, 0x10, 0xff,
  0x15, 0x0d, 0xf5, 0x2c, 0x07, 0xed, 0xe0, 0x19, 0xe9, 0xfe, 0x09, 0x17,
  0x0f, 0xe5, 0x02, 0x22, 0x2a, 0x13, 0x0b, 0x08, 0x0e, 0xe3, 0xf0, 0x3a,
  0xef, 0xec, 0x1d, 0x23, 0x27, 0xe7, 0xed, 0x02, 0x26, 0x1a, 0x15, 0x04,
  0x06, 0xee, 0x04, 0x16, 0xf7, 0xea, 0x03, 0xfc, 0x2a, 0x00, 0xad, 0xfc,
  0x0d, 0x15, 0x1e, 0x10, 0xf3, 0x05, 0xfe, 0xe1, 0xce, 0xe5, 0x0e, 0xf0,
  0x29, 0xef, 0xb5, 0x00, 0x0e, 0x18, 0x0c, 0x21, 0x00, 0xfc, 0x07, 0xc5,
  0xdd, 0xed, 0xf7, 0xe4, 0x33, 0x10, 0x9e, 0x09, 0xfc, 0x15, 0x11, 0x1b,
  0x00, 0xec, 0xfd, 0xc8, 0xd8, 0xfa, 0xf4, 0x01, 0x26, 0x05, 0x9e, 0xd3,
  0xe0, 0x1b, 0x03, 0x0d, 0x0f, 0x03, 0xed, 0xf3, 0xdf, 0xe6, 0xf9, 0xed,
  0x0a, 0xec, 0xa2, 0xde, 0xca, 0x1f, 0x13, 0xfe, 0x0a, 0x01, 0xed, 0xe6,
  0xee, 0xf3, 0x13, 0xd0, 0xf4, 0xfd, 0xb2, 0xc0, 0xe7, 0x12, 0x0a, 0xe2,
  0xf6, 0x1e, 0xef, 0xdf, 0xf5, 0xf1, 0x14, 0xda, 0x01, 0x0b, 0xba, 0xdb,
  0xe0, 0x1b, 0x03, 0xef, 0x15, 0x05, 0xee, 0xe0, 0xf1, 0x03, 0x23, 0xe0,
  0xfd, 0xfa, 0xc3, 0xca, 0xeb, 0x11, 0x06, 0xe8, 0x22, 0x1f, 0xfe, 0xdf,
  0xf7, 0x15, 0x16, 0xe9, 0xf0, 0x18, 0xe8, 0xe2, 0xc9, 0x00, 0x17, 0xea,
  0x07, 0x13, 0xff, 0xe7, 0xf5, 0x02, 0x12, 0xf4, 0xe5, 0xef, 0xdf, 0xe9,
  0xe6, 0x09, 0x12, 0xdc, 0x0b, 0x0b, 0x10, 0xf6, 0x01, 0xf5, 0x16, 0xd1,
  0xf5, 0x05, 0xde, 0xec, 0xe3, 0xfc, 0x16, 0xde, 0x0b, 0x1d, 0x0e, 0xca,
  0x0d, 0x00, 0x01, 0xd3, 0xff, 0x03, 0xd0, 0xe6, 0xe6, 0x11, 0x14, 0xe8,
  0x19, 0x19, 0xfb, 0xe7, 0x08, 0xfe, 0x0e, 0xca, 0xeb, 0x0d, 0xd3, 0xef,
  0xe6, 0xfa, 0x06, 0x00, 0x0f, 0x16, 0x04, 0xd7, 0x10, 0x03, 0x15, 0xd8,
  0xfc, 0x15, 0xdd, 0xdf, 0xee, 0x0c, 0x1d, 0xfe, 0x20, 0x0a, 0x0f, 0xdb,
  0x03, 0x04, 0x02, 0xe3, 0xf9, 0x1d, 0xe7, 0xed, 0xe2, 0x15, 0x1d, 0xeb,
  0x13, 0x04, 0x12, 0xe3, 0xfc, 0x16, 0x13, 0xe0, 0xfa, 0x18, 0xdd, 0xee,
  0xf4, 0x1f, 0x0c, 0xf3, 0x1c, 0x0f, 0x0d, 0xea, 0xf3, 0xfd, 0x24, 0xec,
  0xf5, 0x02, 0xcc, 0x08, 0xe9, 0x1e, 0x0f, 0xe8, 0x05, 0x1a, 0x18, 0xf4,
  0x13, 0x0f, 0x1e, 0xf5, 0xe8, 0x13, 0xd5, 0xfc, 0xeb, 0x00, 0x14, 0xf1,
  0xfe, 0x18, 0x1d, 0xd9, 0x1f, 0x18, 0x22, 0xe9, 0x01, 0x1b, 0xd5, 0xf6,
  0xf9, 0x01, 0x09, 0xea, 0x15, 0x1a, 0x1a, 0xfa, 0x13, 0x21, 0x0e, 0xe2,
  0xf1, 0x1f, 0xe3, 0xe0, 0x09, 0xfd, 0x04, 0xf7, 0x04, 0x0c, 0xf7, 0xfe,
  0xfe, 0x16, 0xfe, 0xde, 0xf1, 0xf5, 0xf0, 0xde, 0x0d, 0x01, 0x09, 0xf8,
  0x1b, 0x00, 0xf9, 0xdb, 0xfb, 0xf5, 0x06, 0xe6, 0xfe, 0x16, 0xdf, 0xee,
  0xff, 0x0b, 0x03, 0x1b, 0x21, 0x00, 0x12, 0xda, 0x03, 0x0b, 0x08, 0xea,
  0x06, 0xf4, 0xc4, 0xeb, 0xed, 0xf8, 0x0f, 0x0e, 0x03, 0xf3, 0xff, 0xd6,
  0x0c, 0x17, 0x0d, 0xee, 0x09, 0x07, 0xde, 0xe9, 0x04, 0xf3, 0x06, 0xff,
  0xf8, 0x00, 0xf4, 0xe4, 0x19, 0x1c, 0x02, 0xd0, 0x02, 0x0d, 0x00, 0xf7,
  0xfe, 0xe3, 0x0d, 0xea, 0xe6, 0xf9, 0xf6, 0xf6, 0x10, 0x15, 0x24, 0xf5,
  0x04, 0x0a, 0x06, 0xea, 0x07, 0xe2, 0x18, 0xeb, 0xe9, 0x03, 0xfc, 0x13,
  0x1a, 0x0b, 0x20, 0xcc, 0xff, 0x04, 0xf3, 0xf9, 0x0d, 0xf1, 0x04, 0xf2,
  0x02, 0x1a, 0x05, 0x1d, 0x21, 0x1c, 0x25, 0xd7, 0xf9, 0x0d, 0x07, 0xf9,
  0x15, 0xf4, 0x1d, 0xdc, 0x04, 0xf9, 0x02, 0x1b, 0x0f, 0x01, 0xfa, 0xd7,
  0xf5, 0xfa, 0x04, 0x03, 0x13, 0xf5, 0x0d, 0xf9, 0x18, 0xf7, 0xe3, 0x0c,
  0x0b, 0x17, 0x00, 0xe8, 0x09, 0xed, 0xf3, 0x03, 0xfc, 0x00, 0x01, 0x02,
  0x1c, 0xee, 0xf1, 0x06, 0xfb, 0x02, 0x15, 0xf5, 0x0d, 0x17, 0xdd, 0xf2,
  0x13, 0xf9, 0x02, 0x0f, 0xf7, 0xfd, 0xf5, 0x0b, 0x2e, 0x16, 0xf8, 0xe2,
  0xf0, 0x05, 0xdb, 0x04, 0x0c, 0xe5, 0xf9, 0xf7, 0xf8, 0xf7, 0x07, 0xff,
  0x0d, 0x16, 0x11, 0xe5, 0x03, 0xf6, 0xd0, 0xf7, 0xfd, 0xe1, 0x0c, 0x01,
  0xfd, 0x11, 0x05, 0xf3, 0x03, 0x20, 0x0e, 0xec, 0x0f, 0x16, 0xf0, 0xf1,
  0xf6, 0xf4, 0x0d, 0x00, 0x0a, 0x0f, 0xfe, 0xf1, 0x0e, 0x07, 0x1a, 0xdd,
  0xff, 0x02, 0xdb, 0xf5, 0xd9, 0xf0, 0xfc, 0xed, 0x01, 0xf4, 0x08, 0x03,
  0xf9, 0x04, 0x08, 0xdb, 0x03, 0xee, 0xd2, 0xfa, 0xfc, 0xf9, 0x14, 0xec,
  0x03, 0x0e, 0x0d, 0xf7, 0x0c, 0xfa, 0x17, 0xd9, 0x00, 0x0f, 0xe5, 0xf7,
  0x0a, 0xe3, 0x01, 0xfc, 0xf8, 0xfd, 0x19, 0xfb, 0x00, 0x07, 0x13, 0xdb,
  0x01, 0x19, 0xe0, 0xe6, 0x10, 0xed, 0x02, 0x01, 0x0d, 0x0c, 0x00, 0xf6,
  0x15, 0x00, 0x20, 0xec, 0xfa, 0x25, 0xc7, 0xf6, 0xf0, 0xf5, 0x00, 0x01,
  0x05, 0x13, 0x09, 0xda, 0x0a, 0xf4, 0xf4, 0xe0, 0xf5, 0x15, 0xa2, 0xe4,
  0xfb, 0xe9, 0x01, 0xed, 0x02, 0x0a, 0x07, 0xd0, 0x10, 0x01, 0x06, 0xc5,
  0xfa, 0x13, 0xaf, 0x09, 0xfc, 0xea, 0x03, 0xdd, 0xeb, 0xfc, 0x0b, 0x01,
  0xfc, 0xec, 0xf5, 0xdf, 0xfb, 0x22, 0xce, 0x0c, 0x07, 0xef, 0x14, 0xed,
  0xfb, 0x08, 0x06, 0xf4, 0xfb, 0xed, 0x0a, 0xe5, 0xf8, 0x2f, 0xc1, 0x12,
  0xe9, 0xf3, 0xf2, 0xf5, 0xf6, 0x07, 0xfd, 0x03, 0xfc, 0xf4, 0x07, 0xe2,
  0xf0, 0x2d, 0xc6, 0x0e, 0x07, 0xe5, 0xf4, 0x09, 0xf3, 0xfe, 0x14, 0xfe,
  0x12, 0x03, 0xed, 0xe2, 0xf5, 0x15, 0xc0, 0xe6, 0xf8, 0xff, 0x03, 0x0b,
  0x06, 0x02, 0x0d, 0x0a, 0xf3, 0x0d, 0x07, 0xdb, 0xfc, 0x22, 0xbe, 0xf5,
  0x01, 0x01, 0xfa, 0xfb, 0x08, 0x00, 0x07, 0x03, 0xf4, 0xf6, 0x02, 0xd5,
  0xf9, 0x11, 0xb6, 0xf3, 0x0c, 0x08, 0xfe, 0xe9, 0x10, 0xf7, 0xf6, 0xee,
  0xf3, 0x04, 0x02, 0xd9, 0x0b, 0x06, 0xb6, 0xe7, 0xfb, 0x12, 0xf9, 0xf6,
  0x00, 0x0a, 0x06, 0xf0, 0xf2, 0xf9, 0x00, 0xdd, 0xfc, 0x28, 0xbd, 0xdc,
  0xeb, 0x04, 0xfb, 0xfb, 0x05, 0x07, 0x01, 0xdb, 0x06, 0x0b, 0x02, 0xd8,
  0xf2, 0x05, 0xae, 0xf4, 0x03, 0xf4, 0xff, 0xfa, 0x14, 0x09, 0x13, 0xf6,
  0x00, 0x0f, 0xfd, 0xe6, 0xed, 0x0f, 0xd1, 0xfe, 0xfa, 0xec, 0xfa, 0x00,
  0x04, 0xf9, 0x01, 0xf3, 0xff, 0x11, 0x0e, 0xf3, 0xed, 0x1c, 0xec, 0xe0,
  0x03, 0xef, 0xee, 0x00, 0xeb, 0x01, 0x04, 0xec, 0xee, 0x0f, 0x07, 0xec,
  0xfd, 0x0c, 0xda, 0xe0, 0x02, 0x0a, 0x00, 0x09, 0xff, 0x01, 0xfc, 0xf1,
  0x00, 0x17, 0x08, 0xf1, 0xf3, 0x2d, 0xd1, 0x00, 0xef, 0x08, 0x06, 0xf6,
  0xe1, 0x0a, 0xf0, 0xf7, 0x07, 0x0e, 0x0a, 0xeb, 0xf5, 0x10, 0xc9, 0xfd,
  0xff, 0x0f, 0xef, 0xf2, 0x00, 0x06, 0xf9, 0xee, 0xec, 0x09, 0x04, 0xe0,
  0xfa, 0xfb, 0xd9, 0xf9, 0xeb, 0x07, 0x02, 0x0a, 0xf9, 0xf7, 0xdf, 0x09,
  0xf1, 0xfb, 0x09, 0xdb, 0x09, 0x2d, 0xd3, 0xf6, 0x01, 0x14, 0x08, 0x00,
  0xed, 0xf9, 0xf9, 0xfd, 0x0d, 0xfb, 0x0c, 0xe4, 0x06, 0x3d, 0xbe, 0x02,
  0x0d, 0xf9, 0x13, 0xe9, 0xff, 0xf0, 0xf8, 0xf9, 0x01, 0x12, 0x04, 0xe7,
  0x03, 0x33, 0xc7, 0xef, 0x08, 0x08, 0xef, 0xea, 0xeb, 0xfe, 0xdb, 0xff,
  0x02, 0x0e, 0x09, 0xea, 0x05, 0x19, 0xcf, 0x04, 0x02, 0xf8, 0xfa, 0xd4,
  0x03, 0xfe, 0xf0, 0x10, 0x12, 0xfe, 0xfa, 0xef, 0xf9, 0x1b, 0xea, 0x05,
  0xf5, 0xf5, 0xeb, 0xe6, 0x08, 0xfb, 0xfa, 0xeb, 0x10, 0xe8, 0xed, 0x06,
  0x01, 0x0d, 0x14, 0xf6, 0xea, 0xfa, 0x00, 0xf8, 0x01, 0xfd, 0x08, 0xfc,
  0x08, 0xf7, 0x01, 0x08, 0x10, 0x17, 0xea, 0xfe, 0x02, 0xf5, 0x0e, 0xee,
  0xf0, 0xf8, 0x19, 0x03, 0x07, 0x05, 0xfd, 0x08, 0x16, 0x1e, 0xdc, 0x04,
  0x00, 0xed, 0x04, 0x15, 0xf5, 0xe5, 0x24, 0xe3, 0xed, 0xea, 0xf2, 0xec,
  0x09, 0x00, 0xdb, 0x00, 0x05, 0xf1, 0x07, 0x00, 0x0b, 0xee, 0x0c, 0xd9,
  0x0a, 0xf7, 0x11, 0xec, 0x06, 0x09, 0xe3, 0x01, 0x03, 0xf4, 0x09, 0x01,
  0x01, 0xf9, 0x17, 0x04, 0x1a, 0x0e, 0xfe, 0xe9, 0x12, 0x30, 0xc5, 0xed,
  0xfc, 0x01, 0x19, 0x0c, 0xfa, 0xe9, 0x0e, 0x06, 0x0a, 0x01, 0xfb, 0xf8,
  0x10, 0x03, 0xe0, 0xf4, 0xfa, 0xf4, 0x14, 0x06, 0x10, 0xeb, 0x0e, 0xff,
  0x07, 0x13, 0xf1, 0xef, 0x0e, 0x12, 0xd2, 0xf8, 0x00, 0xee, 0x0c, 0xfc,
  0xfc, 0xee, 0x1b, 0xeb, 0xf1, 0x17, 0xf2, 0xfe, 0x03, 0x0c, 0xe4, 0x08,
  0x02, 0xf0, 0x0f, 0x1f, 0x13, 0xf7, 0x25, 0xee, 0x0e, 0xfc, 0x0a, 0xf0,
  0x11, 0x27, 0xdf, 0xf8, 0x01, 0x07, 0x10, 0x0e, 0x30, 0xff, 0x19, 0xf5,
  0x07, 0x12, 0xf5, 0xf1, 0xf4, 0x0c, 0xe3, 0xeb, 0x05, 0xed, 0x18, 0x01,
  0x24, 0xe9, 0x3d, 0xf6, 0xfe, 0xe5, 0xd3, 0xf1, 0xdf, 0x07, 0xcb, 0x00,
  0xfa, 0xf3, 0x0d, 0xff, 0x0b, 0xfb, 0xfe, 0xeb, 0xfa, 0xd3, 0xd7, 0xd9,
  0x2d, 0x13, 0x11, 0x01, 0x08, 0x08, 0x2f, 0x1c, 0x44, 0x01, 0x1f, 0x0b,
  0x0e, 0x1d, 0x21, 0x09, 0x12, 0x05, 0x19, 0xf2, 0x05, 0x09, 0x20, 0xfa,
  0x25, 0x0f, 0x0f, 0x0d, 0x12, 0x1c, 0x37, 0xfc, 0x03, 0xf3, 0x08, 0xfd,
  0x01, 0xfd, 0x05, 0xe5, 0x39, 0x0c, 0x13, 0x0a, 0x0c, 0xfb, 0x15, 0x05,
  0xfa, 0xeb, 0x0a, 0xf5, 0x06, 0xf4, 0xfc, 0xf2, 0x1a, 0x01, 0x10, 0x0b,
  0x21, 0xee, 0xe1, 0x00, 0xf6, 0xe4, 0x10, 0xf9, 0x0c, 0x02, 0x09, 0xf2,
  0x32, 0xf6, 0x09, 0x06, 0x07, 0xfc, 0xe3, 0x03, 0xde, 0xe1, 0x18, 0xf4,
  0x01, 0xfb, 0xf4, 0xed, 0x18, 0xfb, 0x0a, 0x02, 0xf7, 0xfc, 0xf6, 0x0e,
  0xf0, 0xe4, 0x19, 0xf4, 0x04, 0xef, 0x09, 0x03, 0x06, 0xf5, 0x22, 0x13,
  0xfa, 0xfa, 0xf5, 0xfc, 0xf6, 0x01, 0x1d, 0xfd, 0x09, 0xe9, 0x13, 0x0e,
  0x10, 0xf7, 0x10, 0x02, 0xfb, 0xe2, 0xeb, 0xfd, 0xf0, 0xef, 0x16, 0xfa,
  0x0a, 0xe2, 0x2b, 0x03, 0x11, 0xf7, 0x19, 0xfe, 0xf1, 0xda, 0xe7, 0x0a,
  0xe3, 0xf5, 0x1b, 0x00, 0x07, 0xe6, 0x22, 0x0f, 0x17, 0xf5, 0x15, 0x00,
  0xf0, 0xf6, 0xff, 0xff, 0xfb, 0xe5, 0xf7, 0xff, 0x11, 0xfb, 0x11, 0x01,
  0x13, 0x01, 0x14, 0xfd, 0xf1, 0x02, 0x03, 0xfa, 0xf7, 0x06, 0x04, 0xf8,
  0x17, 0xef, 0x08, 0xfd, 0x01, 0x06, 0x1c, 0x0c, 0x2a, 0x05, 0x07, 0xfd,
  0xed, 0x09, 0x16, 0x03, 0x13, 0xf3, 0xf4, 0xff, 0x00, 0x06, 0x15, 0xfd,
  0x18, 0x0c, 0x1f, 0xff, 0xec, 0xff, 0x10, 0xf4, 0x11, 0x00, 0x07, 0x06,
  0xff, 0x0a, 0x03, 0x03, 0x16, 0x07, 0x16, 0x0a, 0xf7, 0x04, 0x08, 0x14,
  0x0f, 0xf9, 0x01, 0xe6, 0x0b, 0x09, 0x02, 0x06, 0x1b, 0x0d, 0x07, 0x11,
  0x03, 0x0c, 0xea, 0xf6, 0xf7, 0xf7, 0x05, 0xd5, 0xfd, 0x06, 0xfc, 0x00,
  0x07, 0x01, 0x0c, 0x0c, 0x17, 0xf9, 0xf9, 0xfc, 0xf6, 0xee, 0xf4, 0xe6,
  0xfd, 0xfd, 0x03, 0xfe, 0x07, 0xfc, 0x11, 0x04, 0xfa, 0xe1, 0xe4, 0xe8,
  0xf6, 0xfb, 0xfd, 0xce, 0xf8, 0xfe, 0x03, 0xf7, 0x02, 0xf0, 0xfc, 0xe8,
  0xff, 0xee, 0xe7, 0xfb, 0x04, 0x18, 0xfd, 0xf3, 0x06, 0x09, 0x0d, 0x06,
  0x00, 0xf7, 0x01, 0xf8, 0xe0, 0xfe, 0xfc, 0x02, 0xf2, 0x05, 0x1e, 0xdf,
  0x07, 0x0a, 0x02, 0x06, 0x07, 0xf2, 0xed, 0xfe, 0xd6, 0xf9, 0xf3, 0xea,
  0xeb, 0x0f, 0x06, 0xcd, 0x0a, 0x09, 0xf5, 0xf4, 0x02, 0x06, 0xf2, 0xe0,
  0xdd, 0x1b, 0xef, 0xf7, 0xf8, 0x07, 0xfd, 0xd3, 0x0c, 0xf9, 0x11, 0x00,
  0x09, 0x1d, 0x01, 0xed, 0xe3, 0x0c, 0xeb, 0x02, 0xf2, 0xf2, 0x0c, 0xc8,
  0x22, 0x0b, 0x0d, 0x04, 0xfb, 0x22, 0x02, 0xf1, 0xf3, 0x23, 0xde, 0xff,
  0xf3, 0x00, 0x0a, 0xdd, 0x0d, 0xef, 0xec, 0x06, 0xfb, 0x15, 0x1d, 0xda,
  0xe6, 0x11, 0xf0, 0x0a, 0x01, 0x08, 0x0a, 0xd2, 0x0d, 0xf0, 0xf5, 0xff,
  0xf3, 0xfd, 0x11, 0xf2, 0xd3, 0x17, 0xf2, 0xf6, 0xf3, 0xeb, 0x10, 0xdd,
  0xfb, 0x05, 0xfc, 0xfa, 0xfd, 0xfb, 0x16, 0xf4, 0xe6, 0x12, 0xfa, 0x06,
  0xf0, 0xe9, 0x08, 0xdc, 0x04, 0x06, 0xfd, 0xf8, 0x0a, 0xfd, 0x0a, 0xf2,
  0xe3, 0xf3, 0xf7, 0xfb, 0x02, 0xf2, 0x01, 0xd6, 0xf2, 0x04, 0xf9, 0xf7,
  0x0c, 0x06, 0x05, 0xe7, 0xc6, 0x12, 0xf9, 0xfc, 0xeb, 0xdd, 0xf9, 0xd8,
  0x10, 0x06, 0xf3, 0x0e, 0xfe, 0x16, 0x02, 0xe9, 0xd5, 0x1c, 0x0c, 0xf9,
  0xf8, 0xd9, 0xee, 0xd8, 0x0b, 0x1c, 0xfc, 0x0f, 0x14, 0xfc, 0x1e, 0x03,
  0xd5, 0xef, 0x10, 0x06, 0x01, 0xe8, 0xed, 0xce, 0x0b, 0x19, 0xeb, 0x12,
  0x10, 0x08, 0x03, 0x05, 0xdc, 0xfb, 0x10, 0x05, 0x0b, 0xdc, 0xe5, 0xd4,
  0x0f, 0xf9, 0xef, 0x0f, 0x01, 0x06, 0x01, 0xed, 0xf4, 0xff, 0x13, 0x06,
  0x19, 0xf1, 0x01, 0xe1, 0x10, 0xf6, 0xff, 0x0a, 0x05, 0x05, 0xfd, 0x05,
  0xe7, 0xfe, 0x05, 0x07, 0xfd, 0xed, 0x09, 0xe0, 0x0d, 0xfc, 0xf6, 0x0a,
  0xff, 0xfe, 0xfb, 0xfd, 0xf3, 0x10, 0x0d, 0xf4, 0x03, 0x05, 0xfa, 0xe1,
  0x10, 0xfd, 0xf4, 0x00, 0xf3, 0x07, 0x05, 0x04, 0xd8, 0x13, 0x03, 0x15,
  0x01, 0x01, 0xf1, 0xe4, 0x0c, 0xec, 0xf4, 0x09, 0x13, 0x10, 0xfd, 0xfd,
  0xce, 0xe2, 0x09, 0x13, 0x01, 0xda, 0xe6, 0xf3, 0x0d, 0x05, 0xf3, 0x08,
  0x15, 0x04, 0xf3, 0xfe, 0xce, 0xff, 0x11, 0x05, 0xf9, 0x02, 0x06, 0xe0,
  0x0b, 0x0d, 0xfe, 0x06, 0x08, 0x12, 0x03, 0xfc, 0xce, 0x0b, 0x08, 0x06,
  0x04, 0xda, 0xfd, 0xd7, 0x05, 0x02, 0x01, 0x0c, 0xff, 0x10, 0xf6, 0x01,
  0xd5, 0x01, 0x01, 0xff, 0x0a, 0xdd, 0xd9, 0xf3, 0x0e, 0x09, 0xfb, 0x0e,
  0x0a, 0x11, 0xfa, 0x0a, 0xac, 0x00, 0xff, 0x00, 0xf8, 0xd9, 0xd4, 0xe0,
  0x18, 0x09, 0x10, 0x1b, 0xfa, 0x15, 0x0c, 0xf9, 0xb4, 0x01, 0x12, 0x05,
  0x18, 0xda, 0xdd, 0xea, 0x0e, 0x00, 0xea, 0x0d, 0xfd, 0x20, 0x13, 0xf7,
  0xd6, 0xe6, 0xfe, 0xf8, 0x13, 0x03, 0xda, 0xee, 0x13, 0xff, 0xec, 0x18,
  0xfd, 0x0e, 0x07, 0x0f, 0xe7, 0x00, 0x0b, 0xfc, 0x1e, 0xfc, 0xe1, 0x04,
  0x22, 0x08, 0x01, 0x21, 0xf9, 0x0f, 0x22, 0x08, 0xdd, 0xee, 0x0d, 0x0b,
  0x0b, 0xe3, 0xd7, 0xf1, 0x12, 0x0a, 0x04, 0x22, 0x06, 0x04, 0x0c, 0xff,
  0xe4, 0x25, 0x12, 0x09, 0x15, 0xeb, 0xe2, 0xea, 0x03, 0x06, 0x08, 0x0f,
  0x04, 0x15, 0x09, 0x0b, 0xf8, 0x3f, 0x02, 0x04, 0x05, 0xd2, 0xdb, 0xea,
  0x04, 0x0d, 0x07, 0x22, 0xfc, 0x12, 0xe8, 0x0d, 0xfa, 0x11, 0x10, 0xf6,
  0x0c, 0xe4, 0xe2, 0xea, 0x12, 0xf9, 0xf3, 0x18, 0xf6, 0x01, 0x0a, 0x0b,
  0xeb, 0xfc, 0x0c, 0x00, 0x0c, 0xef, 0xeb, 0xf2, 0xfb, 0xf3, 0xef, 0x14,
  0xf9, 0x03, 0xfd, 0x01, 0xfe, 0x03, 0xfe, 0x10, 0x0b, 0xf8, 0xf3, 0xea,
  0xfb, 0x02, 0xfc, 0x0c, 0x03, 0x07, 0x0e, 0x02, 0xf1, 0xef, 0x08, 0xfc,
  0x06, 0xfd, 0xf3, 0xea, 0x0e, 0x01, 0xec, 0x0c, 0xf8, 0x04, 0xf2, 0x05,
  0xde, 0xfe, 0xf9, 0x03, 0xfc, 0xff, 0xe8, 0xf2, 0xf5, 0xfe, 0xf7, 0x0b,
  0xfd, 0x04, 0xfa, 0xf9, 0xe5, 0xf6, 0x03, 0x05, 0xed, 0x03, 0xc7, 0xe3,
  0xfe, 0xfc, 0xe8, 0x0f, 0x06, 0x04, 0x02, 0xf8, 0xe3, 0xf9, 0x08, 0x03,
  0xfa, 0xfe, 0xd7, 0xf0, 0x0a, 0x0d, 0xff, 0x09, 0x0a, 0xf8, 0xfc, 0xfa,
  0xf4, 0xec, 0x06, 0xff, 0x02, 0xf8, 0xd4, 0xe5, 0xff, 0x00, 0xfd, 0x0c,
  0xf4, 0x02, 0xf4, 0x10, 0xe7, 0xdd, 0x0b, 0x0c, 0x03, 0xf8, 0xe1, 0xf5,
  0xf7, 0xe4, 0x03, 0x05, 0xff, 0x05, 0xfe, 0xef, 0xe0, 0xdd, 0xfe, 0xfe,
  0xf9, 0xf5, 0xd4, 0x00, 0x0a, 0xed, 0x03, 0x00, 0x06, 0x0a, 0x0f, 0x07,
  0xe3, 0xe9, 0xfd, 0xf4, 0xf9, 0xeb, 0xe2, 0xf1, 0xff, 0xf7, 0xf5, 0x03,
  0x0a, 0x10, 0x12, 0x06, 0xe4, 0xe9, 0xff, 0x05, 0x00, 0xec, 0xf3, 0xf8,
  0x0a, 0xfc, 0x0a, 0x0a, 0x02, 0x09, 0x00, 0x01, 0xf1, 0xcd, 0x0e, 0xfb,
  0xf6, 0xfa, 0xcf, 0xf1, 0x06, 0xfd, 0xf3, 0x19, 0x03, 0x00, 0x06, 0x03,
  0xf5, 0xe6, 0xfe, 0xfe, 0x01, 0xef, 0xc4, 0x05, 0x22, 0xf8, 0x15, 0x15,
  0xef, 0x07, 0x04, 0xfa, 0xf0, 0xf8, 0x06, 0xf7, 0x0b, 0xfd, 0xd3, 0x03,
  0x16, 0x01, 0xf4, 0x10, 0xfd, 0x01, 0x0e, 0x03, 0x09, 0x08, 0x04, 0xf4,
  0x0e, 0xf3, 0xdf, 0xe4, 0x01, 0xf9, 0xf9, 0xff, 0xff, 0xff, 0x10, 0x1a,
  0xed, 0xe2, 0x0d, 0xf6, 0xfc, 0xe5, 0xd9, 0xe7, 0x08, 0xfb, 0xe6, 0x0e,
  0x0c, 0xf9, 0x05, 0x0d, 0xea, 0xed, 0x15, 0xf1, 0x01, 0xea, 0xde, 0xf0,
  0x08, 0xf6, 0xea, 0xf7, 0xf7, 0xf3, 0x04, 0xf6, 0xd9, 0xeb, 0x0c, 0xea,
  0xf9, 0xe6, 0xe1, 0xdf, 0xfd, 0xea, 0xe9, 0x0e, 0x13, 0xfe, 0xfb, 0xf2,
  0xe0, 0xdc, 0xfe, 0xf7, 0x01, 0xf1, 0xf7, 0xd6, 0xf2, 0xfc, 0x06, 0xfe,
  0x0e, 0xfe, 0x07, 0xff, 0xe5, 0x03, 0xf7, 0xef, 0xf6, 0x08, 0xff, 0xd9,
  0xfc, 0x0b, 0xfb, 0xf4, 0x1a, 0x1a, 0x04, 0xf3, 0xf6, 0xfb, 0xeb, 0xf0,
  0x03, 0xfe, 0x0b, 0xf3, 0xf7, 0x02, 0xfe, 0xf5, 0x11, 0x03, 0xfb, 0x0a,
  0xea, 0xf8, 0xe9, 0xe7, 0xfd, 0xed, 0xf0, 0xe7, 0x01, 0xff, 0x03, 0xfd,
  0x07, 0xee, 0xfb, 0x08, 0x02, 0xee, 0x02, 0x02, 0xf0, 0xe9, 0xe3, 0xf2,
  0x03, 0x0a, 0xf6, 0xfc, 0x11, 0x05, 0xfa, 0x04, 0x13, 0x05, 0xf8, 0x06,
  0xe0, 0xf5, 0xea, 0xf0, 0x0e, 0x12, 0xf4, 0x00, 0x26, 0x09, 0x08, 0x0b,
  0xf1, 0xee, 0x02, 0x0e, 0xe6, 0xfb, 0xe0, 0xf9, 0x05, 0xfe, 0xeb, 0x0a,
  0x09, 0x01, 0x02, 0x10, 0xf9, 0xf9, 0x05, 0xf9, 0xf5, 0x07, 0xdb, 0xef,
  0xf3, 0xfc, 0xf4, 0x00, 0x07, 0x03, 0xf7, 0xfe, 0x00, 0xf4, 0xf4, 0xf7,
  0xdf, 0x01, 0xee, 0xee, 0xf8, 0xfe, 0xec, 0x0d, 0x06, 0x15, 0xff, 0x07,
  0xfd, 0xfd, 0x01, 0xf5, 0xea, 0xfa, 0xec, 0xd5, 0xf3, 0x06, 0xfe, 0x15,
  0x13, 0x11, 0xf9, 0xf6, 0xf2, 0x13, 0xf8, 0xfe, 0xf9, 0xea, 0x03, 0xdf,
  0xff, 0x11, 0x06, 0x00, 0x12, 0x0a, 0x0b, 0x0c, 0xe7, 0x06, 0xfb, 0xf8,
  0x02, 0xeb, 0xf2, 0xe2, 0xfc, 0x13, 0x12, 0xfb, 0x15, 0x0e, 0xff, 0x05,
  0xf7, 0xff, 0x18, 0x01, 0x0f, 0xe5, 0x07, 0xf7, 0xf8, 0x08, 0x06, 0xf5,
  0x05, 0xfa, 0x08, 0x02, 0xd2, 0xe2, 0x0a, 0xfb, 0x28, 0xd5, 0xf1, 0xde,
  0x10, 0xfb, 0x01, 0x0c, 0x11, 0xfb, 0x03, 0xfb, 0xd7, 0x04, 0x1b, 0xf9,
  0x09, 0xdb, 0xf3, 0xd5, 0x07, 0x0a, 0x01, 0x0c, 0x15, 0x0f, 0x01, 0xf7,
  0xec, 0xea, 0x15, 0x0b, 0x17, 0xcf, 0xff, 0xdb, 0x0d, 0x14, 0x10, 0x00,
  0x1f, 0x10, 0x07, 0xf2, 0xf8, 0xf1, 0x03, 0xf6, 0x13, 0xdc, 0x04, 0xdf,
  0x0c, 0x12, 0x01, 0xff, 0x15, 0x1b, 0x05, 0x03, 0x06, 0xff, 0x07, 0x03,
  0x21, 0xe3, 0x0c, 0xdd, 0xfe, 0xff, 0x10, 0xfc, 0x0f, 0x10, 0x01, 0x0a,
  0x0b, 0x12, 0x22, 0x07, 0x27, 0x13, 0x16, 0x02, 0x16, 0xfe, 0x04, 0x09,
  0x17, 0x14, 0x02, 0x07, 0xf9, 0x08, 0xfd, 0xfe, 0x05, 0xfb, 0xf1, 0x08,
  0x06, 0xff, 0xf2, 0x00, 0xfc, 0xff, 0xf9, 0x06, 0xfe, 0xf9, 0xfe, 0xf9,
  0x04, 0x00, 0xfe, 0x0a, 0xf7, 0xf8, 0x00, 0x04, 0x03, 0x03, 0x05, 0xf7,
  0xf1, 0x03, 0xfa, 0x09, 0x06, 0x09, 0xf1, 0xfa, 0xfc, 0xfd, 0xf2, 0xf5,
  0xfc, 0xf6, 0xfb, 0x05, 0x03, 0xfe, 0x01, 0x00, 0x04, 0x02, 0xf9, 0xf6,
  0x09, 0x07, 0x01, 0x00, 0xf8, 0xfa, 0xfd, 0xfa, 0x00, 0xfc, 0xf4, 0xfc,
  0xfe, 0x07, 0xf2, 0xf8, 0x00, 0x08, 0x06, 0x05, 0x06, 0xfa, 0x03, 0x05,
  0xfa, 0xf7, 0x02, 0xff, 0xf8, 0x09, 0xfc, 0xfa, 0x05, 0xfb, 0xfb, 0x05,
  0x06, 0x04, 0xf4, 0xfb, 0xfa, 0x09, 0x09, 0xfb, 0xfb, 0xff, 0x02, 0xf7,
  0xf8, 0xff, 0x02, 0x08, 0xfe, 0xfe, 0x03, 0x00, 0xf5, 0x09, 0x00, 0x07,
  0xfb, 0xfe, 0xfa, 0xf8, 0xf8, 0x02, 0x02, 0xf6, 0xff, 0x08, 0x00, 0x09,
  0x07, 0x06, 0xff, 0x08, 0xf9, 0x00, 0xff, 0x08, 0xfc, 0xfa, 0x01, 0xf8,
  0xff, 0xfc, 0xfb, 0xf6, 0xff, 0x0a, 0xf8, 0xf5, 0xf6, 0xf4, 0xf4, 0x02,
  0x02, 0x01, 0xff, 0xf7, 0xf9, 0xf4, 0x04, 0x03, 0x07, 0xf7, 0x0a, 0x06,
  0xf9, 0xf8, 0xfb, 0xfc, 0xfe, 0xf9, 0xf2, 0x0a, 0x04, 0x07, 0x09, 0xfb,
  0x03, 0x05, 0xff, 0xf8, 0xf7, 0x02, 0x05, 0xfc, 0x00, 0xfb, 0x04, 0x0a,
  0xf4, 0xf4, 0x04, 0x01, 0xf6, 0x02, 0x09, 0xf8, 0x06, 0xf5, 0xf2, 0xf9,
  0xf6, 0xff, 0x08, 0x04, 0xfc, 0x01, 0xf5, 0xf5, 0xf8, 0xfb, 0x00, 0xf9,
  0x0a, 0x03, 0x00, 0xf6, 0xfc, 0x09, 0x05, 0xf5, 0xfd, 0x01, 0x07, 0x05,
  0xfa, 0x02, 0x02, 0xfa, 0xf5, 0x04, 0x06, 0x09, 0xf7, 0xf8, 0x00, 0xf5,
  0x01, 0xfd, 0xfa, 0xf9, 0xf4, 0xfc, 0xf8, 0x01, 0x0a, 0x07, 0xf8, 0xf9,
  0xf7, 0xfa, 0x05, 0xfe, 0xfa, 0xfd, 0x01, 0x00, 0xf5, 0x07, 0x01, 0xfe,
  0x02, 0xfe, 0x01, 0x08, 0x05, 0x06, 0x08, 0xf4, 0x09, 0xf5, 0xfb, 0xff,
  0xff, 0x03, 0x06, 0x03, 0x03, 0xfb, 0xf5, 0xfb, 0x04, 0xf4, 0xf5, 0xf7,
  0x0a, 0xff, 0x03, 0x08, 0xfb, 0xfc, 0xfc, 0x05, 0xfb, 0xfb, 0x06, 0x00,
  0xf4, 0x00, 0xf9, 0x07, 0x06, 0xfa, 0xf5, 0xf4, 0xf8, 0x05, 0x03, 0x07,
  0xfa, 0x05, 0xfe, 0xfc, 0xfb, 0xf9, 0xf8, 0x03, 0x05, 0xf8, 0xfb, 0xf9,
  0xfd, 0xf7, 0xfc, 0xfd, 0xf7, 0xf6, 0xf8, 0x08, 0x0a, 0xf9, 0x03, 0xfb,
  0x06, 0xfa, 0xf8, 0x04, 0x03, 0xfd, 0xf8, 0xf7, 0xf5, 0xfe, 0x05, 0x07,
  0x00, 0x02, 0xfe, 0xfd, 0x02, 0xfa, 0xf9, 0x00, 0xfc, 0x06, 0x02, 0xff,
  0xf6, 0xfe, 0xfd, 0xfb, 0x02, 0xf9, 0xfd, 0xff, 0x03, 0xfc, 0x04, 0x05,
  0x04, 0xf6, 0xfe, 0x07, 0xfa, 0x09, 0xfd, 0xfa, 0xf8, 0x03, 0x04, 0x03,
  0x01, 0x04, 0xf5, 0xfb, 0xfb, 0x01, 0x05, 0xf7, 0xf7, 0xfc, 0x00, 0xf5,
  0xf6, 0xfb, 0x05, 0x00, 0x00, 0x00, 0xfd, 0xf8, 0xf4, 0x08, 0x03, 0x07,
  0x03, 0x08, 0xfe, 0xfa, 0xfc, 0xf8, 0xf6, 0xfb, 0xf2, 0xfb, 0xfb, 0xf8,
  0x01, 0x00, 0x02, 0xfd, 0xf5, 0xf6, 0xf7, 0xfe, 0xfb, 0x06, 0x03, 0xff,
  0x02, 0x05, 0x02, 0xff, 0x04, 0xf9, 0x04, 0xf6, 0x01, 0x07, 0xf8, 0x03,
  0x09, 0x07, 0x08, 0xff, 0xfc, 0xf8, 0x07, 0x07, 0xfe, 0x09, 0xfc, 0xff,
  0x05, 0xfd, 0x08, 0xfb, 0xfa, 0xff, 0x09, 0x06, 0x07, 0xfe, 0x02, 0xfa,
  0x02, 0xfc, 0xfe, 0xff, 0x02, 0x08, 0x0a, 0x03, 0x01, 0x04, 0x04, 0xfd,
  0xf6, 0x04, 0x08, 0x03, 0xfa, 0x0b, 0x08, 0x03, 0xfb, 0x02, 0xf6, 0xff,
  0x04, 0x02, 0xfd, 0xfa, 0x06, 0x0a, 0x02, 0xf9, 0xf7, 0x07, 0x00, 0x06,
  0x08, 0x00, 0x06, 0x03, 0xfa, 0xfd, 0xf5, 0x03, 0x05, 0xff, 0x09, 0xf4,
  0xf3, 0x0a, 0xfd, 0xfc, 0xfc, 0xf6, 0x02, 0xf6, 0x09, 0x02, 0xf5, 0x07,
  0xf7, 0xfe, 0xf4, 0x03, 0x01, 0xf9, 0xf6, 0xfe, 0xf9, 0x07, 0xfe, 0x09,
  0xfc, 0x09, 0xf4, 0xfc, 0xf4, 0xf8, 0xf6, 0xfc, 0xf5, 0x07, 0x05, 0xff,
  0x05, 0xf8, 0x04, 0x07, 0x01, 0xf8, 0xff, 0x0a, 0x09, 0xfa, 0x00, 0xf7,
  0x01, 0x05, 0x0a, 0xfd, 0x02, 0x07, 0xff, 0xfc, 0xfc, 0x03, 0xfb, 0xf5,
  0xfa, 0xfd, 0xf9, 0xff, 0x05, 0xf6, 0xf7, 0xfe, 0x05, 0x01, 0x06, 0xfd,
  0xfc, 0xfb, 0xf6, 0xfa, 0x00, 0xff, 0x06, 0xf6, 0xf4, 0xf7, 0x02, 0x0a,
  0x08, 0xfd, 0xfc, 0x05, 0x09, 0x09, 0xfd, 0xfc, 0x02, 0xf6, 0x06, 0xfe,
  0xfc, 0x0b, 0xfc, 0xf9, 0xfe, 0x04, 0x02, 0xfa, 0xf6, 0xfc, 0xf5, 0xf7,
  0xf4, 0xfd, 0xf9, 0xfb, 0x02, 0xf7, 0xf9, 0x07, 0xf3, 0xf9, 0xff, 0xf6,
  0x07, 0xfe, 0x01, 0xfc, 0xf3, 0x06, 0xff, 0xff, 0xf7, 0xf7, 0x06, 0xfe,
  0xf8, 0x04, 0x00, 0xf6, 0xf7, 0xf9, 0x02, 0x0a, 0x08, 0xfa, 0xf5, 0xf9,
  0xf2, 0x07, 0x02, 0x00, 0xff, 0x00, 0xf5, 0x07, 0xf7, 0x00, 0xfd, 0x03,
  0x05, 0xf9, 0x00, 0x09, 0x08, 0x04, 0xfb, 0x02, 0x02, 0xf9, 0xf8, 0x09,
  0xf9, 0x08, 0xfc, 0x04, 0x01, 0xf3, 0xff, 0x08, 0xfe, 0x0a, 0x03, 0x04,
  0x01, 0xf7, 0x03, 0x00, 0x08, 0x03, 0xf7, 0xf9, 0x07, 0xf3, 0xfb, 0xf9,
  0x06, 0xfa, 0xff, 0xf9, 0x08, 0x09, 0x08, 0xfa, 0x00, 0xfc, 0x06, 0x08,
  0xfa, 0xfe, 0x04, 0xfb, 0x03, 0x08, 0xfb, 0x03, 0x08, 0xfc, 0xfb, 0xfe,
  0xf8, 0x07, 0xfc, 0xff, 0x00, 0xff, 0xf9, 0x08, 0xf5, 0x05, 0x0a, 0xf4,
  0x03, 0x01, 0xf5, 0x02, 0xf7, 0x01, 0xf4, 0xf4, 0xf2, 0xf5, 0xff, 0xfd,
  0x05, 0xfc, 0xfc, 0xf9, 0x06, 0xfe, 0x00, 0xf6, 0x05, 0xf7, 0xfa, 0xfd,
  0x04, 0xfe, 0xf8, 0x08, 0x02, 0x00, 0x02, 0x04, 0xf2, 0xf8, 0xf8, 0x09,
  0xff, 0xf8, 0x09, 0x05, 0xf6, 0xf6, 0xfa, 0x04, 0xfb, 0xfe, 0x03, 0x09,
  0xfd, 0xfb, 0xf2, 0xf7, 0xff, 0x04, 0xff, 0x00, 0xf4, 0x05, 0x01, 0xfc,
  0x02, 0x03, 0xf4, 0x03, 0xf7, 0xf3, 0xfe, 0xfe, 0x08, 0xfe, 0x06, 0x04,
  0xfb, 0x01, 0x05, 0x05, 0x05, 0x06, 0xfc, 0xfa, 0xfe, 0xf8, 0xfc, 0xf8,
  0x04, 0xfe, 0xff, 0x04, 0x06, 0xfb, 0x07, 0xf3, 0x00, 0xf7, 0xf9, 0xf4,
  0xf9, 0x04, 0x01, 0x04, 0xf4, 0x03, 0xfb, 0xff, 0x01, 0x06, 0x09, 0xf6,
  0x05, 0xfa, 0x09, 0xfd, 0x04, 0xfe, 0xf9, 0xf6, 0x01, 0x01, 0x06, 0x01,
  0xfc, 0xfd, 0x06, 0x00, 0xf9, 0x05, 0x08, 0x08, 0x03, 0x01, 0xfd, 0x02,
  0xf6, 0xfe, 0x04, 0x08, 0x06, 0xf7, 0xff, 0xf9, 0x02, 0x08, 0xf7, 0x07,
  0xff, 0xf5, 0x0a, 0x05, 0xfc, 0x07, 0x03, 0x09, 0xf8, 0xfd, 0xfd, 0x08,
  0xfd, 0xf5, 0xff, 0x05, 0xfd, 0x06, 0x05, 0xf7, 0xfa, 0xfc, 0x00, 0xfd,
  0x02, 0xfa, 0xf7, 0x07, 0x03, 0x05, 0xf3, 0x03, 0x09, 0x0a, 0x01, 0xfe,
  0xfb, 0x07, 0xf8, 0x0a, 0x03, 0x0a, 0x07, 0xfb, 0xfa, 0x05, 0xfd, 0xf6,
  0xfb, 0x02, 0xf3, 0xf4, 0x00, 0xfa, 0xf6, 0xff, 0x05, 0xff, 0x05, 0xfd,
  0xfc, 0xfd, 0x05, 0x05, 0x00, 0x00, 0xf7, 0xfc, 0x05, 0xf9, 0xfd, 0xfa,
  0x04, 0x08, 0xfb, 0xfe, 0xf1, 0x00, 0x00, 0x06, 0x01, 0xfd, 0xf3, 0x08,
  0xfb, 0x00, 0x08, 0xf6, 0xfc, 0xf8, 0xfe, 0xf5, 0x03, 0x09, 0x09, 0xf8,
  0x01, 0xfa, 0xf2, 0x08, 0x06, 0xf5, 0xfc, 0xf9, 0xf4, 0xf4, 0xfa, 0xf6,
  0x07, 0xfa, 0x01, 0x07, 0xfd, 0x06, 0x03, 0xf9, 0xfc, 0xf9, 0xff, 0xfc,
  0xfb, 0xf4, 0x0a, 0x03, 0xf2, 0xf9, 0xff, 0xf3, 0x05, 0x06, 0x00, 0xff,
  0x04, 0xff, 0xfe, 0xf8, 0x01, 0xf7, 0xfb, 0xfa, 0xf5, 0x0b, 0xf5, 0xf5,
  0xff, 0xfa, 0xff, 0xfb, 0xfd, 0x04, 0x07, 0x05, 0xfa, 0x08, 0xff, 0x06,
  0xfc, 0xf8, 0xf7, 0xfd, 0xfd, 0xf2, 0x01, 0xf8, 0xfa, 0xfb, 0x02, 0x06,
  0xfc, 0x02, 0xf9, 0xfc, 0xf5, 0x05, 0x08, 0x02, 0xfa, 0x07, 0x00, 0xf9,
  0x02, 0xfb, 0xfe, 0x00, 0x08, 0xfb, 0xf8, 0xfb, 0x05, 0xf9, 0x03, 0xfc,
  0xf8, 0xf3, 0xfc, 0xf4, 0x0a, 0xf4, 0xf1, 0xfc, 0xf9, 0xf7, 0xf5, 0x07,
  0xfd, 0xf5, 0xfb, 0xff, 0x03, 0xff, 0x02, 0x05, 0xf3, 0x03, 0x02, 0x06,
  0x09, 0xf4, 0xff, 0xf5, 0xfa, 0x08, 0xf8, 0xfc, 0xf4, 0xfd, 0x04, 0xf9,
  0xfa, 0xf4, 0x06, 0xf6, 0x03, 0xf4, 0xfb, 0x07, 0xf4, 0xfa, 0x03, 0xf3,
  0x03, 0x07, 0xf4, 0xf8, 0xf6, 0xfc, 0x00, 0xfb, 0x06, 0xfb, 0x06, 0x09,
  0x01, 0xfc, 0x08, 0x03, 0x02, 0x07, 0xf1, 0xfb, 0xf8, 0x02, 0xfa, 0x03,
  0xf9, 0x07, 0xf6, 0x04, 0x05, 0xfc, 0xf5, 0xfc, 0x00, 0x07, 0xfc, 0xfe,
  0xfd, 0xf6, 0xfe, 0xfa, 0xf9, 0xf4, 0x07, 0xf4, 0x02, 0x07, 0x07, 0x05,
  0xf4, 0xfa, 0xfc, 0xfc, 0xfd, 0xfa, 0x07, 0xf5, 0x06, 0x01, 0xfa, 0xf7,
  0xf7, 0xf4, 0x02, 0x0a, 0x06, 0xff, 0x03, 0xf8, 0xf6, 0xf7, 0xfd, 0x06,
  0xfc, 0xf5, 0xf7, 0x03, 0x09, 0xfe, 0xff, 0x08, 0xf4, 0xfa, 0x08, 0x02,
  0xf6, 0xfa, 0xfc, 0xf7, 0xfe, 0x01, 0x05, 0x08, 0xfd, 0xf8, 0x01, 0x01,
  0xf7, 0xfa, 0x04, 0x06, 0xf4, 0xf8, 0x08, 0xff, 0xf9, 0xfa, 0x06, 0xf6,
  0xff, 0x03, 0xfc, 0xfc, 0x02, 0x07, 0xf4, 0x08, 0xfa, 0x07, 0xef, 0xf8,
  0x03, 0x07, 0x04, 0xfb, 0xf7, 0xfc, 0x08, 0xf8, 0x05, 0x03, 0x07, 0xfc,
  0x00, 0xfe, 0x00, 0x01, 0x02, 0xf3, 0x09, 0x03, 0x05, 0xfe, 0x07, 0xf4,
  0xf9, 0xf9, 0x03, 0xfb, 0xf8, 0xf4, 0xfc, 0x03, 0x09, 0xfe, 0xfb, 0xfb,
  0xfa, 0x0b, 0x05, 0x01, 0xf8, 0xfe, 0xfa, 0x06, 0xfe, 0xff, 0x05, 0x0a,
  0xf6, 0x03, 0xf6, 0xf7, 0x07, 0xf5, 0x03, 0x03, 0x05, 0x03, 0xf6, 0xfe,
  0x09, 0xfb, 0x03, 0xfd, 0x0a, 0x06, 0xf8, 0xff, 0xfd, 0x03, 0xf4, 0x00,
  0xf5, 0x06, 0x03, 0xf7, 0xfe, 0xf5, 0x02, 0x05, 0xf9, 0x03, 0xfe, 0xf8,
  0xfd, 0xf8, 0xf9, 0x05, 0xfd, 0xf8, 0xf7, 0x07, 0xff, 0x08, 0x01, 0xf7,
  0xff, 0xf4, 0xf4, 0xfa, 0x00, 0x05, 0xfc, 0x05, 0x01, 0x03, 0x08, 0xf5,
  0xf6, 0xf6, 0xf7, 0x06, 0x08, 0x00, 0x0a, 0xfe, 0xde, 0xf2, 0x04, 0x13,
  0xf7, 0x03, 0xf4, 0xce, 0x12, 0x26, 0x12, 0x03, 0x1f, 0x02, 0x1f, 0x0a,
  0xe7, 0xf1, 0xe5, 0x03, 0x05, 0xfd, 0xea, 0xcf, 0x0e, 0x29, 0x21, 0xfc,
  0x2c, 0x1f, 0x0f, 0x06, 0xd5, 0xfd, 0xf7, 0xff, 0xfe, 0xf4, 0xe4, 0xc5,
  0x0b, 0x0f, 0x13, 0xf9, 0x1a, 0x07, 0x0a, 0x0f, 0xd2, 0xf2, 0xf2, 0x0c,
  0x0b, 0x04, 0xef, 0xcc, 0x05, 0x0d, 0x1b, 0xf5, 0x1d, 0x09, 0xff, 0xff,
  0xd3, 0xea, 0xec, 0xf7, 0x0b, 0x14, 0xfa, 0xca, 0xf9, 0x10, 0x14, 0xf2,
  0x06, 0xf8, 0x05, 0x08, 0xf2, 0x14, 0xf7, 0xf7, 0x09, 0xe8, 0xef, 0xd1,
  0x06, 0xfd, 0x0f, 0xf3, 0x04, 0xf5, 0xf6, 0x10, 0xe1, 0x03, 0xf2, 0x02,
  0x13, 0xef, 0x0a, 0xea, 0x0e, 0x02, 0x14, 0xe1, 0xfe, 0xf3, 0xf8, 0x09,
  0xec, 0x08, 0xf8, 0xf4, 0x10, 0xfc, 0x05, 0xd9, 0x0f, 0x15, 0x0e, 0xe1,
  0x0a, 0xfa, 0xf9, 0xeb, 0xe6, 0x0b, 0xee, 0xf9, 0x11, 0xec, 0x13, 0xd1,
  0x17, 0x1b, 0x19, 0xd6, 0x00, 0xfd, 0xf6, 0x02, 0xf5, 0x06, 0xee, 0x04,
  0x03, 0xed, 0x1c, 0xdc, 0x17, 0x20, 0x26, 0xdd, 0x15, 0xfb, 0x0f, 0xf2,
  0xf4, 0x21, 0xf0, 0x04, 0x07, 0xe8, 0x1c, 0xe3, 0x04, 0x18, 0x1a, 0xdc,
  0x04, 0xec, 0xf7, 0xfc, 0xef, 0x1d, 0xf3, 0x0a, 0x1a, 0xe7, 0x14, 0xe3,
  0x03, 0x11, 0x18, 0xd1, 0x0b, 0xfd, 0xfc, 0x06, 0xf2, 0x10, 0x06, 0xf9,
  0x03, 0xec, 0x08, 0xf5, 0x10, 0x0b, 0x19, 0xe3, 0x07, 0xff, 0xf7, 0xf6,
  0xf8, 0xfd, 0xf7, 0xfc, 0xf7, 0xf6, 0xff, 0xfb, 0x12, 0x10, 0x14, 0xd5,
  0x0b, 0xef, 0xf1, 0xda, 0xeb, 0x03, 0xfa, 0xf6, 0xec, 0xfc, 0x01, 0x07,
  0x0f, 0x08, 0x15, 0xf7, 0x05, 0x07, 0xf3, 0xd7, 0xe5, 0x0f, 0x15, 0xf1,
  0x00, 0xfe, 0x02, 0x13, 0x15, 0xfb, 0x0f, 0x08, 0xfb, 0x03, 0xfe, 0xd4,
  0xfa, 0x12, 0x14, 0x03, 0xf5, 0x07, 0x08, 0x16, 0x0d, 0xf6, 0x21, 0x0e,
  0xf5, 0x0d, 0x15, 0xd2, 0xed, 0x08, 0x2a, 0x04, 0x0f, 0x0f, 0x03, 0x13,
  0x0f, 0xf7, 0x20, 0x0f, 0xfe, 0xf3, 0xef, 0xd0, 0xeb, 0x12, 0x1f, 0xfa,
  0x03, 0xfb, 0x10, 0x0d, 0x14, 0x01, 0x10, 0x11, 0xf9, 0xf8, 0xf4, 0xe1,
  0xe6, 0x07, 0x15, 0x0d, 0x0d, 0xf7, 0xfc, 0x02, 0x0c, 0xf2, 0x0b, 0x14,
  0xfb, 0x00, 0xee, 0xee, 0xf1, 0xe8, 0x24, 0x0c, 0xf6, 0xf6, 0xff, 0xf5,
  0xfa, 0xf4, 0x05, 0x20, 0xfd, 0x06, 0x0d, 0xda, 0xee, 0x12, 0x25, 0xe1,
  0xfd, 0x01, 0x0a, 0xe8, 0x02, 0xf7, 0x0a, 0x1c, 0xf8, 0xfd, 0x01, 0xe0,
  0xf9, 0x18, 0x1f, 0xe7, 0x03, 0xf6, 0xfc, 0xf5, 0x0a, 0xf1, 0x00, 0x30,
  0xf6, 0xf1, 0xf9, 0xf5, 0xf3, 0x0a, 0x24, 0xe2, 0xee, 0xf1, 0xfa, 0xee,
  0x0a, 0xe7, 0x0f, 0x28, 0xed, 0x0e, 0xf9, 0xf4, 0x08, 0xfd, 0x21, 0xfc,
  0xf7, 0xf6, 0xfc, 0x02, 0x0e, 0xfd, 0xfa, 0x31, 0xfa, 0x08, 0x02, 0xee,
  0xeb, 0xf2, 0x28, 0xee, 0xf7, 0xf8, 0x0d, 0x04, 0x04, 0xea, 0x01, 0x19,
  0x06, 0x05, 0x04, 0xe8, 0xfd, 0x0c, 0x28, 0xf9, 0xf4, 0xea, 0x15, 0x08,
  0xfe, 0xf8, 0xf1, 0x15, 0xff, 0xfd, 0x0a, 0xf0, 0x00, 0xf1, 0x19, 0xed,
  0x04, 0xeb, 0x03, 0x0c, 0x07, 0xea, 0xf8, 0x1e, 0xf3, 0xf2, 0xf3, 0xdc,
  0x08, 0x00, 0x22, 0xef, 0xf1, 0xeb, 0x07, 0x09, 0xfe, 0xdb, 0xed, 0x1a,
  0xd9, 0x02, 0xfe, 0xf0, 0xfc, 0x03, 0x2d, 0xde, 0xf0, 0xd3, 0xf6, 0x09,
  0x00, 0xf8, 0xef, 0x28, 0xd7, 0xee, 0x00, 0xf9, 0x06, 0xe0, 0x14, 0xe3,
  0xf2, 0xce, 0xef, 0x13, 0x0e, 0xf1, 0xfc, 0x10, 0xed, 0xef, 0x07, 0xfa,
  0xf7, 0xdc, 0x14, 0xde, 0xda, 0xd5, 0x09, 0x0e, 0x00, 0xef, 0x02, 0x0d,
  0xee, 0xe9, 0xff, 0xfa, 0x12, 0xeb, 0x10, 0xe5, 0xdf, 0xdd, 0xf8, 0xff,
  0xf9, 0xe7, 0xf1, 0x15, 0xfd, 0xeb, 0xfe, 0x04, 0x10, 0xf1, 0x07, 0xee,
  0xd9, 0xec, 0xfb, 0x11, 0x11, 0xf6, 0xf6, 0x05, 0x08, 0x01, 0xfe, 0xed,
  0x03, 0xf3, 0x0c, 0xe6, 0xde, 0xfa, 0x0e, 0x06, 0x14, 0x0f, 0x01, 0x0b,
  0xe0, 0xf7, 0xfe, 0xf7, 0x14, 0x03, 0xf2, 0xe6, 0xde, 0x0d, 0x10, 0x0b,
  0x27, 0x0c, 0xf8, 0xf0, 0xf2, 0xf4, 0x0b, 0xf2, 0x04, 0x04, 0xea, 0xf2,
  0xdf, 0x02, 0x0a, 0x10, 0x17, 0x08, 0xfb, 0xf2, 0xfa, 0xfb, 0xff, 0xea,
  0xf7, 0xf9, 0xe4, 0xfd, 0xe3, 0xf9, 0xef, 0x14, 0x0f, 0x02, 0xef, 0xe7,
  0xeb, 0xfc, 0x04, 0xe5, 0x08, 0xff, 0xf8, 0xd2, 0xd6, 0x0b, 0xfc, 0x0d,
  0x0c, 0xf5, 0xee, 0xf4, 0xf6, 0xf2, 0xf4, 0xdc, 0x0c, 0x06, 0xe7, 0xde,
  0xdb, 0xf9, 0x16, 0x0f, 0x13, 0x09, 0xfd, 0xdf, 0xed, 0xf0, 0x08, 0xe1,
  0x04, 0xff, 0xf2, 0xe4, 0xe4, 0xf8, 0x00, 0x0d, 0xfd, 0x04, 0xf1, 0xe8,
  0xf1, 0x0c, 0xf2, 0xd9, 0x0e, 0x02, 0xfe, 0xe7, 0xec, 0x05, 0xf9, 0x0f,
  0xee, 0xee, 0xec, 0xf9, 0xde, 0xf4, 0xe8, 0xe9, 0x0b, 0x0b, 0x00, 0xea,
  0xeb, 0x0c, 0x08, 0x0a, 0x01, 0xff, 0xf1, 0xfe, 0xe7, 0xf5, 0xff, 0xee,
  0x03, 0xf0, 0xf6, 0xeb, 0xe5, 0x04, 0x04, 0x01, 0xf7, 0x03, 0xe9, 0xfa,
  0x00, 0xfa, 0x05, 0xee, 0xfb, 0xfb, 0xfc, 0xfb, 0xef, 0x04, 0xed, 0x04,
  0x03, 0x00, 0xf2, 0xf3, 0x19, 0xfd, 0x03, 0xec, 0x08, 0x23, 0xec, 0xf3,
  0xea, 0x0f, 0x06, 0x09, 0xf3, 0xf7, 0xe8, 0xf3, 0xf7, 0x03, 0xed, 0xf4,
  0x00, 0x10, 0xef, 0xf6, 0xf6, 0x0f, 0xfc, 0x1b, 0x04, 0x02, 0xf1, 0xea,
  0xe3, 0xf0, 0xf9, 0xd9, 0xfa, 0x1b, 0xfe, 0xee, 0x03, 0x09, 0xf3, 0x0d,
  0xf9, 0xe6, 0xee, 0xfb, 0xdb, 0xec, 0x01, 0xdc, 0xf7, 0xe1, 0x0f, 0xf5,
  0xfd, 0x0d, 0x0a, 0x16, 0xf0, 0xf8, 0xed, 0xf7, 0xd5, 0x02, 0x09, 0xd2,
  0xfb, 0xfa, 0x01, 0xdc, 0xef, 0x10, 0x07, 0x1a, 0xf7, 0xe6, 0xe5, 0x01,
  0xf2, 0xfa, 0x00, 0xd6, 0x0e, 0x0b, 0xee, 0xe5, 0xf1, 0x22, 0xfd, 0x05,
  0xfb, 0xca, 0xd8, 0xf6, 0xce, 0xf5, 0x04, 0xe7, 0x0d, 0x1d, 0xf6, 0xe8,
  0xe8, 0x24, 0x08, 0x1e, 0xfa, 0xde, 0xe0, 0x08, 0xd4, 0xfd, 0xff, 0xd9,
  0xfa, 0x16, 0xf6, 0xff, 0xf0, 0x0e, 0xf3, 0x0a, 0xf4, 0xf5, 0xd5, 0x12,
  0xe7, 0xe5, 0x08, 0xe9, 0x10, 0x02, 0xfb, 0xea, 0xea, 0x0e, 0xf5, 0xfe,
  0x05, 0xde, 0xd5, 0x0b, 0xf7, 0xdd, 0xf7, 0xf0, 0x0e, 0x19, 0x07, 0xf2,
  0xe8, 0x23, 0x07, 0x06, 0xf2, 0xda, 0xe1, 0x0f, 0xda, 0xe7, 0xf1, 0xfb,
  0x12, 0x03, 0x0a, 0xfd, 0xe2, 0x28, 0x02, 0x03, 0x00, 0xea, 0xe1, 0x07,
  0xef, 0xe5, 0xf1, 0x0b, 0x09, 0xff, 0x08, 0x03, 0xe9, 0x09, 0xf2, 0x08,
  0xf8, 0xf2, 0xf4, 0x0e, 0xfd, 0xf4, 0xef, 0x04, 0x03, 0x21, 0x0a, 0xfd,
  0xea, 0xfa, 0xf9, 0xfa, 0xec, 0xee, 0xe0, 0x09, 0xfe, 0xf8, 0xf4, 0xfa,
  0x17, 0x03, 0x01, 0xf6, 0xe3, 0xfb, 0x0b, 0x09, 0xed, 0xf3, 0xf5, 0xf8,
  0x05, 0xf5, 0xee, 0xf5, 0x14, 0x0c, 0x0f, 0xef, 0xee, 0xfd, 0x1a, 0x04,
  0xfe, 0x0a, 0xd9, 0x01, 0xfa, 0x09, 0xf6, 0xf4, 0xfc, 0x11, 0x08, 0x01,
  0xe3, 0xf2, 0x17, 0xf6, 0xeb, 0x10, 0xd9, 0x01, 0x1b, 0xf7, 0x08, 0xea,
  0x04, 0x11, 0x02, 0xec, 0xdb, 0xf9, 0x16, 0x08, 0xe7, 0x17, 0xd1, 0x05,
  0x00, 0x07, 0x0b, 0xef, 0x1c, 0x20, 0xe7, 0xf3, 0xef, 0x03, 0x0d, 0x0f,
  0xe3, 0x1b, 0xe9, 0xfd, 0x07, 0x10, 0x0f, 0xf2, 0x1c, 0xf9, 0xe8, 0xfe,
  0xe3, 0x0c, 0x12, 0x09, 0xe8, 0x03, 0xed, 0xf9, 0x15, 0xfc, 0xfb, 0x1c,
  0x17, 0x05, 0xdd, 0xfb, 0xdb, 0x17, 0x04, 0x05, 0xea, 0x0f, 0xee, 0xfe,
  0x17, 0x09, 0x0a, 0xf7, 0x0a, 0xf2, 0xe5, 0x00, 0xff, 0x0a, 0xf8, 0xf7,
  0xf9, 0x15, 0xf5, 0xf5, 0x09, 0x1e, 0xf8, 0x0e, 0x06, 0x12, 0xdf, 0x08,
  0xee, 0xfe, 0x09, 0xed, 0xe7, 0x09, 0xf5, 0xf3, 0x19, 0x0a, 0x0c, 0x06,
  0x0e, 0x11, 0xe5, 0xfb, 0xf7, 0x02, 0xee, 0xff, 0xda, 0x06, 0x03, 0xfc,
  0x1f, 0x08, 0x05, 0x0f, 0x05, 0xfb, 0xe3, 0xef, 0xdc, 0xfb, 0x01, 0x00,
  0xec, 0x08, 0x04, 0xec, 0xee, 0x0f, 0x04, 0xff, 0x06, 0xed, 0xdd, 0x06,
  0xe0, 0x12, 0xf8, 0x0a, 0xea, 0x0b, 0xf9, 0xe0, 0xfc, 0x10, 0x0f, 0x0b,
  0x1b, 0x01, 0xec, 0x06, 0xe7, 0x18, 0x03, 0x0f, 0xf3, 0x0e, 0xef, 0xeb,
  0x02, 0x0b, 0xfc, 0x2d, 0x23, 0xf5, 0xdc, 0x15, 0xe4, 0x13, 0x03, 0x05,
  0xfd, 0x06, 0xf2, 0xee, 0xfb, 0x08, 0x09, 0xf6, 0x20, 0xef, 0xda, 0x02,
  0xeb, 0x0d, 0x14, 0x0d, 0xf5, 0x15, 0xf2, 0xfa, 0x10, 0xf8, 0xf0, 0xf2,
  0x2c, 0x16, 0xd8, 0x03, 0xea, 0x14, 0x08, 0x0b, 0xee, 0x0d, 0xed, 0xec,
  0xfe, 0x03, 0x00, 0x01, 0x24, 0x07, 0xdb, 0xfe, 0xd2, 0xf8, 0xed, 0x0f,
  0xf8, 0x10, 0xf5, 0xec, 0x03, 0x09, 0x10, 0xe8, 0x1c, 0x10, 0xd6, 0xf5,
  0xee, 0x03, 0xea, 0x12, 0xe0, 0x09, 0xed, 0xec, 0x06, 0x0e, 0x0b, 0x00,
  0x09, 0x12, 0xe2, 0xfd, 0xe4, 0x17, 0xee, 0x0b, 0xe3, 0x04, 0x06, 0xee,
  0xfc, 0x01, 0x06, 0x0b, 0x09, 0x17, 0xdb, 0xff, 0xd7, 0x1b, 0xe8, 0x03,
  0xf3, 0x1a, 0x04, 0xf3, 0xf7, 0xf7, 0xfa, 0x0a, 0xf6, 0x2e, 0xdd, 0xed,
  0xdf, 0x15, 0xec, 0x02, 0xee, 0x11, 0xfc, 0xea, 0x01, 0xf2, 0xfc, 0x04,
  0x00, 0xf8, 0xe2, 0xf9, 0x0c, 0x1b, 0x00, 0x03, 0xf9, 0x0f, 0xf9, 0xed,
  0x03, 0xfc, 0x04, 0x0c, 0xf9, 0xfd, 0xe5, 0x01, 0x08, 0x03, 0xed, 0x02,
  0xee, 0x0d, 0x0f, 0xf9, 0xfa, 0xf8, 0xf8, 0x09, 0xef, 0x00, 0xea, 0x0b,
  0xf6, 0xfd, 0x03, 0xf0, 0xf3, 0x10, 0x0a, 0xf8, 0x0e, 0x02, 0x0e, 0x11,
  0xe9, 0x10, 0xd7, 0x15, 0xfa, 0x06, 0xe5, 0xda, 0xfb, 0x24, 0x06, 0xf4,
  0x21, 0xfe, 0x04, 0x1e, 0xe6, 0xf7, 0xe5, 0x11, 0xee, 0xf3, 0xef, 0xd9,
  0xf7, 0x21, 0xfa, 0xf5, 0x2a, 0x0b, 0x0a, 0x11, 0xf7, 0xe8, 0xe8, 0xec,
  0xec, 0xe7, 0x03, 0xee, 0xfa, 0x26, 0xf3, 0xf7, 0x1e, 0x17, 0xf6, 0x09,
  0xdf, 0xf1, 0xd4, 0xf6, 0xd1, 0xd3, 0x02, 0xce, 0xd7, 0xee, 0x0e, 0xbc,
  0x18, 0xc8, 0xf5, 0xe8, 0xcb, 0xfe, 0xc7, 0xf0, 0xcc, 0xe9, 0x01, 0xb8,
  0xc6, 0xfa, 0xfd, 0xd2, 0x0c, 0xe8, 0xc1, 0xe3, 0xb4, 0x22, 0xcc, 0xf1,
  0xd1, 0xef, 0xfa, 0xc8, 0xd0, 0xfc, 0xeb, 0xdd, 0xf8, 0xf6, 0xf1, 0xe8,
  0xb3, 0x06, 0xc9, 0xf8, 0xdc, 0xdc, 0xeb, 0xcd, 0xe0, 0x11, 0xd4, 0xdd,
  0x0a, 0x0a, 0x1b, 0xe2, 0xa3, 0xfa, 0xce, 0xf5, 0xcf, 0xca, 0xf2, 0xbc,
  0xd5, 0x22, 0xeb, 0xdc, 0x28, 0x0f, 0x28, 0xdf, 0xbd, 0x1a, 0xc9, 0xfd,
  0xc2, 0xd1, 0xf2, 0xbe, 0xe0, 0x1e, 0xeb, 0xe7, 0x36, 0x11, 0x31, 0xd5,
  0xd0, 0x05, 0xdf, 0xef, 0xc8, 0xce, 0xf8, 0xb9, 0xe5, 0x18, 0xf3, 0xdb,
  0x2b, 0x07, 0x13, 0xd8, 0xd4, 0x15, 0xc0, 0xfb, 0xd8, 0xe1, 0x00, 0xb8,
  0xec, 0x0e, 0xeb, 0xe9, 0x27, 0x0f, 0x10, 0xe1, 0xf2, 0x25, 0xdf, 0xed,
  0xca, 0xd4, 0xfb, 0xcc, 0xef, 0x0d, 0x01, 0xf0, 0x1c, 0x15, 0xed, 0xe2,
  0x15, 0x0d, 0xd7, 0xfb, 0xca, 0xf6, 0x01, 0xdf, 0xf1, 0xfd, 0xe0, 0xf9,
  0x18, 0xfb, 0xe0, 0xea, 0x1f, 0x1f, 0xe6, 0xf9, 0xc2, 0xf1, 0x0f, 0xe7,
  0xf1, 0xf8, 0xf5, 0xf3, 0xfe, 0xfc, 0xee, 0xe9, 0x20, 0x15, 0xd9, 0xf8,
  0xc7, 0x0a, 0x16, 0xd7, 0xeb, 0xf4, 0xf0, 0xe3, 0x06, 0xfb, 0xef, 0xd7,
  0x21, 0xf4, 0xee, 0xff, 0xcc, 0xfc, 0x04, 0xfb, 0x0b, 0xe2, 0xdb, 0xe5,
  0xfd, 0xe7, 0xd6, 0x04, 0x13, 0xfe, 0xea, 0x12, 0xe6, 0xf8, 0xf6, 0xf2,
  0x0c, 0xf2, 0xf9, 0x03, 0xf6, 0xf2, 0xe7, 0x1f, 0x11, 0x07, 0xf7, 0x2c,
  0xf4, 0xed, 0x08, 0xe1, 0xff, 0xf4, 0xf5, 0x06, 0xf1, 0xe9, 0xdf, 0x23,
  0x12, 0xf7, 0xee, 0x37, 0xfd, 0xed, 0x06, 0xe6, 0xec, 0xfb, 0xe1, 0xf4,
  0xf8, 0xde, 0xf7, 0x25, 0x07, 0xf6, 0xed, 0x2d, 0xf7, 0x00, 0x16, 0xe7,
  0xfa, 0x07, 0xfc, 0xf7, 0xf3, 0xf5, 0xf6, 0x13, 0x07, 0x0e, 0xdf, 0x18,
  0x04, 0xf0, 0x11, 0xe2, 0xf7, 0x02, 0xff, 0xf6, 0x0b, 0xfb, 0xfe, 0x11,
  0x09, 0x04, 0xf8, 0x33, 0x17, 0xf2, 0x0b, 0xef, 0xf5, 0x0e, 0xfd, 0xed,
  0xff, 0x0b, 0x03, 0x2d, 0x09, 0x15, 0xe3, 0x31, 0x0f, 0xfe, 0x10, 0x00,
  0x11, 0x06, 0x06, 0xef, 0xf1, 0xf8, 0x01, 0x1b, 0x15, 0x08, 0xf6, 0x63,
  0x13, 0x04, 0x17, 0x0c, 0x0c, 0x00, 0x04, 0xeb, 0xeb, 0xeb, 0x03, 0x29,
  0x09, 0xf9, 0x07, 0x50, 0x1b, 0xf4, 0x0b, 0x03, 0x02, 0xf5, 0xfd, 0xfc,
  0xfb, 0x08, 0xfd, 0x3b, 0xfe, 0xeb, 0xfe, 0x40, 0x1d, 0x11, 0x0a, 0x09,
  0xf8, 0xf2, 0x02, 0xf4, 0x0a, 0xf6, 0x00, 0x33, 0x08, 0xf4, 0xf6, 0x4c,
  0x1e, 0x0f, 0x12, 0x04, 0xf9, 0x04, 0x18, 0xfb, 0xfe, 0xfa, 0x03, 0x3e,
  0x0d, 0xe5, 0xf5, 0x59, 0x16, 0x19, 0x07, 0x0d, 0x00, 0xf3, 0x0e, 0xfc,
  0xf8, 0xfa, 0xf6, 0x2d, 0x1d, 0x02, 0xf3, 0x29, 0x03, 0x17, 0xf1, 0x12,
  0xf5, 0xf1, 0x08, 0xf7, 0xf4, 0x0b, 0xf9, 0x37, 0x14, 0xf5, 0xf4, 0x31,
  0xf9, 0x0b, 0x03, 0x08, 0xeb, 0xfb, 0xf4, 0x11, 0x00, 0x02, 0x10, 0x3f,
  0x05, 0xf2, 0xee, 0x1f, 0xf7, 0x17, 0xff, 0x00, 0xf4, 0x05, 0x09, 0xf4,
  0x13, 0xfc, 0x06, 0x28, 0x08, 0x16, 0xf8, 0x21, 0x00, 0x09, 0x09, 0x02,
  0xf7, 0x09, 0x0d, 0x05, 0x21, 0x00, 0x09, 0x19, 0x07, 0x0e, 0xf2, 0x32,
  0xff, 0x15, 0x05, 0x02, 0xf0, 0x0b, 0x1c, 0xf8, 0x19, 0x0e, 0xfa, 0x24,
  0x0d, 0x19, 0xed, 0x23, 0xf9, 0x0d, 0x0c, 0x08, 0xe9, 0x0c, 0x0c, 0xf0,
  0x12, 0xfc, 0x09, 0x1d, 0x0c, 0x2a, 0xe0, 0x36, 0x04, 0x1d, 0x02, 0x09,
  0xea, 0x11, 0x15, 0x07, 0x12, 0x08, 0x0d, 0x33, 0xec, 0x0f, 0xf0, 0x3d,
  0x1e, 0xf8, 0x03, 0x0b, 0xf7, 0x08, 0x1e, 0xfd, 0x09, 0x08, 0x06, 0x38,
  0xf2, 0xf6, 0xfd, 0x2e, 0x19, 0x12, 0xf0, 0x0f, 0xf7, 0x0e, 0x0f, 0xf1,
  0x19, 0x02, 0x01, 0x23, 0xff, 0xe8, 0xf2, 0x36, 0x12, 0xf7, 0xe8, 0x06,
  0xf0, 0x11, 0x0a, 0xfc, 0x0b, 0xfd, 0xf5, 0x20, 0xf7, 0xf3, 0x03, 0x20,
  0x13, 0xfc, 0xed, 0x07, 0xf7, 0x0a, 0x0a, 0xff, 0xfe, 0xfd, 0x00, 0x33,
  0xf5, 0xfe, 0xff, 0x12, 0x1c, 0x1e, 0xfb, 0x04, 0xde, 0x0a, 0x05, 0x02,
  0x00, 0x11, 0x11, 0x13, 0x06, 0xfc, 0x03, 0x20, 0x1e, 0x1a, 0x04, 0x09,
  0xe7, 0x09, 0x17, 0xe6, 0xf3, 0xfd, 0x0e, 0x13, 0x16, 0x01, 0xf2, 0x45,
  0x30, 0x35, 0xfe, 0x18, 0xe6, 0xfe, 0x0e, 0xef, 0x03, 0xf3, 0x12, 0x33,
  0x10, 0xf5, 0xf6, 0x39, 0x26, 0x32, 0xf8, 0x2a, 0xda, 0x05, 0x04, 0xf9,
  0x08, 0x03, 0x06, 0x1d, 0x10, 0x04, 0x00, 0x53, 0x2b, 0x20, 0xf2, 0x26,
  0xe2, 0x01, 0xfe, 0xf1, 0x0d, 0x07, 0x11, 0x24, 0xf6, 0x09, 0x04, 0x47,
  0x18, 0x0a, 0x00, 0x08, 0xdb, 0x08, 0x02, 0xe7, 0xf9, 0x01, 0x10, 0x10,
  0x02, 0x22, 0x0f, 0x2d, 0x17, 0x04, 0x09, 0x1e, 0xf0, 0x10, 0x02, 0xf5,
  0x02, 0xff, 0x0c, 0x23, 0x1f, 0x1d, 0x13, 0x2e, 0x1f, 0x13, 0x03, 0x0f,
  0xfe, 0x0f, 0x13, 0xf7, 0x0b, 0x08, 0xef, 0x31, 0x13, 0x07, 0x23, 0x37,
  0x1c, 0x2c, 0x02, 0x12, 0x0a, 0xf9, 0x0e, 0xfc, 0xf0, 0xf1, 0xec, 0x2b,
  0xfd, 0x13, 0x19, 0x50, 0x23, 0x29, 0x0d, 0x10, 0x01, 0xf0, 0x12, 0x05,
  0xd9, 0xe3, 0xdf, 0x2b, 0x0a, 0xf3, 0x0b, 0x35, 0x22, 0x2c, 0x05, 0x13,
  0x0b, 0xf1, 0x0f, 0xef, 0xf3, 0xeb, 0xfd, 0x31, 0x01, 0x1d, 0xfc, 0x3a,
  0x23, 0x24, 0x08, 0x04, 0xf7, 0xf8, 0x06, 0x0a, 0xfc, 0xfc, 0xf7, 0x35,
  0x10, 0xfe, 0x09, 0x2e, 0x0e, 0x23, 0x02, 0x0c, 0x06, 0x01, 0x0e, 0x08,
  0xf6, 0xff, 0xea, 0x38, 0x0c, 0x07, 0x0a, 0x27, 0x09, 0x22, 0xfc, 0x09,
  0x08, 0xf7, 0x13, 0x03, 0xf7, 0xfa, 0xe9, 0x2e, 0xf9, 0xef, 0x17, 0x36,
  0x0c, 0x03, 0x00, 0x0c, 0x11, 0x13, 0x18, 0x06, 0xfa, 0xf3, 0xe6, 0x22,
  0xfb, 0xfb, 0x23, 0x31, 0x0a, 0x09, 0x05, 0x05, 0xff, 0xf5, 0x05, 0x13,
  0xe8, 0x06, 0x01, 0x21, 0x02, 0x01, 0x2b, 0x19, 0xf6, 0x10, 0x0a, 0xfe,
  0x0b, 0x04, 0x1d, 0xfb, 0xed, 0xf9, 0xde, 0x28, 0x07, 0x0e, 0x27, 0x25,
  0x0d, 0x04, 0x01, 0x01, 0x11, 0xf7, 0x05, 0x0f, 0xdc, 0xe5, 0x0f, 0x2e,
  0xf1, 0xf6, 0x28, 0x3c, 0x0e, 0xf9, 0x0a, 0xf2, 0xfe, 0xfa, 0x0c, 0x05,
  0x03, 0xf1, 0x0d, 0x28, 0xf4, 0x17, 0x2e, 0x1e, 0x2f, 0xfd, 0x1d, 0xf6,
  0x0e, 0x0b, 0x10, 0xfe, 0xfa, 0xf9, 0x01, 0x29, 0x00, 0x0d, 0x3c, 0x20,
  0x17, 0x01, 0x1a, 0xfa, 0x0f, 0xee, 0x04, 0xfa, 0xe8, 0xe8, 0xec, 0x36,
  0x02, 0x13, 0x3a, 0x18, 0x13, 0x04, 0x17, 0x0a, 0x10, 0xea, 0x01, 0x0e,
  0xd2, 0xe4, 0xed, 0x19, 0x03, 0x19, 0x2e, 0x1f, 0x14, 0x0c, 0x02, 0x0f,
  0x02, 0xeb, 0xfb, 0x1b, 0xf3, 0xee, 0x09, 0x2c, 0x06, 0x0e, 0x29, 0x37,
  0x0a, 0xe8, 0x14, 0x1e, 0x08, 0xff, 0x08, 0x18, 0x00, 0xf0, 0x08, 0x2d,
  0xfe, 0xfe, 0x24, 0x37, 0x17, 0x04, 0xf8, 0x18, 0xfe, 0xf5, 0x03, 0x2d,
  0xf0, 0xf5, 0x11, 0x37, 0xfb, 0xfe, 0x11, 0x1f, 0xfa, 0xfd, 0x18, 0x11,
  0x0e, 0xf3, 0x10, 0x22, 0xff, 0x05, 0xf9, 0x1f, 0xeb, 0x0a, 0x14, 0x22,
  0xff, 0xfb, 0x01, 0x05, 0x13, 0x0c, 0x1a, 0x05, 0x0a, 0xff, 0xe5, 0x26,
  0xe5, 0x10, 0x03, 0x22, 0xff, 0xea, 0xfd, 0x1f, 0xfe, 0x0a, 0x0b, 0x05,
  0x16, 0x0b, 0x02, 0x12, 0xf3, 0x27, 0x05, 0x36, 0xfb, 0xe7, 0xfc, 0x1c,
  0x15, 0x05, 0x11, 0x15, 0x0e, 0xf9, 0xe8, 0x20, 0x06, 0x05, 0x09, 0x34,
  0xf3, 0xe6, 0xfd, 0x17, 0x13, 0x14, 0x13, 0xf3, 0xfe, 0xed, 0xfc, 0x40,
  0xf9, 0x02, 0x16, 0x30, 0xfe, 0xd5, 0xf4, 0x09, 0x12, 0x02, 0x0c, 0xfe,
  0xf8, 0xea, 0xfe, 0x39, 0xea, 0xed, 0x0d, 0x2f, 0xf9, 0xd8, 0x08, 0xfc,
  0x08, 0xfd, 0x13, 0x1c, 0x06, 0xe6, 0xf2, 0x2a, 0xef, 0x0f, 0x17, 0x37,
  0x0f, 0xdd, 0xf5, 0xfa, 0x1b, 0x07, 0x1d, 0x05, 0x03, 0xe8, 0xeb, 0x32,
  0xe8, 0x0c, 0x15, 0x26, 0xf6, 0xf3, 0xf8, 0x02, 0x12, 0xff, 0x21, 0xf5,
  0x07, 0xe6, 0xed, 0x2c, 0xee, 0x06, 0x07, 0x1d, 0x10, 0xe6, 0x08, 0x0c,
  0x08, 0x08, 0x10, 0x03, 0x05, 0xea, 0x01, 0x14, 0xf5, 0xf5, 0x12, 0x12,
  0x01, 0xea, 0x0a, 0x10, 0xfa, 0x01, 0x1c, 0x0e, 0xee, 0xee, 0xe1, 0x23,
  0xf9, 0x07, 0x11, 0x07, 0x05, 0xde, 0x04, 0x06, 0xfb, 0xfa, 0x10, 0xf9,
  0x07, 0xf6, 0xe6, 0x2d, 0x05, 0x0a, 0x0e, 0x1f, 0x0d, 0xfd, 0xfd, 0x03,
  0x02, 0x00, 0x08, 0x11, 0x00, 0xfc, 0x05, 0x25, 0x00, 0x05, 0x17, 0x14,
  0x02, 0x19, 0xfb, 0xf4, 0xfb, 0x02, 0x04, 0x12, 0xf6, 0xf7, 0x04, 0x2a,
  0xed, 0x07, 0x13, 0x0f, 0x02, 0xe5, 0xf6, 0xf8, 0xfc, 0x08, 0x0b, 0x1c,
  0xfd, 0xf0, 0x09, 0x23, 0xf8, 0xf8, 0x01, 0x12, 0xfa, 0xe4, 0xf5, 0x09,
  0xfb, 0xff, 0x03, 0x08, 0xf9, 0xf7, 0xf8, 0x19, 0xfb, 0xed, 0x0c, 0x1f,
  0x02, 0xd8, 0x0d, 0x06, 0x08, 0xef, 0x02, 0xf2, 0xf9, 0x07, 0xf9, 0x24,
  0xfe, 0xf8, 0x0b, 0x21, 0xff, 0xe6, 0xf6, 0x03, 0x1a, 0x01, 0xf0, 0x0b,
  0xf3, 0x04, 0x03, 0x1c, 0xf1, 0xf7, 0x03, 0x02, 0xeb, 0xd9, 0x03, 0x00,
  0x19, 0xfc, 0xfb, 0x06, 0xfb, 0x0c, 0xf6, 0xfa, 0x00, 0xe3, 0x01, 0x15,
  0xf3, 0xd0, 0x1e, 0xf7, 0x01, 0x01, 0xff, 0x04, 0xea, 0xfa, 0x11, 0x08,
  0x04, 0xe9, 0x07, 0x22, 0xfe, 0xdd, 0x17, 0x04, 0x0c, 0x10, 0x10, 0xf8,
  0xf3, 0x0f, 0xf9, 0x18, 0xfa, 0xe8, 0x04, 0x35, 0x08, 0xe3, 0x12, 0xfb,
  0x13, 0xfa, 0x11, 0xfa, 0xe6, 0xf9, 0xfd, 0x35, 0xee, 0xdf, 0x10, 0x30,
  0x02, 0xe4, 0x0b, 0x17, 0x0f, 0xf2, 0x05, 0x08, 0xce, 0xf3, 0x06, 0x42,
  0xf5, 0x02, 0xfa, 0xfe, 0xf4, 0xc6, 0xf0, 0x08, 0x02, 0x0f, 0xfe, 0xfe,
  0xe5, 0xec, 0xfb, 0x0d, 0xff, 0xe9, 0xdb, 0xf6, 0xe1, 0xfe, 0xda, 0xff,
  0xd3, 0xde, 0xe5, 0xed, 0xd9, 0xef, 0xeb, 0xef, 0x0a, 0xec, 0xe9, 0xf6,
  0xf2, 0xff, 0xf6, 0x07, 0xd1, 0xd3, 0xd4, 0xea, 0xee, 0xd7, 0xd5, 0x06,
  0x14, 0x1d, 0xee, 0xe6, 0xe3, 0x03, 0xfc, 0x1c, 0xd2, 0xee, 0xe4, 0xfd,
  0xe3, 0xef, 0xd4, 0xf8, 0x18, 0x25, 0xf8, 0xfb, 0xd9, 0x08, 0x0d, 0x09,
  0xd2, 0xfe, 0xdd, 0xec, 0xee, 0xf1, 0x05, 0xe4, 0x0b, 0xed, 0xe7, 0x02,
  0xe1, 0xf3, 0x03, 0x11, 0xe1, 0xfa, 0xfc, 0xf8, 0xf4, 0x05, 0xec, 0xe5,
  0x26, 0xfa, 0xeb, 0xfe, 0xd9, 0x00, 0xfd, 0x1a, 0xd9, 0xe6, 0xee, 0xff,
  0xf0, 0xfe, 0xf5, 0xf5, 0x22, 0x21, 0xf2, 0xec, 0xd6, 0x01, 0xf7, 0xf8,
  0xcf, 0xe5, 0xdd, 0x08, 0xeb, 0xea, 0xe7, 0x00, 0x08, 0x01, 0xee, 0xf7,
  0xcc, 0xf9, 0x00, 0xdc, 0xd8, 0xe7, 0xcd, 0x11, 0xee, 0xf7, 0x0e, 0xd7,
  0x23, 0xf9, 0xeb, 0xfa, 0xc2, 0x1a, 0x15, 0xef, 0xfe, 0xec, 0xe7, 0x03,
  0xf1, 0xee, 0xfe, 0xfe, 0x1d, 0xfb, 0xf5, 0xf3, 0xcd, 0x0f, 0x07, 0xf2,
  0xf9, 0xea, 0xfa, 0x02, 0xfb, 0x06, 0xea, 0x07, 0x20, 0xea, 0xf1, 0x03,
  0xde, 0xfd, 0xf4, 0xdf, 0xf4, 0xed, 0xea, 0x04, 0xe8, 0x08, 0xfe, 0x00,
  0x0c, 0xc8, 0xf9, 0x02, 0xbf, 0x01, 0xfd, 0xd2, 0xf6, 0xf6, 0xdd, 0x08,
  0xe2, 0x0b, 0x17, 0x28, 0x07, 0xd3, 0xed, 0x1c, 0xdf, 0xf1, 0xf1, 0xee,
  0x0c, 0xf9, 0xec, 0x10, 0xf3, 0x00, 0x01, 0x3f, 0x04, 0xbd, 0xf2, 0x28,
  0xdf, 0xde, 0xe9, 0xe7, 0x03, 0x0c, 0x03, 0x0d, 0xff, 0x12, 0x04, 0x43,
  0x04, 0xc0, 0xf8, 0x03, 0xf0, 0xca, 0x00, 0xf1, 0x16, 0x1d, 0x04, 0xfe,
  0x00, 0x1d, 0x05, 0x3e, 0x0b, 0xcb, 0xf3, 0x34, 0xed, 0xc3, 0xe9, 0xfa,
  0x1b, 0x17, 0x07, 0xfe, 0x22, 0x13, 0x0f, 0x2f, 0xeb, 0xea, 0xf8, 0x29,
  0xed, 0xc9, 0xef, 0xd8, 0xfd, 0x29, 0x11, 0xf1, 0x2f, 0x08, 0x09, 0x3e,
  0xf3, 0xfb, 0xfc, 0x12, 0x05, 0xc4, 0xf7, 0xeb, 0x09, 0x22, 0xf8, 0xe6,
  0x2e, 0x19, 0x04, 0x39, 0xf9, 0xda, 0xef, 0x3d, 0x05, 0xd9, 0x03, 0x05,
  0x02, 0x16, 0xfe, 0xe6, 0x24, 0x31, 0x08, 0x34, 0xfb, 0x00, 0xeb, 0x16,
  0x15, 0xea, 0x04, 0x17, 0x09, 0x15, 0x07, 0xf6, 0x30, 0x22, 0x02, 0x25,
  0xed, 0xfd, 0xeb, 0x2f, 0x1f, 0xef, 0x16, 0x0a, 0x0b, 0x13, 0x0b, 0xf6,
  0x1b, 0x14, 0xf5, 0x38, 0x00, 0xf8, 0xf5, 0x46, 0x28, 0xe8, 0x11, 0x08,
  0xef, 0xf6, 0x0d, 0xe9, 0x09, 0x09, 0x00, 0x27, 0xff, 0x02, 0xfb, 0x2b,
  0x16, 0xfc, 0x27, 0x17, 0xe9, 0xfe, 0x22, 0xfd, 0x17, 0xd8, 0xe9, 0x1d,
  0x09, 0x08, 0xf7, 0x1e, 0x1d, 0xf9, 0x12, 0x1b, 0xec, 0x23, 0x32, 0xfe,
  0x13, 0xe7, 0xe6, 0x27, 0x02, 0x05, 0x0b, 0x1c, 0x10, 0x11, 0x05, 0x17,
  0xdf, 0x0c, 0x0f, 0x03, 0x26, 0xf2, 0x06, 0x2a, 0x08, 0xf7, 0x0a, 0x0a,
  0x13, 0x1f, 0xf7, 0x11, 0xf8, 0x1b, 0x10, 0x05, 0x09, 0xfd, 0xff, 0x28,
  0x0c, 0x17, 0x15, 0x27, 0x01, 0x23, 0x0c, 0x0f, 0x06, 0x09, 0x18, 0xfd,
  0x0b, 0xf5, 0xf5, 0x1f, 0xf1, 0x0a, 0x07, 0x24, 0x06, 0x06, 0x22, 0x0b,
  0xfa, 0x1c, 0x02, 0xf5, 0x07, 0x07, 0x10, 0x1a, 0xf2, 0xec, 0xf5, 0x18,
  0xfa, 0x08, 0x15, 0x09, 0xfa, 0x24, 0x0f, 0xde, 0x13, 0x0f, 0x11, 0x18,
  0xf5, 0x05, 0xe6, 0x22, 0x10, 0x2a, 0x23, 0xf9, 0x14, 0x07, 0x11, 0xd2,
  0x0b, 0x02, 0x0e, 0x0f, 0x00, 0x3d, 0xe7, 0x2c, 0xf9, 0x20, 0x06, 0x03,
  0xf0, 0xf7, 0x05, 0xdc, 0xe1, 0xef, 0xfa, 0x11, 0x06, 0x16, 0xf6, 0x1e,
  0x0d, 0x20, 0xf4, 0x03, 0xff, 0xfe, 0xfc, 0xdf, 0xf0, 0xfe, 0x01, 0x18,
  0xdd, 0x0f, 0xec, 0x2a, 0x15, 0x11, 0xeb, 0x11, 0xfd, 0xff, 0x07, 0xe3,
  0x12, 0x03, 0xfa, 0x29, 0xf1, 0xe2, 0xf4, 0x17, 0x08, 0x1b, 0x06, 0x17,
  0xef, 0x01, 0x0a, 0xfb, 0xe5, 0xf0, 0xf6, 0x1e, 0x01, 0x0b, 0x06, 0x20,
  0x03, 0x1a, 0xf0, 0xfd, 0xdf, 0x03, 0x08, 0xfb, 0x19, 0xf7, 0x0f, 0x24,
  0xfc, 0x0d, 0x14, 0x1a, 0x1a, 0x0e, 0xfc, 0x04, 0xdc, 0xf9, 0xfe, 0xff,
  0xe2, 0xfc, 0xfa, 0x1a, 0xf0, 0x23, 0x15, 0x1d, 0x1a, 0x00, 0x08, 0xf8,
  0xd8, 0xee, 0x0e, 0xf7, 0xed, 0xe2, 0x04, 0x26, 0x0d, 0x18, 0x0f, 0x17,
  0x1f, 0x0a, 0x19, 0xfe, 0xe3, 0x04, 0x07, 0x03, 0x05, 0xec, 0x05, 0x16,
  0x0a, 0x1e, 0x0b, 0x3e, 0x1e, 0x17, 0xf3, 0x0e, 0xea, 0xe2, 0x15, 0x04,
  0xe0, 0xe6, 0x0a, 0x19, 0x14, 0x15, 0x07, 0x33, 0x19, 0x1c, 0x07, 0x0b,
  0xd1, 0xe2, 0xfc, 0x12, 0xf8, 0xe0, 0xfd, 0x28, 0x10, 0x27, 0x06, 0x42,
  0x14, 0x1a, 0x16, 0x13, 0xdc, 0x05, 0x18, 0x07, 0xe5, 0xe3, 0x18, 0x3a,
  0x0c, 0x27, 0x0a, 0x35, 0x0a, 0xf8, 0x0d, 0x0b, 0x02, 0x10, 0x1c, 0xfe,
  0xf6, 0x02, 0x08, 0x1b, 0x0b, 0x18, 0x0c, 0x1d, 0x12, 0xff, 0x13, 0x0e,
  0x10, 0x17, 0x23, 0xf8, 0x10, 0x04, 0x0c, 0x29, 0xfe, 0x13, 0x1e, 0x25,
  0x19, 0xf4, 0x0f, 0x0d, 0xf8, 0x09, 0x26, 0x03, 0xfd, 0xfb, 0x03, 0x13,
  0x0c, 0x15, 0x18, 0x29, 0x21, 0xfc, 0x08, 0x0a, 0x15, 0x05, 0x2b, 0x01,
  0xce, 0x01, 0x10, 0x22, 0x03, 0xea, 0x26, 0x2b, 0x1b, 0xf2, 0xfb, 0xfc,
  0xfd, 0x0e, 0x07, 0x0f, 0xd3, 0x09, 0x1b, 0x21, 0x03, 0xd7, 0x1e, 0x2a,
  0x1a, 0xe5, 0xee, 0xfc, 0x0a, 0x04, 0x0d, 0x05, 0xf7, 0x14, 0x0d, 0x24,
  0x10, 0xe5, 0x16, 0x1d, 0x0d, 0x07, 0xf5, 0x07, 0xf7, 0xfa, 0x1c, 0x15,
  0x07, 0x0c, 0x15, 0x28, 0x09, 0x08, 0x11, 0x25, 0x12, 0x05, 0x09, 0xf8,
  0x11, 0x13, 0x22, 0x0c, 0x02, 0x0e, 0x0c, 0x2d, 0xf4, 0xf2, 0x0f, 0x24,
  0x0c, 0x15, 0xed, 0xed, 0x08, 0x0a, 0x1e, 0x24, 0xfe, 0x17, 0xf5, 0x36,
  0xee, 0xe7, 0x18, 0x1d, 0x02, 0xfc, 0xf6, 0xfa, 0x0a, 0x26, 0x26, 0x13,
  0x07, 0xff, 0x09, 0x23, 0xe2, 0xd5, 0x13, 0x09, 0x0c, 0xf8, 0xe8, 0xfa,
  0xfc, 0x1e, 0x11, 0x11, 0x0d, 0x12, 0x02, 0x2c, 0xf2, 0xf5, 0x1b, 0x06,
  0x16, 0x02, 0x04, 0xfe, 0xe8, 0xfc, 0x0f, 0x04, 0x11, 0x1b, 0x03, 0x31,
  0xf1, 0xf5, 0x2e, 0x1e, 0x17, 0x0b, 0xec, 0x04, 0xec, 0x08, 0x09, 0x09,
  0xe8, 0x08, 0x1d, 0x2a, 0xed, 0x04, 0x19, 0x17, 0x26, 0xfd, 0xce, 0x04,
  0xfa, 0x10, 0x0e, 0x02, 0x0c, 0x03, 0x06, 0x19, 0xeb, 0xfd, 0x16, 0x02,
  0x20, 0x03, 0xf4, 0xfc, 0xf8, 0xff, 0x02, 0x0f, 0xfb, 0xf7, 0xf1, 0x1c,
  0xeb, 0xf4, 0x27, 0x06, 0x18, 0x0b, 0xeb, 0x03, 0xfc, 0xf8, 0x01, 0x03,
  0x0a, 0xfc, 0x02, 0x1a, 0xec, 0xdc, 0x20, 0x28, 0x18, 0x07, 0xf1, 0x08,
  0x0a, 0x03, 0x18, 0xf9, 0x18, 0xf1, 0x02, 0x1c, 0xd7, 0x08, 0x1b, 0x28,
  0x24, 0x08, 0xf1, 0x00, 0x04, 0x09, 0x13, 0x13, 0x0c, 0x07, 0x0a, 0x13,
  0xc9, 0x10, 0x0d, 0x31, 0x32, 0xf0, 0x03, 0x11, 0x0a, 0x1b, 0x0f, 0x07,
  0x20, 0x06, 0x05, 0x0e, 0xdf, 0x03, 0x0b, 0x15, 0x0e, 0x04, 0x1b, 0x14,
  0x02, 0x02, 0x24, 0xfe, 0x0c, 0xfa, 0xf3, 0x0a, 0xeb, 0x32, 0x0b, 0x0d,
  0x09, 0xeb, 0x16, 0xfc, 0x03, 0xf0, 0x0d, 0x04, 0xeb, 0xf0, 0xe3, 0xf5,
  0xd7, 0x14, 0xfe, 0x0e, 0xf9, 0x0f, 0x23, 0x06, 0x06, 0xe2, 0xf6, 0xe9,
  0xfc, 0xed, 0x06, 0x0c, 0xe4, 0x27, 0xfe, 0xfa, 0x04, 0x18, 0x1b, 0x03,
  0xfe, 0xde, 0xfc, 0xe9, 0xfe, 0xf8, 0xef, 0xf1, 0xf6, 0x23, 0x01, 0xf6,
  0xf8, 0x02, 0x20, 0xf5, 0xed, 0xe1, 0xf4, 0xe9, 0xee, 0xde, 0xd6, 0xea,
  0xfa, 0x20, 0x11, 0xfa, 0xef, 0xfb, 0x3c, 0x08, 0xf3, 0xdf, 0xfa, 0xe6,
  0xf3, 0xce, 0xf1, 0xf3, 0xf6, 0x22, 0xf3, 0xf3, 0xf6, 0xf0, 0x24, 0x12,
  0xfd, 0xe8, 0xfa, 0xde, 0xfe, 0xcc, 0xf4, 0xf9, 0xeb, 0x05, 0xfd, 0xfc,
  0xfc, 0xf3, 0x15, 0x07, 0xe8, 0xfb, 0xe9, 0xdc, 0xf5, 0xd9, 0x0b, 0xfc,
  0xe7, 0x21, 0xf8, 0xfd, 0xf7, 0xfb, 0x12, 0x06, 0xf9, 0x02, 0x0d, 0xf3,
  0xf8, 0xed, 0xf6, 0xf2, 0xdc, 0x18, 0xf9, 0x09, 0xf3, 0x03, 0xf9, 0xef,
  0xff, 0xfc, 0x03, 0xf2, 0x04, 0xff, 0xef, 0xe7, 0xde, 0x05, 0xf8, 0xee,
  0xfd, 0xf9, 0xe4, 0xe7, 0xf5, 0xfc, 0xf5, 0xfc, 0x09, 0x0c, 0x09, 0xf4,
  0xe1, 0xe3, 0xf1, 0xeb, 0xfb, 0x02, 0xdc, 0xe9, 0xe9, 0xf8, 0xcd, 0x03,
  0x0b, 0xf7, 0xf8, 0xf9, 0xdb, 0xd5, 0x04, 0xe3, 0x02, 0x04, 0xca, 0xef,
  0xe8, 0xed, 0xca, 0x02, 0xeb, 0x09, 0xfc, 0xd8, 0xd9, 0xd8, 0xf2, 0xf5,
  0xfe, 0x02, 0xe9, 0x02, 0xf3, 0xf2, 0xdb, 0x09, 0xf3, 0xf2, 0xf7, 0xf5,
  0xec, 0x1e, 0x09, 0xef, 0xfb, 0x05, 0x05, 0xef, 0xd5, 0xff, 0xed, 0xfe,
  0xf4, 0xf0, 0xf4, 0x06, 0xe4, 0xee, 0x16, 0xf6, 0xf1, 0xfe, 0xfc, 0x03,
  0xf0, 0xe3, 0xf5, 0xfd, 0x0a, 0xeb, 0xe6, 0xec, 0xe5, 0xdd, 0x04, 0xf4,
  0xec, 0xf9, 0x02, 0xf1, 0xfb, 0xe7, 0xf7, 0x02, 0x0b, 0xe5, 0xef, 0xdc,
  0xf0, 0x0d, 0xfa, 0xe1, 0xf0, 0xf5, 0x1b, 0xfd, 0xf4, 0xf5, 0xf7, 0xf5,
  0x0e, 0xf8, 0xf6, 0xd0, 0xfd, 0x24, 0x0b, 0xde, 0xec, 0xe8, 0x1d, 0xf0,
  0xfc, 0x07, 0x05, 0xe6, 0x09, 0x03, 0xdf, 0xe1, 0xf6, 0xff, 0x00, 0xeb,
  0xdb, 0xec, 0x20, 0xe5, 0x17, 0x0a, 0x13, 0xf7, 0x12, 0x07, 0xfe, 0xed,
  0xd6, 0xf0, 0xfd, 0x01, 0xeb, 0xe0, 0x2e, 0xee, 0x04, 0x04, 0x15, 0xfe,
  0x0f, 0xfd, 0xf3, 0xff, 0xd1, 0x12, 0x07, 0xed, 0xee, 0xdc, 0x15, 0x01,
  0x10, 0x0c, 0x06, 0x01, 0x02, 0x0e, 0xf0, 0xe3, 0xe5, 0xfd, 0x02, 0x0a,
  0xf7, 0xe6, 0x0d, 0x06, 0x02, 0x00, 0x0c, 0x00, 0xf5, 0xfe, 0x02, 0xea,
  0xd9, 0xf9, 0x0b, 0x0e, 0xfa, 0xf7, 0xfe, 0xfc, 0xfb, 0xff, 0xf1, 0x16,
  0x06, 0xfb, 0xf4, 0xef, 0xe8, 0xfd, 0xf0, 0xdf, 0xdb, 0xe3, 0xed, 0xe1,
  0xf6, 0x00, 0xf2, 0xf4, 0x00, 0xfc, 0xef, 0xea, 0xf6, 0xff, 0x00, 0xf5,
  0x06, 0x02, 0xfc, 0xed, 0xf9, 0x07, 0xf6, 0x07, 0xfe, 0xf4, 0x08, 0x00,
  0x01, 0xf4, 0x05, 0xf8, 0x00, 0xf9, 0xfd, 0xfe, 0xf5, 0x03, 0x01, 0x00,
  0xf8, 0x01, 0x09, 0xfe, 0xfb, 0x00, 0xfe, 0xfb, 0xfd, 0x06, 0xfe, 0xfb,
  0xf4, 0xff, 0xf5, 0x00, 0x04, 0x07, 0x06, 0xfd, 0xfb, 0x01, 0x02, 0xfb,
  0xf3, 0xfc, 0xf5, 0xfc, 0x04, 0xf8, 0xf5, 0xf8, 0x06, 0xf9, 0xf5, 0x08,
  0xf7, 0x09, 0xfb, 0xfb, 0xf9, 0xf5, 0xf9, 0xfa, 0xf5, 0x04, 0xf4, 0x02,
  0x04, 0x09, 0x08, 0xfa, 0xef, 0x06, 0xfa, 0x03, 0x02, 0x06, 0xfb, 0xf8,
  0x05, 0x09, 0x01, 0xf7, 0xf6, 0xf8, 0x0a, 0xf9, 0xed, 0xff, 0xf6, 0xff,
  0x06, 0xff, 0x02, 0xff, 0x03, 0x02, 0xf5, 0xf9, 0x00, 0x06, 0x04, 0x06,
  0x04, 0xfb, 0xf5, 0x08, 0x04, 0xfa, 0xf7, 0xf9, 0xf8, 0x07, 0x00, 0xf8,
  0x05, 0x01, 0x04, 0x05, 0xf9, 0x06, 0xf9, 0xf5, 0xf2, 0x05, 0xfa, 0x03,
  0xfe, 0xfc, 0x06, 0xfa, 0xfe, 0xfe, 0x06, 0xfb, 0x01, 0x03, 0x09, 0x04,
  0xfe, 0x06, 0xfd, 0x00, 0x09, 0xf7, 0x01, 0x00, 0xff, 0xfc, 0xf9, 0xf8,
  0xfb, 0x04, 0xf5, 0x05, 0xfd, 0x04, 0xf6, 0xf6, 0x07, 0xfb, 0xf7, 0x04,
  0xf8, 0x03, 0xf4, 0xf6, 0xfe, 0x04, 0x0a, 0xfb, 0xf6, 0xf7, 0xfc, 0x06,
  0x01, 0x06, 0xf4, 0x01, 0x03, 0x05, 0x05, 0x06, 0xfb, 0xfd, 0x00, 0x00,
  0xf4, 0xfc, 0xf4, 0xfc, 0x08, 0x09, 0xfa, 0x07, 0x09, 0x08, 0xfb, 0x02,
  0xfc, 0xfe, 0xf7, 0xf3, 0x05, 0x09, 0xf1, 0x04, 0x02, 0xfd, 0xf6, 0xfc,
  0xf7, 0xfb, 0xfa, 0x03, 0xfd, 0x05, 0x01, 0x09, 0x00, 0xfe, 0xfb, 0x01,
  0xf2, 0x05, 0xff, 0xfb, 0xf8, 0xfb, 0x05, 0xf4, 0xf4, 0x03, 0xff, 0xf6,
  0xff, 0xf5, 0x03, 0x05, 0xfd, 0x02, 0x07, 0xfb, 0x06, 0xf6, 0xf7, 0xfb,
  0x07, 0x08, 0xf7, 0xf8, 0xf1, 0xf8, 0x06, 0xf8, 0xf5, 0xf8, 0xf4, 0xf3,
  0xf8, 0xfd, 0x06, 0xf7, 0xf9, 0xfa, 0xf2, 0xfd, 0x00, 0x07, 0xfc, 0xfc,
  0xfc, 0xf6, 0xf4, 0x05, 0x06, 0xfe, 0x00, 0xf5, 0xf1, 0x02, 0xff, 0xf7,
  0xf2, 0x06, 0x04, 0xf4, 0xff, 0xf7, 0xf6, 0x05, 0xfa, 0x02, 0x01, 0xff,
  0xfd, 0xf5, 0xf6, 0x05, 0xfa, 0x08, 0xf6, 0x05, 0xfd, 0x07, 0x05, 0xfd,
  0x00, 0xf4, 0xfa, 0xf8, 0x04, 0xf9, 0xfc, 0x06, 0xf4, 0x03, 0x00, 0x06,
  0xfb, 0xff, 0xff, 0x04, 0xfd, 0x09, 0x07, 0xf8, 0xfb, 0xfe, 0x03, 0x03,
  0xfc, 0xfc, 0x02, 0xfb, 0xfa, 0xf7, 0xf4, 0x00, 0xfd, 0x05, 0xf5, 0x08,
  0xf7, 0x00, 0xf8, 0xfe, 0x03, 0xf5, 0x00, 0xf5, 0x01, 0x04, 0x06, 0x01,
  0x08, 0xfa, 0xfc, 0x04, 0xff, 0x05, 0x01, 0xff, 0xf0, 0x07, 0xf8, 0xf7,
  0xfb, 0xf4, 0x04, 0xf7, 0xff, 0xf6, 0xf5, 0xff, 0x01, 0xfb, 0xff, 0x05,
  0x01, 0x07, 0xfa, 0x06, 0x05, 0x05, 0xfa, 0x04, 0x06, 0xfb, 0x01, 0x03,
  0xf1, 0x08, 0x09, 0xfc, 0x02, 0xf5, 0x01, 0xff, 0x04, 0x04, 0xf9, 0x01,
  0xf7, 0xf5, 0xfc, 0x09, 0xf5, 0x02, 0xf8, 0x01, 0xfd, 0x05, 0xf8, 0xfa,
  0x04, 0xf8, 0x06, 0xff, 0x06, 0xfd, 0xf5, 0xfd, 0x02, 0x00, 0x03, 0x03,
  0x08, 0x02, 0xfc, 0xff, 0xf6, 0x08, 0xf5, 0xf6, 0xf5, 0xf7, 0x04, 0xff,
  0xf4, 0xfa, 0xf5, 0x00, 0xfc, 0xfb, 0xfc, 0x09, 0x03, 0xfe, 0xff, 0x03,
  0x02, 0xfd, 0xfd, 0xfe, 0xf3, 0xfe, 0xf9, 0x04, 0xfb, 0xfc, 0xf5, 0x06,
  0xfa, 0xf6, 0xf9, 0x07, 0x07, 0x07, 0xf9, 0xfd, 0xfa, 0x00, 0x08, 0x08,
  0x00, 0xfc, 0xf8, 0xfb, 0x07, 0x05, 0xff, 0x04, 0x02, 0xfa, 0x00, 0x01,
  0xf6, 0xf8, 0xf2, 0xf7, 0xfa, 0x09, 0x07, 0x05, 0xf5, 0x05, 0xfe, 0xf4,
  0xf4, 0xf7, 0xf7, 0xf9, 0xf5, 0x06, 0xf7, 0x00, 0xf9, 0xf7, 0xfd, 0xf5,
  0xfa, 0xf9, 0x06, 0x05, 0x05, 0xfa, 0x02, 0xff, 0xf8, 0x0f, 0xf4, 0x06,
  0x08, 0x05, 0x08, 0x03, 0x07, 0xf4, 0xf5, 0xf6, 0xf7, 0xf9, 0x04, 0x0a,
  0xfa, 0x00, 0xf1, 0xf7, 0xfb, 0x05, 0x02, 0x06, 0xf9, 0xf5, 0xf6, 0x08,
  0x02, 0xf9, 0x03, 0xf8, 0x07, 0xfe, 0xf8, 0x04, 0xfa, 0xf6, 0x02, 0xf6,
  0xfd, 0xff, 0xff, 0xf6, 0xf7, 0xff, 0xff, 0xfd, 0xfe, 0x0f, 0xf8, 0x02,
  0xf8, 0xfb, 0xf7, 0x05, 0xfe, 0xfe, 0x01, 0xfc, 0x08, 0x07, 0x01, 0x0a,
  0x06, 0x02, 0x03, 0x03, 0x03, 0x07, 0x05, 0xff, 0x04, 0x02, 0xf8, 0xfe,
  0x09, 0xfd, 0xf6, 0x03, 0xf4, 0x09, 0x05, 0xfd, 0xfb, 0x09, 0xfa, 0xf9,
  0x01, 0xf9, 0xf3, 0xf7, 0xfa, 0xf5, 0xf6, 0x05, 0xf5, 0x09, 0x01, 0x05,
  0xf2, 0x03, 0xf9, 0xf2, 0xfc, 0x08, 0xf9, 0xf4, 0xfc, 0xfa, 0xf4, 0xfc,
  0x06, 0x01, 0xf7, 0xfd, 0x00, 0x05, 0x04, 0x07, 0xf6, 0x04, 0xf4, 0x07,
  0x08, 0xfb, 0x07, 0x0a, 0xfc, 0xfd, 0xfb, 0x09, 0xf7, 0xfc, 0xf9, 0xfc,
  0xff, 0xf5, 0xfa, 0xfe, 0x04, 0xfb, 0x04, 0x07, 0xf9, 0x09, 0xfc, 0xf6,
  0xfd, 0xf5, 0xfa, 0xf6, 0x08, 0xfe, 0xff, 0xfe, 0x07, 0xf7, 0x05, 0xf9,
  0xfd, 0x00, 0xf5, 0x02, 0xfc, 0x01, 0xf6, 0x07, 0x07, 0x00, 0xff, 0x07,
  0xfb, 0xfb, 0x04, 0x05, 0x05, 0x07, 0xfa, 0x00, 0xf6, 0xf9, 0xfe, 0x05,
  0xfb, 0x09, 0x05, 0xff, 0xfc, 0x09, 0x0a, 0xf6, 0x05, 0x0c, 0xf8, 0x09,
  0xf6, 0x08, 0x04, 0x06, 0xfb, 0x04, 0xf9, 0xf3, 0xf4, 0xf4, 0xfa, 0x0b,
  0x08, 0xf7, 0xfa, 0x05, 0xf2, 0x09, 0xfb, 0xfb, 0xf8, 0x07, 0xf4, 0x02,
  0xfa, 0x07, 0x02, 0xfb, 0xf4, 0x07, 0xf2, 0xfe, 0xfe, 0x05, 0xfc, 0x04,
  0xf8, 0xfc, 0x09, 0x03, 0x07, 0xf7, 0x02, 0xfc, 0x04, 0x02, 0xf8, 0xfe,
  0xfe, 0xfc, 0xf9, 0xfd, 0xf8, 0x07, 0xf6, 0xfa, 0xfd, 0xfc, 0xfc, 0xf5,
  0xf4, 0xf8, 0x06, 0xfe, 0xf2, 0xff, 0x06, 0xf5, 0x00, 0xfa, 0xf9, 0x03,
  0x07, 0x07, 0x05, 0xf8, 0xf8, 0x04, 0x08, 0x01, 0xf2, 0x05, 0x04, 0xfa,
  0x03, 0xf9, 0xf9, 0xf7, 0x05, 0xfa, 0x04, 0x02, 0xfe, 0x04, 0xfe, 0x08,
  0xf8, 0xfb, 0xf6, 0xf7, 0x01, 0x09, 0xf5, 0x03, 0x06, 0xfb, 0xff, 0xfc,
  0x03, 0xf9, 0xf0, 0xf6, 0xfc, 0x02, 0xf8, 0xfb, 0x02, 0xf5, 0xf2, 0xfd,
  0xf7, 0x05, 0x01, 0x02, 0xfa, 0x0a, 0x07, 0x08, 0xfd, 0x07, 0xfe, 0xfd,
